{
  "version": "1.0",
  "truncation": null,
  "padding": null,
  "added_tokens": [
    {
      "id": 0,
      "content": "<s>",
      "single_word": false,
      "lstrip": false,
      "rstrip": false,
      "normalized": false,
      "special": true
    },
    {
      "id": 1,
      "content": "<pad>",
      "single_word": false,
      "lstrip": false,
      "rstrip": false,
      "normalized": false,
      "special": true
    },
    {
      "id": 2,
      "content": "</s>",
      "single_word": false,
      "lstrip": false,
      "rstrip": false,
      "normalized": false,
      "special": true
    },
    {
      "id": 3,
      "content": "<unk>",
      "single_word": false,
      "lstrip": false,
      "rstrip": false,
      "normalized": false,
      "special": true
    },
    {
      "id": 4,
      "content": "<mask>",
      "single_word": false,
      "lstrip": false,
      "rstrip": false,
      "normalized": false,
      "special": true
    }
  ],
  "normalizer": null,
  "pre_tokenizer": {
    "type": "Sequence",
    "pretokenizers": [
      {
        "type": "WhitespaceSplit"
      },
      {
        "type": "Metaspace",
        "replacement": "▁",
        "prepend_scheme": "always",
        "split": true
      }
    ]
  },
  "post_processor": {
    "type": "TemplateProcessing",
    "single": [
      {
        "SpecialToken": {
          "id": "<s>",
          "type_id": 0
        }
      },
      {
        "Sequence": {
          "id": "A",
          "type_id": 0
        }
      },
      {
        "SpecialToken": {
          "id": "</s>",
          "type_id": 0
        }
      }
    ],
    "pair": [
      {
        "SpecialToken": {
          "id": "<s>",
          "type_id": 0
        }
      },
      {
        "Sequence": {
          "id": "A",
          "type_id": 0
        }
      },
      {
        "SpecialToken": {
          "id": "</s>",
          "type_id": 0
        }
      },
      {
        "SpecialToken": {
          "id": "</s>",
          "type_id": 0
        }
      },
      {
        "Sequence": {
          "id": "B",
          "type_id": 0
        }
      },
      {
        "SpecialToken": {
          "id": "</s>",
          "type_id": 0
        }
      }
    ],
    "special_tokens": {
      "</s>": {
        "id": "</s>",
        "ids": [
          2
        ],
        "tokens": [
          "</s>"
        ]
      },
      "<s>": {
        "id": "<s>",
        "ids": [
          0
        ],
        "tokens": [
          "<s>"
        ]
      }
    }
  },
  "decoder": {
    "type": "Metaspace",
    "replacement": "▁",
    "prepend_scheme": "always",
    "split": true
  },
  "model": {
    "type": "BPE",
    "dropout": null,
    "unk_token": "<unk>",
    "continuing_subword_prefix": null,
    "end_of_word_suffix": null,
    "fuse_unk": false,
    "byte_fallback": false,
    "ignore_merges": false,
    "vocab": {
      "<s>": 0,
      "<pad>": 1,
      "</s>": 2,
      "<unk>": 3,
      "<mask>": 4,
      "!": 5,
      "\"": 6,
      "#": 7,
      "$": 8,
      "%": 9,
      "&": 10,
      "'": 11,
      "(": 12,
      ")": 13,
      "*": 14,
      "+": 15,
      ",": 16,
      "-": 17,
      ".": 18,
      "/": 19,
      "0": 20,
      "1": 21,
      "2": 22,
      "3": 23,
      "4": 24,
      "5": 25,
      "6": 26,
      "7": 27,
      "8": 28,
      "9": 29,
      ":": 30,
      ";": 31,
      "<": 32,
      "=": 33,
      ">": 34,
      "?": 35,
      "@": 36,
      "A": 37,
      "B": 38,
      "C": 39,
      "D": 40,
      "E": 41,
      "F": 42,
      "G": 43,
      "H": 44,
      "I": 45,
      "J": 46,
      "K": 47,
      "L": 48,
      "M": 49,
      "N": 50,
      "O": 51,
      "P": 52,
      "Q": 53,
      "R": 54,
      "S": 55,
      "T": 56,
      "U": 57,
      "V": 58,
      "W": 59,
      "X": 60,
      "Y": 61,
      "Z": 62,
      "[": 63,
      "\\": 64,
      "]": 65,
      "^": 66,
      "_": 67,
      "a": 68,
      "b": 69,
      "c": 70,
      "d": 71,
      "e": 72,
      "f": 73,
      "g": 74,
      "h": 75,
      "i": 76,
      "j": 77,
      "k": 78,
      "l": 79,
      "m": 80,
      "n": 81,
      "o": 82,
      "p": 83,
      "q": 84,
      "r": 85,
      "s": 86,
      "t": 87,
      "u": 88,
      "v": 89,
      "w": 90,
      "x": 91,
      "y": 92,
      "z": 93,
      "{": 94,
      "|": 95,
      "}": 96,
      "~": 97,
      "": 98,
      "": 99,
      "": 100,
      "": 101,
      "": 102,
      "¡": 103,
      "¢": 104,
      "£": 105,
      "¤": 106,
      "¥": 107,
      "¦": 108,
      "§": 109,
      "¨": 110,
      "©": 111,
      "ª": 112,
      "¬": 113,
      "­": 114,
      "®": 115,
      "¯": 116,
      "°": 117,
      "±": 118,
      "²": 119,
      "³": 120,
      "µ": 121,
      "¶": 122,
      "·": 123,
      "¸": 124,
      "¹": 125,
      "º": 126,
      "¼": 127,
      "½": 128,
      "¾": 129,
      "¿": 130,
      "À": 131,
      "Á": 132,
      "Â": 133,
      "Ã": 134,
      "Ä": 135,
      "Å": 136,
      "Æ": 137,
      "Ç": 138,
      "È": 139,
      "É": 140,
      "Ê": 141,
      "Ë": 142,
      "Ì": 143,
      "Í": 144,
      "Î": 145,
      "Ï": 146,
      "Ð": 147,
      "Ñ": 148,
      "Ò": 149,
      "Ó": 150,
      "Ô": 151,
      "Õ": 152,
      "Ö": 153,
      "×": 154,
      "Ø": 155,
      "Ù": 156,
      "Ú": 157,
      "Û": 158,
      "Ü": 159,
      "Ý": 160,
      "Þ": 161,
      "ß": 162,
      "à": 163,
      "á": 164,
      "â": 165,
      "ã": 166,
      "ä": 167,
      "å": 168,
      "æ": 169,
      "ç": 170,
      "è": 171,
      "é": 172,
      "ê": 173,
      "ë": 174,
      "ì": 175,
      "í": 176,
      "î": 177,
      "ï": 178,
      "ð": 179,
      "ñ": 180,
      "ò": 181,
      "ó": 182,
      "ô": 183,
      "õ": 184,
      "ö": 185,
      "÷": 186,
      "ø": 187,
      "ù": 188,
      "ú": 189,
      "û": 190,
      "ü": 191,
      "ý": 192,
      "þ": 193,
      "ÿ": 194,
      "Ā": 195,
      "ā": 196,
      "Ă": 197,
      "ă": 198,
      "Ą": 199,
      "ą": 200,
      "Ć": 201,
      "ć": 202,
      "Ĉ": 203,
      "ĉ": 204,
      "Ċ": 205,
      "ċ": 206,
      "Č": 207,
      "č": 208,
      "Ď": 209,
      "ď": 210,
      "Đ": 211,
      "đ": 212,
      "Ē": 213,
      "ē": 214,
      "Ĕ": 215,
      "ĕ": 216,
      "Ė": 217,
      "ė": 218,
      "Ę": 219,
      "ę": 220,
      "Ě": 221,
      "ě": 222,
      "Ĝ": 223,
      "ĝ": 224,
      "Ğ": 225,
      "ğ": 226,
      "Ġ": 227,
      "ġ": 228,
      "Ģ": 229,
      "ģ": 230,
      "Ĥ": 231,
      "ĥ": 232,
      "Ħ": 233,
      "ħ": 234,
      "ĩ": 235,
      "Ī": 236,
      "ī": 237,
      "ĭ": 238,
      "į": 239,
      "İ": 240,
      "ı": 241,
      "ĵ": 242,
      "Ķ": 243,
      "ķ": 244,
      "ĺ": 245,
      "Ļ": 246,
      "ļ": 247,
      "Ľ": 248,
      "ľ": 249,
      "Ł": 250,
      "ł": 251,
      "Ń": 252,
      "ń": 253,
      "Ņ": 254,
      "ņ": 255,
      "ň": 256,
      "Ŋ": 257,
      "ŋ": 258,
      "Ō": 259,
      "ō": 260,
      "ŏ": 261,
      "Ő": 262,
      "ő": 263,
      "Œ": 264,
      "œ": 265,
      "ŕ": 266,
      "ŗ": 267,
      "Ř": 268,
      "ř": 269,
      "Ś": 270,
      "ś": 271,
      "Ŝ": 272,
      "ŝ": 273,
      "Ş": 274,
      "ş": 275,
      "Š": 276,
      "š": 277,
      "Ţ": 278,
      "ţ": 279,
      "Ť": 280,
      "ť": 281,
      "Ŧ": 282,
      "ũ": 283,
      "Ū": 284,
      "ū": 285,
      "ŭ": 286,
      "ů": 287,
      "ű": 288,
      "Ų": 289,
      "ų": 290,
      "ŵ": 291,
      "ŷ": 292,
      "Ÿ": 293,
      "Ź": 294,
      "ź": 295,
      "Ż": 296,
      "ż": 297,
      "Ž": 298,
      "ž": 299,
      "Ƅ": 300,
      "Ɔ": 301,
      "Ƌ": 302,
      "ƌ": 303,
      "ƍ": 304,
      "Ǝ": 305,
      "Ə": 306,
      "Ƒ": 307,
      "ƒ": 308,
      "Ƙ": 309,
      "ƙ": 310,
      "Ɵ": 311,
      "ơ": 312,
      "Ʃ": 313,
      "ư": 314,
      "ƴ": 315,
      "ƿ": 316,
      "ǁ": 317,
      "ǂ": 318,
      "ǃ": 319,
      "Ǎ": 320,
      "ǎ": 321,
      "ǐ": 322,
      "ǒ": 323,
      "ǔ": 324,
      "ǖ": 325,
      "ǚ": 326,
      "ǜ": 327,
      "ǝ": 328,
      "Ǟ": 329,
      "ǟ": 330,
      "Ǡ": 331,
      "ǡ": 332,
      "ǣ": 333,
      "Ǧ": 334,
      "ǧ": 335,
      "ǩ": 336,
      "Ǫ": 337,
      "ǫ": 338,
      "ǵ": 339,
      "Ƕ": 340,
      "Ǹ": 341,
      "Ǻ": 342,
      "ǻ": 343,
      "ǿ": 344,
      "Ȁ": 345,
      "ȁ": 346,
      "Ȃ": 347,
      "ȃ": 348,
      "Ș": 349,
      "ș": 350,
      "Ț": 351,
      "ț": 352,
      "Ȝ": 353,
      "ȝ": 354,
      "Ȟ": 355,
      "ȟ": 356,
      "Ȧ": 357,
      "ȧ": 358,
      "Ⱥ": 359,
      "Ɂ": 360,
      "ɂ": 361,
      "ɉ": 362,
      "ɏ": 363,
      "ɐ": 364,
      "ɑ": 365,
      "ɒ": 366,
      "ɓ": 367,
      "ɔ": 368,
      "ɕ": 369,
      "ɖ": 370,
      "ɗ": 371,
      "ɘ": 372,
      "ə": 373,
      "ɛ": 374,
      "ɜ": 375,
      "ɝ": 376,
      "ɟ": 377,
      "ɡ": 378,
      "ɣ": 379,
      "ɥ": 380,
      "ɦ": 381,
      "ɨ": 382,
      "ɩ": 383,
      "ɪ": 384,
      "ɫ": 385,
      "ɬ": 386,
      "ɮ": 387,
      "ɯ": 388,
      "ɲ": 389,
      "ɳ": 390,
      "ɴ": 391,
      "ɶ": 392,
      "ɷ": 393,
      "ɸ": 394,
      "ɹ": 395,
      "ɺ": 396,
      "ɽ": 397,
      "ɾ": 398,
      "ʀ": 399,
      "ʁ": 400,
      "ʂ": 401,
      "ʃ": 402,
      "ʇ": 403,
      "ʈ": 404,
      "ʉ": 405,
      "ʊ": 406,
      "ʋ": 407,
      "ʌ": 408,
      "ʎ": 409,
      "ʏ": 410,
      "ʐ": 411,
      "ʑ": 412,
      "ʒ": 413,
      "ʔ": 414,
      "ʕ": 415,
      "ʖ": 416,
      "ʘ": 417,
      "ʙ": 418,
      "ʚ": 419,
      "ʜ": 420,
      "ʝ": 421,
      "ʟ": 422,
      "ʧ": 423,
      "ʰ": 424,
      "ʱ": 425,
      "ʲ": 426,
      "ʷ": 427,
      "ʹ": 428,
      "ʻ": 429,
      "ʽ": 430,
      "ʾ": 431,
      "ʿ": 432,
      "ˀ": 433,
      "˂": 434,
      "ˆ": 435,
      "ˇ": 436,
      "ˈ": 437,
      "ˊ": 438,
      "ˋ": 439,
      "ˌ": 440,
      "ː": 441,
      "˘": 442,
      "˚": 443,
      "˜": 444,
      "ˤ": 445,
      "˥": 446,
      "˦": 447,
      "˧": 448,
      "˩": 449,
      "˹": 450,
      "˺": 451,
      "̀": 452,
      "́": 453,
      "̃": 454,
      "̄": 455,
      "̅": 456,
      "̇": 457,
      "̈": 458,
      "̉": 459,
      "̊": 460,
      "̋": 461,
      "̌": 462,
      "̍": 463,
      "̎": 464,
      "̏": 465,
      "̐": 466,
      "̑": 467,
      "̒": 468,
      "̓": 469,
      "̔": 470,
      "̕": 471,
      "̖": 472,
      "̗": 473,
      "̘": 474,
      "̙": 475,
      "̚": 476,
      "̛": 477,
      "̜": 478,
      "̝": 479,
      "̞": 480,
      "̟": 481,
      "̠": 482,
      "̢": 483,
      "̣": 484,
      "̤": 485,
      "̥": 486,
      "̦": 487,
      "̧": 488,
      "̨": 489,
      "̩": 490,
      "̪": 491,
      "̫": 492,
      "̬": 493,
      "̭": 494,
      "̮": 495,
      "̯": 496,
      "̰": 497,
      "̱": 498,
      "̲": 499,
      "̳": 500,
      "̴": 501,
      "̵": 502,
      "̶": 503,
      "̷": 504,
      "̸": 505,
      "̹": 506,
      "̺": 507,
      "̻": 508,
      "̽": 509,
      "̾": 510,
      "̿": 511,
      "͂": 512,
      "ͅ": 513,
      "͆": 514,
      "͇": 515,
      "͈": 516,
      "͉": 517,
      "͊": 518,
      "͋": 519,
      "͍": 520,
      "͎": 521,
      "͑": 522,
      "͒": 523,
      "͓": 524,
      "͕": 525,
      "͖": 526,
      "͗": 527,
      "͘": 528,
      "͙": 529,
      "͚": 530,
      "͛": 531,
      "͜": 532,
      "͝": 533,
      "͠": 534,
      "͡": 535,
      "΄": 536,
      "Ό": 537,
      "Ύ": 538,
      "Α": 539,
      "Β": 540,
      "Γ": 541,
      "Δ": 542,
      "Ε": 543,
      "Ζ": 544,
      "Η": 545,
      "Θ": 546,
      "Ι": 547,
      "Κ": 548,
      "Λ": 549,
      "Μ": 550,
      "Ν": 551,
      "Ξ": 552,
      "Ο": 553,
      "Π": 554,
      "Ρ": 555,
      "Σ": 556,
      "Τ": 557,
      "Υ": 558,
      "Φ": 559,
      "Χ": 560,
      "Ψ": 561,
      "Ω": 562,
      "ά": 563,
      "έ": 564,
      "ή": 565,
      "ί": 566,
      "α": 567,
      "β": 568,
      "γ": 569,
      "δ": 570,
      "ε": 571,
      "ζ": 572,
      "η": 573,
      "θ": 574,
      "ι": 575,
      "κ": 576,
      "λ": 577,
      "μ": 578,
      "ν": 579,
      "ξ": 580,
      "ο": 581,
      "π": 582,
      "ρ": 583,
      "ς": 584,
      "σ": 585,
      "τ": 586,
      "υ": 587,
      "φ": 588,
      "χ": 589,
      "ψ": 590,
      "ω": 591,
      "ϊ": 592,
      "ό": 593,
      "ύ": 594,
      "ώ": 595,
      "ϑ": 596,
      "ϕ": 597,
      "ϰ": 598,
      "ϱ": 599,
      "Ͼ": 600,
      "Ѐ": 601,
      "Ё": 602,
      "Ђ": 603,
      "Є": 604,
      "Ѕ": 605,
      "І": 606,
      "Ї": 607,
      "Ј": 608,
      "Ў": 609,
      "Џ": 610,
      "А": 611,
      "Б": 612,
      "В": 613,
      "Г": 614,
      "Д": 615,
      "Е": 616,
      "Ж": 617,
      "З": 618,
      "И": 619,
      "Й": 620,
      "К": 621,
      "Л": 622,
      "М": 623,
      "Н": 624,
      "О": 625,
      "П": 626,
      "Р": 627,
      "С": 628,
      "Т": 629,
      "У": 630,
      "Ф": 631,
      "Х": 632,
      "Ц": 633,
      "Ч": 634,
      "Ш": 635,
      "Щ": 636,
      "Э": 637,
      "Ю": 638,
      "Я": 639,
      "а": 640,
      "б": 641,
      "в": 642,
      "г": 643,
      "д": 644,
      "е": 645,
      "ж": 646,
      "з": 647,
      "и": 648,
      "й": 649,
      "к": 650,
      "л": 651,
      "м": 652,
      "н": 653,
      "о": 654,
      "п": 655,
      "р": 656,
      "с": 657,
      "т": 658,
      "у": 659,
      "ф": 660,
      "х": 661,
      "ц": 662,
      "ч": 663,
      "ш": 664,
      "щ": 665,
      "ъ": 666,
      "ы": 667,
      "ь": 668,
      "э": 669,
      "ю": 670,
      "я": 671,
      "ѐ": 672,
      "ё": 673,
      "є": 674,
      "ѕ": 675,
      "і": 676,
      "ї": 677,
      "ј": 678,
      "љ": 679,
      "њ": 680,
      "ћ": 681,
      "ў": 682,
      "џ": 683,
      "Ѡ": 684,
      "ѡ": 685,
      "ѧ": 686,
      "Ѯ": 687,
      "ѯ": 688,
      "ѱ": 689,
      "Ѳ": 690,
      "ѳ": 691,
      "Ѵ": 692,
      "ѵ": 693,
      "Ҁ": 694,
      "ҁ": 695,
      "Ґ": 696,
      "ґ": 697,
      "Ғ": 698,
      "ғ": 699,
      "Қ": 700,
      "қ": 701,
      "ң": 702,
      "ҫ": 703,
      "ү": 704,
      "Ұ": 705,
      "ұ": 706,
      "ҳ": 707,
      "Ҷ": 708,
      "ҷ": 709,
      "Ә": 710,
      "ә": 711,
      "Ө": 712,
      "ө": 713,
      "Հ": 714,
      "ա": 715,
      "դ": 716,
      "ե": 717,
      "ի": 718,
      "հ": 719,
      "յ": 720,
      "ն": 721,
      "ս": 722,
      "ր": 723,
      "օ": 724,
      "֎": 725,
      "֮": 726,
      "ְ": 727,
      "ֲ": 728,
      "ִ": 729,
      "ֵ": 730,
      "ֶ": 731,
      "ַ": 732,
      "ָ": 733,
      "ֹ": 734,
      "ֻ": 735,
      "ּ": 736,
      "־": 737,
      "ׁ": 738,
      "ׂ": 739,
      "א": 740,
      "ב": 741,
      "ג": 742,
      "ד": 743,
      "ה": 744,
      "ו": 745,
      "ז": 746,
      "ח": 747,
      "ט": 748,
      "י": 749,
      "ך": 750,
      "כ": 751,
      "ל": 752,
      "ם": 753,
      "מ": 754,
      "ן": 755,
      "נ": 756,
      "ס": 757,
      "ע": 758,
      "פ": 759,
      "ץ": 760,
      "צ": 761,
      "ק": 762,
      "ר": 763,
      "ש": 764,
      "ת": 765,
      "״": 766,
      "،": 767,
      "؟": 768,
      "ء": 769,
      "آ": 770,
      "أ": 771,
      "إ": 772,
      "ئ": 773,
      "ا": 774,
      "ب": 775,
      "ة": 776,
      "ت": 777,
      "ث": 778,
      "ج": 779,
      "ح": 780,
      "خ": 781,
      "د": 782,
      "ذ": 783,
      "ر": 784,
      "ز": 785,
      "س": 786,
      "ش": 787,
      "ص": 788,
      "ض": 789,
      "ط": 790,
      "ظ": 791,
      "ع": 792,
      "غ": 793,
      "ـ": 794,
      "ف": 795,
      "ق": 796,
      "ك": 797,
      "ل": 798,
      "م": 799,
      "ن": 800,
      "ه": 801,
      "و": 802,
      "ى": 803,
      "ي": 804,
      "ً": 805,
      "ٌ": 806,
      "ٍ": 807,
      "َ": 808,
      "ُ": 809,
      "ِ": 810,
      "ّ": 811,
      "ْ": 812,
      "ٓ": 813,
      "ٔ": 814,
      "١": 815,
      "٢": 816,
      "٤": 817,
      "٥": 818,
      "٦": 819,
      "٧": 820,
      "٨": 821,
      "٩": 822,
      "ٰ": 823,
      "ٱ": 824,
      "ٴ": 825,
      "پ": 826,
      "چ": 827,
      "ڑ": 828,
      "ڠ": 829,
      "ک": 830,
      "ڬ": 831,
      "گ": 832,
      "ں": 833,
      "ھ": 834,
      "ہ": 835,
      "ی": 836,
      "ے": 837,
      "ۖ": 838,
      "ۗ": 839,
      "ۚ": 840,
      "۝": 841,
      "۞": 842,
      "ۢ": 843,
      "ۥ": 844,
      "ۦ": 845,
      "۩": 846,
      "ۭ": 847,
      "۰": 848,
      "܂": 849,
      "ܐ": 850,
      "ܙ": 851,
      "ܝ": 852,
      "ܠ": 853,
      "ܢ": 854,
      "ܦ": 855,
      "އ": 856,
      "މ": 857,
      "ލ": 858,
      "ސ": 859,
      "ޤ": 860,
      "ަ": 861,
      "ާ": 862,
      "ީ": 863,
      "ު": 864,
      "ް": 865,
      "ँ": 866,
      "ं": 867,
      "ः": 868,
      "अ": 869,
      "आ": 870,
      "इ": 871,
      "ई": 872,
      "उ": 873,
      "ऊ": 874,
      "ए": 875,
      "ऐ": 876,
      "ऑ": 877,
      "ओ": 878,
      "औ": 879,
      "क": 880,
      "ख": 881,
      "ग": 882,
      "घ": 883,
      "ङ": 884,
      "च": 885,
      "छ": 886,
      "ज": 887,
      "झ": 888,
      "ञ": 889,
      "ट": 890,
      "ठ": 891,
      "ड": 892,
      "ढ": 893,
      "ण": 894,
      "त": 895,
      "थ": 896,
      "द": 897,
      "ध": 898,
      "न": 899,
      "प": 900,
      "फ": 901,
      "ब": 902,
      "भ": 903,
      "म": 904,
      "य": 905,
      "र": 906,
      "ऱ": 907,
      "ल": 908,
      "ळ": 909,
      "व": 910,
      "श": 911,
      "ष": 912,
      "स": 913,
      "ह": 914,
      "़": 915,
      "ा": 916,
      "ि": 917,
      "ी": 918,
      "ु": 919,
      "ू": 920,
      "ृ": 921,
      "ॅ": 922,
      "े": 923,
      "ै": 924,
      "ॉ": 925,
      "ो": 926,
      "ौ": 927,
      "्": 928,
      "ॐ": 929,
      "।": 930,
      "॥": 931,
      "०": 932,
      "१": 933,
      "२": 934,
      "३": 935,
      "४": 936,
      "५": 937,
      "६": 938,
      "७": 939,
      "८": 940,
      "९": 941,
      "ঁ": 942,
      "ং": 943,
      "অ": 944,
      "আ": 945,
      "ই": 946,
      "উ": 947,
      "ও": 948,
      "ক": 949,
      "গ": 950,
      "চ": 951,
      "ছ": 952,
      "জ": 953,
      "ঞ": 954,
      "ট": 955,
      "ঠ": 956,
      "ড": 957,
      "ণ": 958,
      "ত": 959,
      "থ": 960,
      "দ": 961,
      "ধ": 962,
      "ন": 963,
      "প": 964,
      "ফ": 965,
      "ব": 966,
      "ভ": 967,
      "ম": 968,
      "য": 969,
      "র": 970,
      "ল": 971,
      "শ": 972,
      "ষ": 973,
      "স": 974,
      "হ": 975,
      "়": 976,
      "া": 977,
      "ি": 978,
      "ী": 979,
      "ু": 980,
      "ূ": 981,
      "ে": 982,
      "ৈ": 983,
      "ো": 984,
      "্": 985,
      "২": 986,
      "৩": 987,
      "৭": 988,
      "৮": 989,
      "৲": 990,
      "৳": 991,
      "ਂ": 992,
      "ਅ": 993,
      "ਆ": 994,
      "ਇ": 995,
      "ਈ": 996,
      "ਉ": 997,
      "ਕ": 998,
      "ਖ": 999,
      "ਗ": 1000,
      "ਚ": 1001,
      "ਛ": 1002,
      "ਜ": 1003,
      "ਟ": 1004,
      "ਠ": 1005,
      "ਡ": 1006,
      "ਣ": 1007,
      "ਤ": 1008,
      "ਥ": 1009,
      "ਦ": 1010,
      "ਧ": 1011,
      "ਨ": 1012,
      "ਪ": 1013,
      "ਫ": 1014,
      "ਬ": 1015,
      "ਮ": 1016,
      "ਰ": 1017,
      "ਲ": 1018,
      "ਵ": 1019,
      "ਸ": 1020,
      "ਹ": 1021,
      "਼": 1022,
      "ਾ": 1023,
      "ਿ": 1024,
      "ੀ": 1025,
      "ੁ": 1026,
      "ੂ": 1027,
      "ੇ": 1028,
      "ੈ": 1029,
      "ੋ": 1030,
      "੍": 1031,
      "ੰ": 1032,
      "ੱ": 1033,
      "ં": 1034,
      "અ": 1035,
      "આ": 1036,
      "ઈ": 1037,
      "ઉ": 1038,
      "એ": 1039,
      "ઓ": 1040,
      "ક": 1041,
      "ખ": 1042,
      "ગ": 1043,
      "ચ": 1044,
      "છ": 1045,
      "જ": 1046,
      "ટ": 1047,
      "ડ": 1048,
      "ઢ": 1049,
      "ણ": 1050,
      "ત": 1051,
      "થ": 1052,
      "દ": 1053,
      "ધ": 1054,
      "ન": 1055,
      "પ": 1056,
      "ફ": 1057,
      "બ": 1058,
      "ભ": 1059,
      "મ": 1060,
      "ય": 1061,
      "ર": 1062,
      "લ": 1063,
      "વ": 1064,
      "શ": 1065,
      "સ": 1066,
      "હ": 1067,
      "ા": 1068,
      "િ": 1069,
      "ી": 1070,
      "ુ": 1071,
      "ૂ": 1072,
      "ે": 1073,
      "ો": 1074,
      "્": 1075,
      "૫": 1076,
      "ଁ": 1077,
      "ଂ": 1078,
      "ଃ": 1079,
      "ଅ": 1080,
      "ଆ": 1081,
      "ଇ": 1082,
      "ଈ": 1083,
      "ଉ": 1084,
      "ଏ": 1085,
      "ଓ": 1086,
      "କ": 1087,
      "ଖ": 1088,
      "ଗ": 1089,
      "ଘ": 1090,
      "ଙ": 1091,
      "ଚ": 1092,
      "ଛ": 1093,
      "ଜ": 1094,
      "ଝ": 1095,
      "ଞ": 1096,
      "ଟ": 1097,
      "ଠ": 1098,
      "ଡ": 1099,
      "ଢ": 1100,
      "ଣ": 1101,
      "ତ": 1102,
      "ଥ": 1103,
      "ଦ": 1104,
      "ଧ": 1105,
      "ନ": 1106,
      "ପ": 1107,
      "ଫ": 1108,
      "ବ": 1109,
      "ଭ": 1110,
      "ମ": 1111,
      "ଯ": 1112,
      "ର": 1113,
      "ଲ": 1114,
      "ଳ": 1115,
      "ଵ": 1116,
      "ଶ": 1117,
      "ଷ": 1118,
      "ସ": 1119,
      "ହ": 1120,
      "଼": 1121,
      "ା": 1122,
      "ି": 1123,
      "ୀ": 1124,
      "ୁ": 1125,
      "ୂ": 1126,
      "ୃ": 1127,
      "େ": 1128,
      "ୋ": 1129,
      "ୌ": 1130,
      "୍": 1131,
      "ୟ": 1132,
      "୭": 1133,
      "୮": 1134,
      "ୱ": 1135,
      "அ": 1136,
      "ஆ": 1137,
      "இ": 1138,
      "உ": 1139,
      "எ": 1140,
      "ஏ": 1141,
      "ஐ": 1142,
      "ஒ": 1143,
      "ஓ": 1144,
      "க": 1145,
      "ங": 1146,
      "ச": 1147,
      "ஜ": 1148,
      "ஞ": 1149,
      "ட": 1150,
      "ண": 1151,
      "த": 1152,
      "ந": 1153,
      "ன": 1154,
      "ப": 1155,
      "ம": 1156,
      "ய": 1157,
      "ர": 1158,
      "ற": 1159,
      "ல": 1160,
      "ள": 1161,
      "ழ": 1162,
      "வ": 1163,
      "ஷ": 1164,
      "ஸ": 1165,
      "ஹ": 1166,
      "ா": 1167,
      "ி": 1168,
      "ீ": 1169,
      "ு": 1170,
      "ூ": 1171,
      "ெ": 1172,
      "ே": 1173,
      "ை": 1174,
      "ொ": 1175,
      "ோ": 1176,
      "ௌ": 1177,
      "்": 1178,
      "ం": 1179,
      "అ": 1180,
      "ఆ": 1181,
      "ఇ": 1182,
      "ఉ": 1183,
      "ఊ": 1184,
      "ఎ": 1185,
      "ఏ": 1186,
      "ఐ": 1187,
      "ఒ": 1188,
      "ఓ": 1189,
      "క": 1190,
      "ఖ": 1191,
      "గ": 1192,
      "చ": 1193,
      "జ": 1194,
      "ట": 1195,
      "ఠ": 1196,
      "డ": 1197,
      "ఢ": 1198,
      "ణ": 1199,
      "త": 1200,
      "థ": 1201,
      "ద": 1202,
      "ధ": 1203,
      "న": 1204,
      "ప": 1205,
      "ఫ": 1206,
      "బ": 1207,
      "భ": 1208,
      "మ": 1209,
      "య": 1210,
      "ర": 1211,
      "ల": 1212,
      "ళ": 1213,
      "వ": 1214,
      "శ": 1215,
      "ష": 1216,
      "స": 1217,
      "హ": 1218,
      "ా": 1219,
      "ి": 1220,
      "ీ": 1221,
      "ు": 1222,
      "ూ": 1223,
      "ె": 1224,
      "ే": 1225,
      "ై": 1226,
      "ొ": 1227,
      "ో": 1228,
      "్": 1229,
      "ಂ": 1230,
      "ಃ": 1231,
      "ಅ": 1232,
      "ಆ": 1233,
      "ಇ": 1234,
      "ಈ": 1235,
      "ಉ": 1236,
      "ಋ": 1237,
      "ಎ": 1238,
      "ಏ": 1239,
      "ಐ": 1240,
      "ಒ": 1241,
      "ಓ": 1242,
      "ಕ": 1243,
      "ಖ": 1244,
      "ಗ": 1245,
      "ಘ": 1246,
      "ಚ": 1247,
      "ಛ": 1248,
      "ಜ": 1249,
      "ಟ": 1250,
      "ಠ": 1251,
      "ಡ": 1252,
      "ಣ": 1253,
      "ತ": 1254,
      "ಥ": 1255,
      "ದ": 1256,
      "ಧ": 1257,
      "ನ": 1258,
      "ಪ": 1259,
      "ಫ": 1260,
      "ಬ": 1261,
      "ಭ": 1262,
      "ಮ": 1263,
      "ಯ": 1264,
      "ರ": 1265,
      "ಲ": 1266,
      "ಳ": 1267,
      "ವ": 1268,
      "ಶ": 1269,
      "ಷ": 1270,
      "ಸ": 1271,
      "ಹ": 1272,
      "ಾ": 1273,
      "ಿ": 1274,
      "ೀ": 1275,
      "ು": 1276,
      "ೂ": 1277,
      "ೃ": 1278,
      "ೆ": 1279,
      "ೇ": 1280,
      "ೈ": 1281,
      "ೊ": 1282,
      "ೋ": 1283,
      "ೌ": 1284,
      "್": 1285,
      "ං": 1286,
      "ආ": 1287,
      "ක": 1288,
      "ජ": 1289,
      "ට": 1290,
      "ඩ": 1291,
      "ණ": 1292,
      "ත": 1293,
      "න": 1294,
      "බ": 1295,
      "ම": 1296,
      "ය": 1297,
      "ර": 1298,
      "ල": 1299,
      "ව": 1300,
      "ශ": 1301,
      "ස": 1302,
      "්": 1303,
      "ා": 1304,
      "ි": 1305,
      "ී": 1306,
      "ු": 1307,
      "ෙ": 1308,
      "ේ": 1309,
      "ො": 1310,
      "ෝ": 1311,
      "ก": 1312,
      "ข": 1313,
      "ค": 1314,
      "ง": 1315,
      "จ": 1316,
      "ช": 1317,
      "ซ": 1318,
      "ณ": 1319,
      "ด": 1320,
      "ต": 1321,
      "ถ": 1322,
      "ท": 1323,
      "ธ": 1324,
      "น": 1325,
      "บ": 1326,
      "ป": 1327,
      "พ": 1328,
      "ภ": 1329,
      "ม": 1330,
      "ย": 1331,
      "ร": 1332,
      "ฤ": 1333,
      "ล": 1334,
      "ว": 1335,
      "ศ": 1336,
      "ษ": 1337,
      "ส": 1338,
      "ห": 1339,
      "อ": 1340,
      "ะ": 1341,
      "ั": 1342,
      "า": 1343,
      "ำ": 1344,
      "ิ": 1345,
      "ี": 1346,
      "ุ": 1347,
      "ู": 1348,
      "เ": 1349,
      "แ": 1350,
      "โ": 1351,
      "ใ": 1352,
      "ไ": 1353,
      "็": 1354,
      "่": 1355,
      "้": 1356,
      "์": 1357,
      "๑": 1358,
      "ຂ": 1359,
      "ຄ": 1360,
      "ນ": 1361,
      "ພ": 1362,
      "ມ": 1363,
      "ລ": 1364,
      "ວ": 1365,
      "ສ": 1366,
      "າ": 1367,
      "ິ": 1368,
      "ແ": 1369,
      "་": 1370,
      "།": 1371,
      "ཁ": 1372,
      "ང": 1373,
      "ར": 1374,
      "ོ": 1375,
      "ྫ": 1376,
      "စ": 1377,
      "ဗ": 1378,
      "မ": 1379,
      "ာ": 1380,
      "၀": 1381,
      "၁": 1382,
      "၂": 1383,
      "၃": 1384,
      "၄": 1385,
      "၅": 1386,
      "၆": 1387,
      "၇": 1388,
      "၈": 1389,
      "၉": 1390,
      "ა": 1391,
      "დ": 1392,
      "ე": 1393,
      "ვ": 1394,
      "თ": 1395,
      "ი": 1396,
      "ლ": 1397,
      "მ": 1398,
      "ნ": 1399,
      "ო": 1400,
      "რ": 1401,
      "ტ": 1402,
      "უ": 1403,
      "ქ": 1404,
      "შ": 1405,
      "ᅀ": 1406,
      "ሀ": 1407,
      "ሁ": 1408,
      "ሂ": 1409,
      "ህ": 1410,
      "ለ": 1411,
      "ሐ": 1412,
      "መ": 1413,
      "ሠ": 1414,
      "ረ": 1415,
      "ቀ": 1416,
      "በ": 1417,
      "ተ": 1418,
      "ነ": 1419,
      "ና": 1420,
      "አ": 1421,
      "ከ": 1422,
      "ወ": 1423,
      "ዐ": 1424,
      "የ": 1425,
      "ደ": 1426,
      "ገ": 1427,
      "ጠ": 1428,
      "ጸ": 1429,
      "ፈ": 1430,
      "Ꭰ": 1431,
      "Ꭱ": 1432,
      "Ꭲ": 1433,
      "Ꭳ": 1434,
      "Ꭴ": 1435,
      "Ꭵ": 1436,
      "Ꭶ": 1437,
      "Ꭷ": 1438,
      "Ꭸ": 1439,
      "Ꭹ": 1440,
      "Ꭺ": 1441,
      "Ꭻ": 1442,
      "Ꭼ": 1443,
      "Ꭽ": 1444,
      "Ꭾ": 1445,
      "Ꭿ": 1446,
      "Ꮀ": 1447,
      "Ꮁ": 1448,
      "Ꮂ": 1449,
      "Ꮃ": 1450,
      "Ꮄ": 1451,
      "Ꮅ": 1452,
      "Ꮆ": 1453,
      "Ꮇ": 1454,
      "Ꮈ": 1455,
      "Ꮉ": 1456,
      "Ꮊ": 1457,
      "Ꮋ": 1458,
      "Ꮌ": 1459,
      "Ꮍ": 1460,
      "Ꮎ": 1461,
      "Ꮏ": 1462,
      "Ꮐ": 1463,
      "Ꮑ": 1464,
      "Ꮒ": 1465,
      "Ꮓ": 1466,
      "Ꮔ": 1467,
      "Ꮕ": 1468,
      "Ꮖ": 1469,
      "Ꮗ": 1470,
      "Ꮘ": 1471,
      "Ꮙ": 1472,
      "Ꮚ": 1473,
      "Ꮛ": 1474,
      "Ꮜ": 1475,
      "Ꮝ": 1476,
      "Ꮞ": 1477,
      "Ꮟ": 1478,
      "Ꮠ": 1479,
      "Ꮡ": 1480,
      "Ꮢ": 1481,
      "Ꮣ": 1482,
      "Ꮤ": 1483,
      "Ꮥ": 1484,
      "Ꮦ": 1485,
      "Ꮧ": 1486,
      "Ꮨ": 1487,
      "Ꮩ": 1488,
      "Ꮪ": 1489,
      "Ꮫ": 1490,
      "Ꮬ": 1491,
      "Ꮭ": 1492,
      "Ꮮ": 1493,
      "Ꮯ": 1494,
      "Ꮰ": 1495,
      "Ꮱ": 1496,
      "Ꮲ": 1497,
      "Ꮳ": 1498,
      "Ꮴ": 1499,
      "Ꮵ": 1500,
      "Ꮶ": 1501,
      "Ꮷ": 1502,
      "Ꮸ": 1503,
      "Ꮹ": 1504,
      "Ꮺ": 1505,
      "Ꮻ": 1506,
      "Ꮼ": 1507,
      "Ꮽ": 1508,
      "Ꮾ": 1509,
      "Ꮿ": 1510,
      "Ᏸ": 1511,
      "Ᏹ": 1512,
      "Ᏺ": 1513,
      "Ᏻ": 1514,
      "Ᏼ": 1515,
      "ᐃ": 1516,
      "ᐱ": 1517,
      "ᐳ": 1518,
      "ᐸ": 1519,
      "ᑎ": 1520,
      "ᑐ": 1521,
      "ᑕ": 1522,
      "ᑖ": 1523,
      "ᑦ": 1524,
      "ᑭ": 1525,
      "ᒃ": 1526,
      "ᓄ": 1527,
      "ᓇ": 1528,
      "ᓗ": 1529,
      "ᕗ": 1530,
      "ᕿ": 1531,
      "ᖃ": 1532,
      "ᖅ": 1533,
      "᚛": 1534,
      "᚜": 1535,
      "᛫": 1536,
      "᛬": 1537,
      "᛭": 1538,
      "ក": 1539,
      "ខ": 1540,
      "គ": 1541,
      "ឃ": 1542,
      "ង": 1543,
      "ច": 1544,
      "ឆ": 1545,
      "ដ": 1546,
      "ឌ": 1547,
      "ទ": 1548,
      "ធ": 1549,
      "ន": 1550,
      "ប": 1551,
      "ព": 1552,
      "ភ": 1553,
      "ម": 1554,
      "យ": 1555,
      "រ": 1556,
      "ល": 1557,
      "វ": 1558,
      "ស": 1559,
      "ឡ": 1560,
      "អ": 1561,
      "ា": 1562,
      "ី": 1563,
      "ឹ": 1564,
      "ុ": 1565,
      "ួ": 1566,
      "ើ": 1567,
      "ៀ": 1568,
      "េ": 1569,
      "ែ": 1570,
      "ៃ": 1571,
      "ោ": 1572,
      "ំ": 1573,
      "៉": 1574,
      "្": 1575,
      "០": 1576,
      "១": 1577,
      "២": 1578,
      "៣": 1579,
      "៤": 1580,
      "៥": 1581,
      "៦": 1582,
      "៧": 1583,
      "៨": 1584,
      "៩": 1585,
      "ᴀ": 1586,
      "ᴍ": 1587,
      "ᴛ": 1588,
      "ᵒ": 1589,
      "ᶏ": 1590,
      "Ḁ": 1591,
      "ḁ": 1592,
      "ḃ": 1593,
      "ḇ": 1594,
      "ḋ": 1595,
      "Ḍ": 1596,
      "ḍ": 1597,
      "ḏ": 1598,
      "ḗ": 1599,
      "Ḙ": 1600,
      "Ḡ": 1601,
      "Ḥ": 1602,
      "ḥ": 1603,
      "Ḩ": 1604,
      "ḫ": 1605,
      "ḱ": 1606,
      "ḳ": 1607,
      "ḵ": 1608,
      "ḷ": 1609,
      "ḻ": 1610,
      "ḿ": 1611,
      "Ṁ": 1612,
      "ṁ": 1613,
      "Ṃ": 1614,
      "ṃ": 1615,
      "ṅ": 1616,
      "ṇ": 1617,
      "ṉ": 1618,
      "ṓ": 1619,
      "ṗ": 1620,
      "ṙ": 1621,
      "ṛ": 1622,
      "ṟ": 1623,
      "Ṣ": 1624,
      "ṣ": 1625,
      "ṫ": 1626,
      "Ṭ": 1627,
      "ṭ": 1628,
      "Ṯ": 1629,
      "ṯ": 1630,
      "Ṱ": 1631,
      "Ṳ": 1632,
      "ṹ": 1633,
      "ẅ": 1634,
      "ẏ": 1635,
      "Ẓ": 1636,
      "ẓ": 1637,
      "ẖ": 1638,
      "ẚ": 1639,
      "ẞ": 1640,
      "Ạ": 1641,
      "ạ": 1642,
      "Ả": 1643,
      "ả": 1644,
      "Ấ": 1645,
      "ấ": 1646,
      "Ầ": 1647,
      "ầ": 1648,
      "Ẩ": 1649,
      "ẩ": 1650,
      "Ẫ": 1651,
      "ẫ": 1652,
      "Ậ": 1653,
      "ậ": 1654,
      "Ắ": 1655,
      "ắ": 1656,
      "Ằ": 1657,
      "ằ": 1658,
      "Ẳ": 1659,
      "ẳ": 1660,
      "Ẵ": 1661,
      "ẵ": 1662,
      "Ặ": 1663,
      "ặ": 1664,
      "Ẹ": 1665,
      "ẹ": 1666,
      "ẻ": 1667,
      "ẽ": 1668,
      "Ế": 1669,
      "ế": 1670,
      "ề": 1671,
      "ể": 1672,
      "ễ": 1673,
      "ệ": 1674,
      "ỉ": 1675,
      "ị": 1676,
      "Ọ": 1677,
      "ọ": 1678,
      "Ỏ": 1679,
      "ỏ": 1680,
      "ố": 1681,
      "ồ": 1682,
      "ổ": 1683,
      "ỗ": 1684,
      "ộ": 1685,
      "ớ": 1686,
      "ờ": 1687,
      "ở": 1688,
      "ỡ": 1689,
      "ợ": 1690,
      "ụ": 1691,
      "ủ": 1692,
      "ứ": 1693,
      "ừ": 1694,
      "ử": 1695,
      "ữ": 1696,
      "ự": 1697,
      "ỳ": 1698,
      "ỹ": 1699,
      "ἀ": 1700,
      "ἂ": 1701,
      "ἄ": 1702,
      "Ἀ": 1703,
      "Ἁ": 1704,
      "Ἄ": 1705,
      "ἐ": 1706,
      "ἑ": 1707,
      "ἔ": 1708,
      "ἕ": 1709,
      "Ἐ": 1710,
      "Ἑ": 1711,
      "Ἔ": 1712,
      "ἡ": 1713,
      "ἣ": 1714,
      "ἤ": 1715,
      "ἥ": 1716,
      "Ἤ": 1717,
      "ἰ": 1718,
      "ἱ": 1719,
      "ἴ": 1720,
      "Ἰ": 1721,
      "Ἴ": 1722,
      "Ἶ": 1723,
      "ὀ": 1724,
      "ὁ": 1725,
      "ὄ": 1726,
      "ὅ": 1727,
      "Ὃ": 1728,
      "ὐ": 1729,
      "ὑ": 1730,
      "ὕ": 1731,
      "Ὕ": 1732,
      "Ὠ": 1733,
      "ὰ": 1734,
      "ὲ": 1735,
      "ὴ": 1736,
      "ὶ": 1737,
      "ὸ": 1738,
      "ὺ": 1739,
      "ῃ": 1740,
      "ῆ": 1741,
      "ῇ": 1742,
      "ῖ": 1743,
      "ῥ": 1744,
      "ῦ": 1745,
      "Ῥ": 1746,
      "ῶ": 1747,
      "ῷ": 1748,
      "​": 1749,
      "‌": 1750,
      "‍": 1751,
      "‎": 1752,
      "‏": 1753,
      "‐": 1754,
      "‑": 1755,
      "‒": 1756,
      "―": 1757,
      "‖": 1758,
      "†": 1759,
      "‡": 1760,
      "•": 1761,
      "‪": 1762,
      "‬": 1763,
      "‭": 1764,
      "‰": 1765,
      "″": 1766,
      "‹": 1767,
      "›": 1768,
      "※": 1769,
      "‿": 1770,
      "⁂": 1771,
      "⁄": 1772,
      "⁎": 1773,
      "⁓": 1774,
      "⁠": 1775,
      "⁣": 1776,
      "⁰": 1777,
      "⁴": 1778,
      "⁵": 1779,
      "⁶": 1780,
      "⁷": 1781,
      "⁹": 1782,
      "⁺": 1783,
      "₀": 1784,
      "₁": 1785,
      "₂": 1786,
      "₃": 1787,
      "₄": 1788,
      "₅": 1789,
      "₆": 1790,
      "₇": 1791,
      "₈": 1792,
      "ₒ": 1793,
      "₡": 1794,
      "₣": 1795,
      "₤": 1796,
      "₩": 1797,
      "₪": 1798,
      "₫": 1799,
      "€": 1800,
      "₮": 1801,
      "₯": 1802,
      "₱": 1803,
      "₴": 1804,
      "₵": 1805,
      "₹": 1806,
      "₺": 1807,
      "₽": 1808,
      "₿": 1809,
      "⃣": 1810,
      "⃰": 1811,
      "℃": 1812,
      "ℓ": 1813,
      "№": 1814,
      "™": 1815,
      "℧": 1816,
      "ℰ": 1817,
      "ℳ": 1818,
      "ℹ": 1819,
      "⅓": 1820,
      "⅔": 1821,
      "⅕": 1822,
      "⅘": 1823,
      "⅙": 1824,
      "⅛": 1825,
      "⅜": 1826,
      "⅟": 1827,
      "Ↄ": 1828,
      "↊": 1829,
      "↋": 1830,
      "←": 1831,
      "↑": 1832,
      "→": 1833,
      "↓": 1834,
      "↔": 1835,
      "↗": 1836,
      "↘": 1837,
      "↫": 1838,
      "↵": 1839,
      "⇆": 1840,
      "⇌": 1841,
      "⇒": 1842,
      "⇔": 1843,
      "⇧": 1844,
      "⇱": 1845,
      "∀": 1846,
      "∂": 1847,
      "∆": 1848,
      "∇": 1849,
      "∈": 1850,
      "∉": 1851,
      "∏": 1852,
      "−": 1853,
      "∕": 1854,
      "∗": 1855,
      "∘": 1856,
      "∙": 1857,
      "√": 1858,
      "∝": 1859,
      "∞": 1860,
      "∠": 1861,
      "∩": 1862,
      "∴": 1863,
      "∼": 1864,
      "≈": 1865,
      "≒": 1866,
      "≠": 1867,
      "≡": 1868,
      "≤": 1869,
      "≥": 1870,
      "⊖": 1871,
      "⊙": 1872,
      "⊞": 1873,
      "⋅": 1874,
      "⋯": 1875,
      "⌈": 1876,
      "⌉": 1877,
      "⌊": 1878,
      "⌋": 1879,
      "⌘": 1880,
      "⎓": 1881,
      "⎡": 1882,
      "⎣": 1883,
      "⏰": 1884,
      "Ⓐ": 1885,
      "Ⓗ": 1886,
      "Ⓝ": 1887,
      "Ⓢ": 1888,
      "ⓐ": 1889,
      "ⓘ": 1890,
      "ⓜ": 1891,
      "ⓢ": 1892,
      "ⓣ": 1893,
      "ⓨ": 1894,
      "─": 1895,
      "━": 1896,
      "│": 1897,
      "┐": 1898,
      "├": 1899,
      "╗": 1900,
      "▁": 1901,
      "█": 1902,
      "▔": 1903,
      "■": 1904,
      "□": 1905,
      "▪": 1906,
      "▲": 1907,
      "▶": 1908,
      "►": 1909,
      "▼": 1910,
      "◀": 1911,
      "◆": 1912,
      "◉": 1913,
      "◊": 1914,
      "○": 1915,
      "◎": 1916,
      "●": 1917,
      "◢": 1918,
      "◤": 1919,
      "◦": 1920,
      "☁": 1921,
      "☃": 1922,
      "☄": 1923,
      "★": 1924,
      "☆": 1925,
      "☉": 1926,
      "☐": 1927,
      "☑": 1928,
      "☚": 1929,
      "☛": 1930,
      "☣": 1931,
      "☫": 1932,
      "☭": 1933,
      "☮": 1934,
      "☯": 1935,
      "☲": 1936,
      "☺": 1937,
      "☻": 1938,
      "♀": 1939,
      "♂": 1940,
      "♄": 1941,
      "♈": 1942,
      "♑": 1943,
      "♒": 1944,
      "♔": 1945,
      "♘": 1946,
      "♠": 1947,
      "♡": 1948,
      "♢": 1949,
      "♣": 1950,
      "♥": 1951,
      "♦": 1952,
      "♧": 1953,
      "♪": 1954,
      "♫": 1955,
      "♬": 1956,
      "♭": 1957,
      "♮": 1958,
      "♯": 1959,
      "⚠": 1960,
      "⚡": 1961,
      "⚥": 1962,
      "✂": 1963,
      "✅": 1964,
      "✍": 1965,
      "✎": 1966,
      "✏": 1967,
      "✐": 1968,
      "✓": 1969,
      "✔": 1970,
      "✗": 1971,
      "✘": 1972,
      "✙": 1973,
      "✚": 1974,
      "✡": 1975,
      "✪": 1976,
      "✭": 1977,
      "✯": 1978,
      "✰": 1979,
      "✹": 1980,
      "✿": 1981,
      "❀": 1982,
      "❌": 1983,
      "❏": 1984,
      "❗": 1985,
      "❤": 1986,
      "❦": 1987,
      "❶": 1988,
      "❷": 1989,
      "➙": 1990,
      "➜": 1991,
      "➡": 1992,
      "➢": 1993,
      "➤": 1994,
      "➨": 1995,
      "⟨": 1996,
      "⟩": 1997,
      "⠀": 1998,
      "⠂": 1999,
      "⠄": 2000,
      "⠅": 2001,
      "⠆": 2002,
      "⠇": 2003,
      "⠈": 2004,
      "⠑": 2005,
      "⠓": 2006,
      "⠘": 2007,
      "⠙": 2008,
      "⠜": 2009,
      "⠠": 2010,
      "⠢": 2011,
      "⠻": 2012,
      "⧼": 2013,
      "⧽": 2014,
      "⬄": 2015,
      "⬅": 2016,
      "⬛": 2017,
      "⬠": 2018,
      "⬱": 2019,
      "ⱡ": 2020,
      "ⱥ": 2021,
      "ⲃ": 2022,
      "ⲉ": 2023,
      "ⲧ": 2024,
      "ⲱ": 2025,
      "ⴰ": 2026,
      "ⴱ": 2027,
      "ⴻ": 2028,
      "ⴽ": 2029,
      "ⵉ": 2030,
      "ⵍ": 2031,
      "ⵎ": 2032,
      "ⵏ": 2033,
      "ⵓ": 2034,
      "ⵔ": 2035,
      "ⵖ": 2036,
      "ⵛ": 2037,
      "ⵜ": 2038,
      "ⵢ": 2039,
      "⿰": 2040,
      "⿱": 2041,
      "⿺": 2042,
      "、": 2043,
      "。": 2044,
      "〉": 2045,
      "《": 2046,
      "》": 2047,
      "「": 2048,
      "」": 2049,
      "『": 2050,
      "』": 2051,
      "【": 2052,
      "】": 2053,
      "〜": 2054,
      "〬": 2055,
      "あ": 2056,
      "い": 2057,
      "う": 2058,
      "え": 2059,
      "お": 2060,
      "か": 2061,
      "が": 2062,
      "き": 2063,
      "ぎ": 2064,
      "く": 2065,
      "ぐ": 2066,
      "け": 2067,
      "げ": 2068,
      "こ": 2069,
      "ご": 2070,
      "さ": 2071,
      "ざ": 2072,
      "し": 2073,
      "じ": 2074,
      "す": 2075,
      "ず": 2076,
      "せ": 2077,
      "そ": 2078,
      "た": 2079,
      "だ": 2080,
      "ち": 2081,
      "っ": 2082,
      "つ": 2083,
      "て": 2084,
      "で": 2085,
      "と": 2086,
      "ど": 2087,
      "な": 2088,
      "に": 2089,
      "ぬ": 2090,
      "ね": 2091,
      "の": 2092,
      "は": 2093,
      "ば": 2094,
      "ひ": 2095,
      "び": 2096,
      "ぴ": 2097,
      "ふ": 2098,
      "へ": 2099,
      "べ": 2100,
      "ぺ": 2101,
      "ほ": 2102,
      "ぼ": 2103,
      "ぽ": 2104,
      "ま": 2105,
      "み": 2106,
      "む": 2107,
      "め": 2108,
      "も": 2109,
      "ゃ": 2110,
      "や": 2111,
      "ゆ": 2112,
      "よ": 2113,
      "ら": 2114,
      "り": 2115,
      "る": 2116,
      "れ": 2117,
      "ろ": 2118,
      "わ": 2119,
      "を": 2120,
      "ん": 2121,
      "ァ": 2122,
      "ア": 2123,
      "ィ": 2124,
      "イ": 2125,
      "ウ": 2126,
      "ェ": 2127,
      "ォ": 2128,
      "オ": 2129,
      "カ": 2130,
      "ガ": 2131,
      "キ": 2132,
      "ク": 2133,
      "グ": 2134,
      "ケ": 2135,
      "コ": 2136,
      "サ": 2137,
      "ザ": 2138,
      "シ": 2139,
      "ジ": 2140,
      "ス": 2141,
      "ズ": 2142,
      "ゼ": 2143,
      "ソ": 2144,
      "タ": 2145,
      "チ": 2146,
      "ヂ": 2147,
      "ッ": 2148,
      "ツ": 2149,
      "テ": 2150,
      "デ": 2151,
      "ト": 2152,
      "ド": 2153,
      "ナ": 2154,
      "ニ": 2155,
      "ネ": 2156,
      "ノ": 2157,
      "バ": 2158,
      "パ": 2159,
      "ヒ": 2160,
      "ビ": 2161,
      "ピ": 2162,
      "フ": 2163,
      "ブ": 2164,
      "プ": 2165,
      "ベ": 2166,
      "ペ": 2167,
      "ボ": 2168,
      "マ": 2169,
      "ミ": 2170,
      "ム": 2171,
      "メ": 2172,
      "ャ": 2173,
      "ュ": 2174,
      "ョ": 2175,
      "ヨ": 2176,
      "ラ": 2177,
      "リ": 2178,
      "ル": 2179,
      "レ": 2180,
      "ロ": 2181,
      "ワ": 2182,
      "ン": 2183,
      "・": 2184,
      "ー": 2185,
      "ヽ": 2186,
      "ㄌ": 2187,
      "ㄢ": 2188,
      "ㄨ": 2189,
      "㠀": 2190,
      "㠁": 2191,
      "㠂": 2192,
      "一": 2193,
      "丁": 2194,
      "七": 2195,
      "三": 2196,
      "上": 2197,
      "下": 2198,
      "不": 2199,
      "专": 2200,
      "世": 2201,
      "丘": 2202,
      "业": 2203,
      "东": 2204,
      "个": 2205,
      "中": 2206,
      "丸": 2207,
      "主": 2208,
      "久": 2209,
      "义": 2210,
      "乌": 2211,
      "乗": 2212,
      "九": 2213,
      "书": 2214,
      "乾": 2215,
      "亀": 2216,
      "了": 2217,
      "二": 2218,
      "互": 2219,
      "五": 2220,
      "井": 2221,
      "京": 2222,
      "人": 2223,
      "仁": 2224,
      "今": 2225,
      "他": 2226,
      "付": 2227,
      "仙": 2228,
      "代": 2229,
      "以": 2230,
      "们": 2231,
      "仮": 2232,
      "任": 2233,
      "份": 2234,
      "会": 2235,
      "伝": 2236,
      "伸": 2237,
      "但": 2238,
      "住": 2239,
      "佑": 2240,
      "体": 2241,
      "何": 2242,
      "作": 2243,
      "你": 2244,
      "供": 2245,
      "価": 2246,
      "信": 2247,
      "修": 2248,
      "個": 2249,
      "倍": 2250,
      "傳": 2251,
      "傷": 2252,
      "僕": 2253,
      "儿": 2254,
      "元": 2255,
      "先": 2256,
      "光": 2257,
      "克": 2258,
      "児": 2259,
      "兩": 2260,
      "八": 2261,
      "公": 2262,
      "共": 2263,
      "具": 2264,
      "典": 2265,
      "内": 2266,
      "円": 2267,
      "再": 2268,
      "军": 2269,
      "凡": 2270,
      "凪": 2271,
      "凯": 2272,
      "凱": 2273,
      "出": 2274,
      "分": 2275,
      "切": 2276,
      "刊": 2277,
      "列": 2278,
      "则": 2279,
      "別": 2280,
      "别": 2281,
      "制": 2282,
      "前": 2283,
      "剣": 2284,
      "剪": 2285,
      "功": 2286,
      "动": 2287,
      "勀": 2288,
      "勇": 2289,
      "勉": 2290,
      "動": 2291,
      "勝": 2292,
      "勿": 2293,
      "包": 2294,
      "化": 2295,
      "北": 2296,
      "匹": 2297,
      "区": 2298,
      "匿": 2299,
      "區": 2300,
      "十": 2301,
      "千": 2302,
      "卍": 2303,
      "华": 2304,
      "卐": 2305,
      "協": 2306,
      "南": 2307,
      "卿": 2308,
      "原": 2309,
      "厦": 2310,
      "去": 2311,
      "参": 2312,
      "友": 2313,
      "发": 2314,
      "取": 2315,
      "叙": 2316,
      "口": 2317,
      "古": 2318,
      "可": 2319,
      "台": 2320,
      "史": 2321,
      "右": 2322,
      "叶": 2323,
      "司": 2324,
      "各": 2325,
      "合": 2326,
      "吉": 2327,
      "同": 2328,
      "名": 2329,
      "后": 2330,
      "吐": 2331,
      "向": 2332,
      "吗": 2333,
      "君": 2334,
      "吧": 2335,
      "听": 2336,
      "吳": 2337,
      "吸": 2338,
      "吹": 2339,
      "吾": 2340,
      "味": 2341,
      "呼": 2342,
      "命": 2343,
      "和": 2344,
      "咸": 2345,
      "員": 2346,
      "商": 2347,
      "啊": 2348,
      "問": 2349,
      "喇": 2350,
      "喜": 2351,
      "喧": 2352,
      "嘛": 2353,
      "嘩": 2354,
      "器": 2355,
      "四": 2356,
      "园": 2357,
      "国": 2358,
      "圆": 2359,
      "國": 2360,
      "園": 2361,
      "圓": 2362,
      "圖": 2363,
      "土": 2364,
      "在": 2365,
      "地": 2366,
      "圳": 2367,
      "场": 2368,
      "坂": 2369,
      "坛": 2370,
      "垒": 2371,
      "城": 2372,
      "堂": 2373,
      "堺": 2374,
      "壁": 2375,
      "士": 2376,
      "声": 2377,
      "壽": 2378,
      "変": 2379,
      "夏": 2380,
      "夕": 2381,
      "多": 2382,
      "夜": 2383,
      "夢": 2384,
      "大": 2385,
      "天": 2386,
      "太": 2387,
      "夫": 2388,
      "央": 2389,
      "失": 2390,
      "奇": 2391,
      "奚": 2392,
      "奥": 2393,
      "奧": 2394,
      "女": 2395,
      "好": 2396,
      "妈": 2397,
      "始": 2398,
      "姫": 2399,
      "娘": 2400,
      "婦": 2401,
      "嬴": 2402,
      "子": 2403,
      "孔": 2404,
      "字": 2405,
      "孙": 2406,
      "季": 2407,
      "孤": 2408,
      "学": 2409,
      "孫": 2410,
      "宇": 2411,
      "安": 2412,
      "宗": 2413,
      "宙": 2414,
      "客": 2415,
      "宣": 2416,
      "室": 2417,
      "宫": 2418,
      "宮": 2419,
      "宰": 2420,
      "家": 2421,
      "宿": 2422,
      "寂": 2423,
      "富": 2424,
      "寺": 2425,
      "対": 2426,
      "射": 2427,
      "将": 2428,
      "專": 2429,
      "小": 2430,
      "少": 2431,
      "就": 2432,
      "尾": 2433,
      "屆": 2434,
      "屋": 2435,
      "履": 2436,
      "山": 2437,
      "岡": 2438,
      "岩": 2439,
      "島": 2440,
      "崎": 2441,
      "嵐": 2442,
      "川": 2443,
      "州": 2444,
      "巡": 2445,
      "左": 2446,
      "已": 2447,
      "币": 2448,
      "市": 2449,
      "希": 2450,
      "帝": 2451,
      "帯": 2452,
      "常": 2453,
      "幣": 2454,
      "平": 2455,
      "年": 2456,
      "幸": 2457,
      "幾": 2458,
      "广": 2459,
      "広": 2460,
      "庆": 2461,
      "店": 2462,
      "府": 2463,
      "度": 2464,
      "庭": 2465,
      "廈": 2466,
      "廣": 2467,
      "建": 2468,
      "式": 2469,
      "弓": 2470,
      "弟": 2471,
      "弥": 2472,
      "弦": 2473,
      "当": 2474,
      "形": 2475,
      "影": 2476,
      "彷": 2477,
      "彼": 2478,
      "待": 2479,
      "很": 2480,
      "徨": 2481,
      "微": 2482,
      "徽": 2483,
      "心": 2484,
      "志": 2485,
      "忘": 2486,
      "忙": 2487,
      "忠": 2488,
      "快": 2489,
      "怖": 2490,
      "思": 2491,
      "急": 2492,
      "性": 2493,
      "恋": 2494,
      "恩": 2495,
      "悟": 2496,
      "悠": 2497,
      "悲": 2498,
      "想": 2499,
      "憑": 2500,
      "成": 2501,
      "我": 2502,
      "戻": 2503,
      "房": 2504,
      "手": 2505,
      "投": 2506,
      "抖": 2507,
      "抱": 2508,
      "拍": 2509,
      "拔": 2510,
      "拳": 2511,
      "捨": 2512,
      "提": 2513,
      "揺": 2514,
      "搂": 2515,
      "撃": 2516,
      "撮": 2517,
      "擊": 2518,
      "放": 2519,
      "政": 2520,
      "散": 2521,
      "敦": 2522,
      "数": 2523,
      "敵": 2524,
      "數": 2525,
      "文": 2526,
      "斗": 2527,
      "斜": 2528,
      "斤": 2529,
      "断": 2530,
      "新": 2531,
      "方": 2532,
      "旅": 2533,
      "族": 2534,
      "旗": 2535,
      "日": 2536,
      "明": 2537,
      "昏": 2538,
      "星": 2539,
      "春": 2540,
      "是": 2541,
      "時": 2542,
      "晋": 2543,
      "晩": 2544,
      "景": 2545,
      "智": 2546,
      "暖": 2547,
      "暮": 2548,
      "曲": 2549,
      "更": 2550,
      "書": 2551,
      "曹": 2552,
      "會": 2553,
      "月": 2554,
      "有": 2555,
      "望": 2556,
      "朝": 2557,
      "期": 2558,
      "木": 2559,
      "未": 2560,
      "本": 2561,
      "李": 2562,
      "杜": 2563,
      "束": 2564,
      "条": 2565,
      "来": 2566,
      "東": 2567,
      "松": 2568,
      "板": 2569,
      "林": 2570,
      "果": 2571,
      "染": 2572,
      "柔": 2573,
      "柳": 2574,
      "査": 2575,
      "栂": 2576,
      "栄": 2577,
      "校": 2578,
      "株": 2579,
      "格": 2580,
      "桃": 2581,
      "桐": 2582,
      "桜": 2583,
      "梅": 2584,
      "條": 2585,
      "楚": 2586,
      "業": 2587,
      "楽": 2588,
      "樂": 2589,
      "横": 2590,
      "樹": 2591,
      "樺": 2592,
      "橋": 2593,
      "機": 2594,
      "檀": 2595,
      "欢": 2596,
      "欲": 2597,
      "欺": 2598,
      "歌": 2599,
      "正": 2600,
      "此": 2601,
      "步": 2602,
      "武": 2603,
      "歪": 2604,
      "死": 2605,
      "殷": 2606,
      "毒": 2607,
      "比": 2608,
      "毛": 2609,
      "氏": 2610,
      "民": 2611,
      "気": 2612,
      "氣": 2613,
      "水": 2614,
      "永": 2615,
      "求": 2616,
      "汉": 2617,
      "江": 2618,
      "決": 2619,
      "没": 2620,
      "沪": 2621,
      "河": 2622,
      "油": 2623,
      "治": 2624,
      "泉": 2625,
      "法": 2626,
      "泛": 2627,
      "泰": 2628,
      "泽": 2629,
      "津": 2630,
      "活": 2631,
      "派": 2632,
      "流": 2633,
      "浄": 2634,
      "浜": 2635,
      "海": 2636,
      "涙": 2637,
      "淚": 2638,
      "深": 2639,
      "清": 2640,
      "渓": 2641,
      "温": 2642,
      "港": 2643,
      "湖": 2644,
      "湘": 2645,
      "湯": 2646,
      "湾": 2647,
      "満": 2648,
      "漢": 2649,
      "潟": 2650,
      "潤": 2651,
      "澤": 2652,
      "澳": 2653,
      "火": 2654,
      "灵": 2655,
      "災": 2656,
      "炊": 2657,
      "烏": 2658,
      "無": 2659,
      "照": 2660,
      "熊": 2661,
      "燉": 2662,
      "燕": 2663,
      "爆": 2664,
      "片": 2665,
      "版": 2666,
      "牛": 2667,
      "物": 2668,
      "特": 2669,
      "狐": 2670,
      "狩": 2671,
      "猫": 2672,
      "獨": 2673,
      "玄": 2674,
      "玉": 2675,
      "王": 2676,
      "珍": 2677,
      "琛": 2678,
      "琴": 2679,
      "琵": 2680,
      "琶": 2681,
      "琼": 2682,
      "瑜": 2683,
      "環": 2684,
      "瓊": 2685,
      "瓜": 2686,
      "甘": 2687,
      "生": 2688,
      "産": 2689,
      "用": 2690,
      "甫": 2691,
      "田": 2692,
      "町": 2693,
      "画": 2694,
      "界": 2695,
      "異": 2696,
      "畿": 2697,
      "痕": 2698,
      "登": 2699,
      "白": 2700,
      "百": 2701,
      "的": 2702,
      "皇": 2703,
      "皖": 2704,
      "皮": 2705,
      "盈": 2706,
      "益": 2707,
      "盘": 2708,
      "盤": 2709,
      "目": 2710,
      "省": 2711,
      "県": 2712,
      "真": 2713,
      "眠": 2714,
      "眺": 2715,
      "着": 2716,
      "瞧": 2717,
      "瞳": 2718,
      "知": 2719,
      "石": 2720,
      "研": 2721,
      "碎": 2722,
      "碧": 2723,
      "碩": 2724,
      "示": 2725,
      "社": 2726,
      "祈": 2727,
      "神": 2728,
      "祥": 2729,
      "禁": 2730,
      "福": 2731,
      "私": 2732,
      "秋": 2733,
      "秦": 2734,
      "稽": 2735,
      "究": 2736,
      "空": 2737,
      "窓": 2738,
      "立": 2739,
      "章": 2740,
      "竹": 2741,
      "笏": 2742,
      "笑": 2743,
      "笙": 2744,
      "筑": 2745,
      "筷": 2746,
      "箏": 2747,
      "算": 2748,
      "箜": 2749,
      "箸": 2750,
      "篌": 2751,
      "篥": 2752,
      "篳": 2753,
      "粤": 2754,
      "糖": 2755,
      "約": 2756,
      "紙": 2757,
      "紫": 2758,
      "絃": 2759,
      "維": 2760,
      "綱": 2761,
      "緑": 2762,
      "線": 2763,
      "締": 2764,
      "編": 2765,
      "縄": 2766,
      "續": 2767,
      "红": 2768,
      "约": 2769,
      "终": 2770,
      "经": 2771,
      "美": 2772,
      "義": 2773,
      "羯": 2774,
      "羽": 2775,
      "翰": 2776,
      "翼": 2777,
      "老": 2778,
      "考": 2779,
      "者": 2780,
      "耽": 2781,
      "联": 2782,
      "聖": 2783,
      "聞": 2784,
      "聡": 2785,
      "聯": 2786,
      "肃": 2787,
      "肅": 2788,
      "肉": 2789,
      "股": 2790,
      "胃": 2791,
      "胡": 2792,
      "胸": 2793,
      "能": 2794,
      "腕": 2795,
      "腦": 2796,
      "自": 2797,
      "致": 2798,
      "舜": 2799,
      "航": 2800,
      "芝": 2801,
      "芭": 2802,
      "花": 2803,
      "芹": 2804,
      "英": 2805,
      "草": 2806,
      "莉": 2807,
      "莊": 2808,
      "菜": 2809,
      "華": 2810,
      "萬": 2811,
      "葉": 2812,
      "葵": 2813,
      "蔚": 2814,
      "蔵": 2815,
      "蕉": 2816,
      "藏": 2817,
      "藤": 2818,
      "藻": 2819,
      "虎": 2820,
      "虚": 2821,
      "蛇": 2822,
      "螺": 2823,
      "行": 2824,
      "街": 2825,
      "衛": 2826,
      "衢": 2827,
      "袁": 2828,
      "裏": 2829,
      "裕": 2830,
      "製": 2831,
      "西": 2832,
      "見": 2833,
      "観": 2834,
      "见": 2835,
      "言": 2836,
      "託": 2837,
      "記": 2838,
      "訪": 2839,
      "許": 2840,
      "詩": 2841,
      "誌": 2842,
      "誓": 2843,
      "語": 2844,
      "誠": 2845,
      "說": 2846,
      "誰": 2847,
      "論": 2848,
      "謡": 2849,
      "證": 2850,
      "譜": 2851,
      "變": 2852,
      "词": 2853,
      "诞": 2854,
      "语": 2855,
      "诶": 2856,
      "课": 2857,
      "谢": 2858,
      "谷": 2859,
      "貝": 2860,
      "負": 2861,
      "貴": 2862,
      "賀": 2863,
      "賜": 2864,
      "贛": 2865,
      "贵": 2866,
      "赣": 2867,
      "走": 2868,
      "越": 2869,
      "趙": 2870,
      "足": 2871,
      "跡": 2872,
      "路": 2873,
      "身": 2874,
      "車": 2875,
      "軍": 2876,
      "転": 2877,
      "較": 2878,
      "輝": 2879,
      "轉": 2880,
      "边": 2881,
      "过": 2882,
      "迎": 2883,
      "运": 2884,
      "近": 2885,
      "这": 2886,
      "进": 2887,
      "迹": 2888,
      "追": 2889,
      "送": 2890,
      "通": 2891,
      "逝": 2892,
      "速": 2893,
      "造": 2894,
      "週": 2895,
      "進": 2896,
      "遊": 2897,
      "運": 2898,
      "道": 2899,
      "達": 2900,
      "遜": 2901,
      "選": 2902,
      "邱": 2903,
      "郡": 2904,
      "部": 2905,
      "都": 2906,
      "酒": 2907,
      "里": 2908,
      "重": 2909,
      "野": 2910,
      "金": 2911,
      "釜": 2912,
      "釣": 2913,
      "鈴": 2914,
      "鉦": 2915,
      "銀": 2916,
      "銃": 2917,
      "銹": 2918,
      "鎖": 2919,
      "鐘": 2920,
      "鐸": 2921,
      "鑒": 2922,
      "镇": 2923,
      "長": 2924,
      "长": 2925,
      "門": 2926,
      "閉": 2927,
      "開": 2928,
      "閏": 2929,
      "閑": 2930,
      "間": 2931,
      "関": 2932,
      "閩": 2933,
      "闇": 2934,
      "门": 2935,
      "闽": 2936,
      "阪": 2937,
      "阮": 2938,
      "阵": 2939,
      "阿": 2940,
      "际": 2941,
      "陇": 2942,
      "限": 2943,
      "陕": 2944,
      "陣": 2945,
      "陰": 2946,
      "陵": 2947,
      "陽": 2948,
      "隆": 2949,
      "際": 2950,
      "隠": 2951,
      "隴": 2952,
      "雄": 2953,
      "雍": 2954,
      "雑": 2955,
      "雕": 2956,
      "雙": 2957,
      "離": 2958,
      "雪": 2959,
      "雲": 2960,
      "零": 2961,
      "雷": 2962,
      "電": 2963,
      "震": 2964,
      "青": 2965,
      "静": 2966,
      "非": 2967,
      "面": 2968,
      "鞨": 2969,
      "韓": 2970,
      "韩": 2971,
      "音": 2972,
      "響": 2973,
      "願": 2974,
      "颐": 2975,
      "風": 2976,
      "风": 2977,
      "飛": 2978,
      "飞": 2979,
      "飮": 2980,
      "飯": 2981,
      "飲": 2982,
      "餅": 2983,
      "館": 2984,
      "首": 2985,
      "香": 2986,
      "駆": 2987,
      "騨": 2988,
      "马": 2989,
      "骂": 2990,
      "高": 2991,
      "魔": 2992,
      "魚": 2993,
      "魯": 2994,
      "鯉": 2995,
      "鯤": 2996,
      "鲁": 2997,
      "鲲": 2998,
      "鳴": 2999,
      "鴨": 3000,
      "鵬": 3001,
      "鷹": 3002,
      "鸟": 3003,
      "鹏": 3004,
      "鹰": 3005,
      "鹿": 3006,
      "麻": 3007,
      "黃": 3008,
      "黄": 3009,
      "黔": 3010,
      "鼓": 3011,
      "齊": 3012,
      "齐": 3013,
      "龍": 3014,
      "龙": 3015,
      "ꜜ": 3016,
      "ꜣ": 3017,
      "ꜥ": 3018,
      "Ꜧ": 3019,
      "ꜧ": 3020,
      "ꜱ": 3021,
      "꞉": 3022,
      "ꞌ": 3023,
      "ꞯ": 3024,
      "ꠀ": 3025,
      "ꠃ": 3026,
      "ꠇ": 3027,
      "ꠉ": 3028,
      "ꠌ": 3029,
      "ꠍ": 3030,
      "ꠎ": 3031,
      "ꠘ": 3032,
      "ꠞ": 3033,
      "ꠢ": 3034,
      "ꠣ": 3035,
      "ꠥ": 3036,
      "ꦏ": 3037,
      "ꦸ": 3038,
      "ꦾ": 3039,
      "ꦿ": 3040,
      "가": 3041,
      "각": 3042,
      "간": 3043,
      "갔": 3044,
      "같": 3045,
      "개": 3046,
      "객": 3047,
      "갤": 3048,
      "거": 3049,
      "건": 3050,
      "걸": 3051,
      "것": 3052,
      "게": 3053,
      "겠": 3054,
      "격": 3055,
      "결": 3056,
      "경": 3057,
      "계": 3058,
      "고": 3059,
      "곳": 3060,
      "공": 3061,
      "과": 3062,
      "관": 3063,
      "광": 3064,
      "구": 3065,
      "국": 3066,
      "굿": 3067,
      "그": 3068,
      "근": 3069,
      "기": 3070,
      "김": 3071,
      "까": 3072,
      "께": 3073,
      "뀌": 3074,
      "낄": 3075,
      "나": 3076,
      "낙": 3077,
      "날": 3078,
      "내": 3079,
      "냉": 3080,
      "너": 3081,
      "넣": 3082,
      "네": 3083,
      "년": 3084,
      "녕": 3085,
      "노": 3086,
      "느": 3087,
      "는": 3088,
      "능": 3089,
      "다": 3090,
      "단": 3091,
      "달": 3092,
      "당": 3093,
      "대": 3094,
      "더": 3095,
      "덧": 3096,
      "데": 3097,
      "도": 3098,
      "독": 3099,
      "돌": 3100,
      "동": 3101,
      "돼": 3102,
      "된": 3103,
      "드": 3104,
      "든": 3105,
      "들": 3106,
      "등": 3107,
      "디": 3108,
      "때": 3109,
      "또": 3110,
      "똑": 3111,
      "라": 3112,
      "락": 3113,
      "랑": 3114,
      "러": 3115,
      "럭": 3116,
      "럼": 3117,
      "렇": 3118,
      "레": 3119,
      "렌": 3120,
      "렛": 3121,
      "력": 3122,
      "로": 3123,
      "록": 3124,
      "론": 3125,
      "료": 3126,
      "룡": 3127,
      "룹": 3128,
      "르": 3129,
      "른": 3130,
      "를": 3131,
      "리": 3132,
      "릭": 3133,
      "린": 3134,
      "릴": 3135,
      "림": 3136,
      "마": 3137,
      "막": 3138,
      "만": 3139,
      "맞": 3140,
      "맨": 3141,
      "머": 3142,
      "먹": 3143,
      "멋": 3144,
      "멤": 3145,
      "며": 3146,
      "면": 3147,
      "명": 3148,
      "모": 3149,
      "목": 3150,
      "무": 3151,
      "문": 3152,
      "미": 3153,
      "민": 3154,
      "밀": 3155,
      "바": 3156,
      "박": 3157,
      "방": 3158,
      "배": 3159,
      "버": 3160,
      "번": 3161,
      "범": 3162,
      "벤": 3163,
      "변": 3164,
      "별": 3165,
      "보": 3166,
      "복": 3167,
      "볼": 3168,
      "부": 3169,
      "붙": 3170,
      "브": 3171,
      "블": 3172,
      "비": 3173,
      "빈": 3174,
      "빼": 3175,
      "사": 3176,
      "산": 3177,
      "삼": 3178,
      "상": 3179,
      "새": 3180,
      "색": 3181,
      "생": 3182,
      "샤": 3183,
      "서": 3184,
      "석": 3185,
      "선": 3186,
      "설": 3187,
      "섭": 3188,
      "성": 3189,
      "세": 3190,
      "션": 3191,
      "소": 3192,
      "속": 3193,
      "솔": 3194,
      "송": 3195,
      "수": 3196,
      "숙": 3197,
      "숟": 3198,
      "슈": 3199,
      "스": 3200,
      "슷": 3201,
      "승": 3202,
      "시": 3203,
      "신": 3204,
      "실": 3205,
      "심": 3206,
      "십": 3207,
      "싶": 3208,
      "아": 3209,
      "악": 3210,
      "안": 3211,
      "않": 3212,
      "알": 3213,
      "애": 3214,
      "액": 3215,
      "야": 3216,
      "양": 3217,
      "어": 3218,
      "언": 3219,
      "없": 3220,
      "었": 3221,
      "에": 3222,
      "엔": 3223,
      "역": 3224,
      "엮": 3225,
      "연": 3226,
      "열": 3227,
      "영": 3228,
      "예": 3229,
      "오": 3230,
      "와": 3231,
      "요": 3232,
      "용": 3233,
      "우": 3234,
      "운": 3235,
      "울": 3236,
      "웅": 3237,
      "워": 3238,
      "원": 3239,
      "월": 3240,
      "위": 3241,
      "윈": 3242,
      "유": 3243,
      "윤": 3244,
      "으": 3245,
      "은": 3246,
      "을": 3247,
      "음": 3248,
      "의": 3249,
      "이": 3250,
      "인": 3251,
      "일": 3252,
      "임": 3253,
      "입": 3254,
      "있": 3255,
      "자": 3256,
      "작": 3257,
      "잖": 3258,
      "장": 3259,
      "재": 3260,
      "저": 3261,
      "적": 3262,
      "전": 3263,
      "절": 3264,
      "점": 3265,
      "젓": 3266,
      "정": 3267,
      "제": 3268,
      "져": 3269,
      "조": 3270,
      "좋": 3271,
      "죠": 3272,
      "주": 3273,
      "중": 3274,
      "즈": 3275,
      "지": 3276,
      "진": 3277,
      "질": 3278,
      "집": 3279,
      "징": 3280,
      "짜": 3281,
      "찍": 3282,
      "찬": 3283,
      "창": 3284,
      "처": 3285,
      "천": 3286,
      "첫": 3287,
      "체": 3288,
      "초": 3289,
      "추": 3290,
      "충": 3291,
      "치": 3292,
      "친": 3293,
      "칼": 3294,
      "캐": 3295,
      "케": 3296,
      "켰": 3297,
      "퀵": 3298,
      "크": 3299,
      "키": 3300,
      "탁": 3301,
      "탄": 3302,
      "택": 3303,
      "터": 3304,
      "테": 3305,
      "토": 3306,
      "투": 3307,
      "트": 3308,
      "특": 3309,
      "팀": 3310,
      "파": 3311,
      "판": 3312,
      "팝": 3313,
      "팬": 3314,
      "퍼": 3315,
      "펀": 3316,
      "편": 3317,
      "평": 3318,
      "필": 3319,
      "하": 3320,
      "학": 3321,
      "한": 3322,
      "할": 3323,
      "함": 3324,
      "해": 3325,
      "했": 3326,
      "행": 3327,
      "헐": 3328,
      "현": 3329,
      "혜": 3330,
      "호": 3331,
      "화": 3332,
      "확": 3333,
      "황": 3334,
      "획": 3335,
      "흥": 3336,
      "히": 3337,
      "": 3338,
      "": 3339,
      "": 3340,
      "": 3341,
      "": 3342,
      "": 3343,
      "": 3344,
      "": 3345,
      "": 3346,
      "": 3347,
      "": 3348,
      "": 3349,
      "": 3350,
      "": 3351,
      "": 3352,
      "": 3353,
      "": 3354,
      "": 3355,
      "": 3356,
      "": 3357,
      "": 3358,
      "": 3359,
      "": 3360,
      "": 3361,
      "︎": 3362,
      "️": 3363,
      "﹣": 3364,
      "�": 3365,
      "𐎠": 3366,
      "𐎱": 3367,
      "𐎼": 3368,
      "𐎿": 3369,
      "𐨀": 3370,
      "𐨅": 3371,
      "𐨐": 3372,
      "𐨑": 3373,
      "𐨒": 3374,
      "𐨓": 3375,
      "𐨗": 3376,
      "𐨟": 3377,
      "𐨠": 3378,
      "𐨢": 3379,
      "𐨣": 3380,
      "𐨤": 3381,
      "𐨦": 3382,
      "𐨨": 3383,
      "𐨩": 3384,
      "𐨪": 3385,
      "𐨫": 3386,
      "𐨬": 3387,
      "𐨭": 3388,
      "𐨮": 3389,
      "𐨯": 3390,
      "𐨱": 3391,
      "𐩠": 3392,
      "𐩡": 3393,
      "𐩢": 3394,
      "𐩣": 3395,
      "𐩤": 3396,
      "𐩥": 3397,
      "𐩦": 3398,
      "𐩧": 3399,
      "𐩨": 3400,
      "𐩩": 3401,
      "𐩫": 3402,
      "𐩬": 3403,
      "𐩮": 3404,
      "𐩯": 3405,
      "𐩰": 3406,
      "𐩱": 3407,
      "𐩲": 3408,
      "𐩴": 3409,
      "𐩵": 3410,
      "𐩷": 3411,
      "𐩸": 3412,
      "𐩺": 3413,
      "𐭀": 3414,
      "𐭁": 3415,
      "𐭂": 3416,
      "𐭃": 3417,
      "𐭄": 3418,
      "𐭅": 3419,
      "𐭆": 3420,
      "𐭇": 3421,
      "𐭈": 3422,
      "𐭉": 3423,
      "𐭊": 3424,
      "𐭋": 3425,
      "𐭌": 3426,
      "𐭍": 3427,
      "𐭎": 3428,
      "𐭏": 3429,
      "𐭐": 3430,
      "𐭑": 3431,
      "𐭒": 3432,
      "𐭓": 3433,
      "𐭔": 3434,
      "𐭕": 3435,
      "𐰁": 3436,
      "𐰃": 3437,
      "𐰆": 3438,
      "𐰈": 3439,
      "𐰉": 3440,
      "𐰋": 3441,
      "𐰍": 3442,
      "𐰏": 3443,
      "𐰓": 3444,
      "𐰕": 3445,
      "𐰖": 3446,
      "𐰘": 3447,
      "𐰚": 3448,
      "𐰜": 3449,
      "𐰞": 3450,
      "𐰠": 3451,
      "𐰢": 3452,
      "𐰣": 3453,
      "𐰤": 3454,
      "𐰯": 3455,
      "𐰱": 3456,
      "𐰲": 3457,
      "𐰴": 3458,
      "𐰸": 3459,
      "𐰺": 3460,
      "𐰼": 3461,
      "𐰽": 3462,
      "𐰾": 3463,
      "𐱁": 3464,
      "𐱂": 3465,
      "𐱃": 3466,
      "𐱅": 3467,
      "𑀅": 3468,
      "𑀆": 3469,
      "𑀇": 3470,
      "𑀈": 3471,
      "𑀉": 3472,
      "𑀊": 3473,
      "𑀏": 3474,
      "𑀐": 3475,
      "𑀑": 3476,
      "𑀒": 3477,
      "𑀓": 3478,
      "𑀔": 3479,
      "𑀕": 3480,
      "𑀖": 3481,
      "𑀚": 3482,
      "𑀝": 3483,
      "𑀞": 3484,
      "𑀟": 3485,
      "𑀠": 3486,
      "𑀢": 3487,
      "𑀣": 3488,
      "𑀤": 3489,
      "𑀥": 3490,
      "𑀦": 3491,
      "𑀧": 3492,
      "𑀨": 3493,
      "𑀩": 3494,
      "𑀪": 3495,
      "𑀫": 3496,
      "𑀬": 3497,
      "𑀭": 3498,
      "𑀮": 3499,
      "𑀯": 3500,
      "𑀰": 3501,
      "𑀱": 3502,
      "𑀲": 3503,
      "𑀳": 3504,
      "𒂗": 3505,
      "𒄀": 3506,
      "𒆠": 3507,
      "𓅓": 3508,
      "𓆎": 3509,
      "𓊖": 3510,
      "𓏏": 3511,
      "𗣂": 3512,
      "𝄆": 3513,
      "𝄇": 3514,
      "𝐄": 3515,
      "𝐍": 3516,
      "𝑥": 3517,
      "𝒦": 3518,
      "𝓐": 3519,
      "𝗔": 3520,
      "𝗘": 3521,
      "𝗛": 3522,
      "𝗝": 3523,
      "𝗡": 3524,
      "𝗥": 3525,
      "𝗦": 3526,
      "𝗧": 3527,
      "𝗨": 3528,
      "𝗩": 3529,
      "🆖": 3530,
      "🇦": 3531,
      "🇫": 3532,
      "🇮": 3533,
      "🇱": 3534,
      "🇳": 3535,
      "🇶": 3536,
      "🇷": 3537,
      "🇸": 3538,
      "🇺": 3539,
      "🇿": 3540,
      "🌋": 3541,
      "🌌": 3542,
      "🌸": 3543,
      "🎞": 3544,
      "🎬": 3545,
      "🎵": 3546,
      "🎶": 3547,
      "🏆": 3548,
      "🏰": 3549,
      "🏴": 3550,
      "🏻": 3551,
      "🐐": 3552,
      "🐝": 3553,
      "👀": 3554,
      "👊": 3555,
      "👋": 3556,
      "👎": 3557,
      "👫": 3558,
      "👽": 3559,
      "💔": 3560,
      "💚": 3561,
      "💥": 3562,
      "📺": 3563,
      "🔓": 3564,
      "🔥": 3565,
      "🕷": 3566,
      "🖂": 3567,
      "😀": 3568,
      "😂": 3569,
      "😃": 3570,
      "😄": 3571,
      "😅": 3572,
      "😊": 3573,
      "😍": 3574,
      "😜": 3575,
      "😝": 3576,
      "😢": 3577,
      "😬": 3578,
      "😭": 3579,
      "😱": 3580,
      "😳": 3581,
      "🙁": 3582,
      "🙏": 3583,
      "🚀": 3584,
      "🚨": 3585,
      "🜨": 3586,
      "🤖": 3587,
      "🤦": 3588,
      "🤨": 3589,
      "🤯": 3590,
      "🤲": 3591,
      "🥀": 3592,
      "🥰": 3593,
      "🥳": 3594,
      "🥵": 3595,
      "🥹": 3596,
      "🦸": 3597,
      "🧚": 3598,
      "🧵": 3599,
      "𣡿": 3600,
      "𦆱": 3601,
      "󠁢": 3602,
      "󠁧": 3603,
      "󠁬": 3604,
      "󠁳": 3605,
      "󠁷": 3606,
      "󠁿": 3607,
      "􏿾": 3608,
      "an": 3609,
      "en": 3610,
      "er": 3611,
      "▁t": 3612,
      "▁.": 3613,
      "▁d": 3614,
      "in": 3615,
      "▁m": 3616,
      "▁s": 3617,
      "at": 3618,
      "▁b": 3619,
      "ar": 3620,
      "▁h": 3621,
      "▁a": 3622,
      "▁w": 3623,
      "▁k": 3624,
      "et": 3625,
      "▁o": 3626,
      "el": 3627,
      "it": 3628,
      "▁th": 3629,
      "is": 3630,
      "ak": 3631,
      "▁p": 3632,
      "al": 3633,
      "ang": 3634,
      "▁,": 3635,
      "or": 3636,
      "▁g": 3637,
      "ah": 3638,
      "ou": 3639,
      "▁*": 3640,
      "em": 3641,
      "es": 3642,
      "▁n": 3643,
      "on": 3644,
      "as": 3645,
      "▁v": 3646,
      "▁l": 3647,
      "ij": 3648,
      "am": 3649,
      "▁I": 3650,
      "▁A": 3651,
      "ing": 3652,
      "▁y": 3653,
      "ed": 3654,
      "un": 3655,
      "ik": 3656,
      "▁j": 3657,
      "▁the": 3658,
      "▁?": 3659,
      "▁in": 3660,
      "ch": 3661,
      "and": 3662,
      "▁z": 3663,
      "ya": 3664,
      "▁de": 3665,
      "▁c": 3666,
      "▁S": 3667,
      "▁D": 3668,
      "ku": 3669,
      "▁di": 3670,
      "kan": 3671,
      "il": 3672,
      "▁T": 3673,
      "▁e": 3674,
      "ad": 3675,
      "▁M": 3676,
      "id": 3677,
      "▁men": 3678,
      "▁K": 3679,
      "▁B": 3680,
      "au": 3681,
      "om": 3682,
      "▁f": 3683,
      "ap": 3684,
      "▁r": 3685,
      "▁H": 3686,
      "▁to": 3687,
      "ek": 3688,
      "us": 3689,
      "▁is": 3690,
      "ur": 3691,
      "aar": 3692,
      "eb": 3693,
      "OT": 3694,
      "ag": 3695,
      "▁*M": 3696,
      "▁it": 3697,
      "▁*MOT": 3698,
      "ut": 3699,
      "..": 3700,
      "▁W": 3701,
      "ot": 3702,
      "CH": 3703,
      "▁you": 3704,
      "▁and": 3705,
      "▁*MOT:": 3706,
      "CHI": 3707,
      "ig": 3708,
      "▁je": 3709,
      "ir": 3710,
      "▁J": 3711,
      "im": 3712,
      "▁of": 3713,
      "ie": 3714,
      "ol": 3715,
      "ent": 3716,
      "▁!": 3717,
      "uk": 3718,
      "eg": 3719,
      "▁een": 3720,
      "▁het": 3721,
      "▁on": 3722,
      "▁yang": 3723,
      "▁ber": 3724,
      "oor": 3725,
      "▁P": 3726,
      "ul": 3727,
      "▁\"": 3728,
      "▁*CHI": 3729,
      "le": 3730,
      "▁*CHI:": 3731,
      "▁al": 3732,
      "st": 3733,
      "ep": 3734,
      "iet": 3735,
      "oo": 3736,
      "▁en": 3737,
      "ay": 3738,
      "ow": 3739,
      "▁...": 3740,
      "▁st": 3741,
      "eng": 3742,
      "'s": 3743,
      "nya": 3744,
      "▁van": 3745,
      "▁u": 3746,
      "ere": 3747,
      "ee": 3748,
      "▁N": 3749,
      "▁dan": 3750,
      "▁-": 3751,
      "▁wh": 3752,
      "▁mem": 3753,
      "ic": 3754,
      "▁Aku": 3755,
      "▁dat": 3756,
      "um": 3757,
      "▁E": 3758,
      "▁C": 3759,
      "pa": 3760,
      "▁me": 3761,
      "idak": 3762,
      "▁L": 3763,
      "ijn": 3764,
      "he": 3765,
      "ve": 3766,
      "▁we": 3767,
      "ant": 3768,
      "▁per": 3769,
      "▁G": 3770,
      "▁O": 3771,
      "ver": 3772,
      "ih": 3773,
      "▁be": 3774,
      "▁was": 3775,
      "▁op": 3776,
      "▁that": 3777,
      "ia": 3778,
      "▁niet": 3779,
      "cht": 3780,
      "re": 3781,
      "ro": 3782,
      "▁aku": 3783,
      "▁ver": 3784,
      "▁Ik": 3785,
      "▁ter": 3786,
      "▁ik": 3787,
      "ari": 3788,
      "▁do": 3789,
      "▁he": 3790,
      "▁'": 3791,
      "ung": 3792,
      "ud": 3793,
      "end": 3794,
      "▁meng": 3795,
      "ac": 3796,
      "▁kau": 3797,
      "▁Y": 3798,
      "ita": 3799,
      "est": 3800,
      "▁itu": 3801,
      "unt": 3802,
      "▁ini": 3803,
      "e.": 3804,
      "▁sa": 3805,
      "▁tidak": 3806,
      "▁akan": 3807,
      "▁R": 3808,
      "▁ad": 3809,
      "▁ke": 3810,
      "ijk": 3811,
      "den": 3812,
      "▁ge": 3813,
      "ter": 3814,
      "▁te": 3815,
      "▁er": 3816,
      "ra": 3817,
      "ti": 3818,
      "ukan": 3819,
      "▁no": 3820,
      "der": 3821,
      "uh": 3822,
      "▁1": 3823,
      "ly": 3824,
      "▁In": 3825,
      "▁mo": 3826,
      "aan": 3827,
      "akan": 3828,
      "op": 3829,
      "ok": 3830,
      "ab": 3831,
      "'t": 3832,
      "▁voor": 3833,
      "▁an": 3834,
      "en.": 3835,
      "▁go": 3836,
      "▁heb": 3837,
      "anya": 3838,
      "▁unt": 3839,
      "▁memb": 3840,
      "▁tak": 3841,
      "isa": 3842,
      "se": 3843,
      "ell": 3844,
      "ri": 3845,
      "ong": 3846,
      "aat": 3847,
      "▁zijn": 3848,
      "▁for": 3849,
      "▁untuk": 3850,
      "▁ar": 3851,
      "ai": 3852,
      "▁at": 3853,
      "▁met": 3854,
      "engan": 3855,
      "ain": 3856,
      "ec": 3857,
      "alah": 3858,
      "ven": 3859,
      "ug": 3860,
      "de": 3861,
      "ht": 3862,
      "adi": 3863,
      "ers": 3864,
      "▁V": 3865,
      "▁or": 3866,
      "▁Z": 3867,
      "ali": 3868,
      "nd": 3869,
      "ft": 3870,
      "▁Kau": 3871,
      "▁bisa": 3872,
      "ana": 3873,
      "ati": 3874,
      "mu": 3875,
      "▁dengan": 3876,
      "▁[": 3877,
      "▁mer": 3878,
      "ill": 3879,
      "▁F": 3880,
      "ith": 3881,
      "ind": 3882,
      "ier": 3883,
      "aik": 3884,
      "ara": 3885,
      "apa": 3886,
      "▁kita": 3887,
      "aw": 3888,
      "▁ha": 3889,
      "s.": 3890,
      "▁De": 3891,
      "ld": 3892,
      "▁mel": 3893,
      "up": 3894,
      "▁die": 3895,
      "▁ze": 3896,
      "emb": 3897,
      "▁tah": 3898,
      "▁(": 3899,
      "▁It": 3900,
      "▁dia": 3901,
      "os": 3902,
      "▁as": 3903,
      "th": 3904,
      "ama": 3905,
      "ight": 3906,
      "▁wor": 3907,
      "▁2": 3908,
      "▁ben": 3909,
      "eka": 3910,
      "▁kam": 3911,
      "▁with": 3912,
      "▁wat": 3913,
      "ja": 3914,
      "angan": 3915,
      "▁what": 3916,
      "all": 3917,
      "ub": 3918,
      "ist": 3919,
      "ust": 3920,
      "▁om": 3921,
      "▁over": 3922,
      "▁had": 3923,
      "▁har": 3924,
      "▁aan": 3925,
      "alam": 3926,
      "▁dari": 3927,
      "▁all": 3928,
      "▁sp": 3929,
      "▁Het": 3930,
      "▁zo": 3931,
      "▁Apa": 3932,
      "▁se": 3933,
      "ome": 3934,
      "▁le": 3935,
      "ua": 3936,
      "ast": 3937,
      "AR": 3938,
      "▁The": 3939,
      "▁apa": 3940,
      "▁uit": 3941,
      "atu": 3942,
      "oe": 3943,
      "gen": 3944,
      "IN": 3945,
      "▁U": 3946,
      "▁not": 3947,
      "▁pl": 3948,
      "▁Al": 3949,
      "▁als": 3950,
      "eld": 3951,
      "int": 3952,
      "▁this": 3953,
      "xx": 3954,
      "▁Je": 3955,
      "▁kn": 3956,
      "api": 3957,
      "▁ada": 3958,
      "▁sh": 3959,
      "ika": 3960,
      "▁He": 3961,
      "AT": 3962,
      "▁i": 3963,
      "agi": 3964,
      "ook": 3965,
      "▁have": 3966,
      "art": 3967,
      "udah": 3968,
      "▁tahu": 3969,
      "▁re": 3970,
      "ob": 3971,
      "▁We": 3972,
      "uc": 3973,
      "ould": 3974,
      "▁pr": 3975,
      "ada": 3976,
      "ihat": 3977,
      "e,": 3978,
      "eer": 3979,
      "▁maar": 3980,
      "ood": 3981,
      "ze": 3982,
      "▁Th": 3983,
      "▁man": 3984,
      "ond": 3985,
      "INV": 3986,
      "ip": 3987,
      "▁*INV": 3988,
      "▁Dia": 3989,
      "▁kan": 3990,
      "▁sch": 3991,
      "▁And": 3992,
      "▁are": 3993,
      "▁naar": 3994,
      "▁her": 3995,
      "y.": 3996,
      "▁there": 3997,
      "ink": 3998,
      "▁they": 3999,
      "▁can": 4000,
      "▁sek": 4001,
      "eper": 4002,
      "▁ch": 4003,
      "▁En": 4004,
      "▁I'": 4005,
      "je": 4006,
      "ien": 4007,
      "aj": 4008,
      "emp": 4009,
      "lah": 4010,
      "▁moet": 4011,
      "akukan": 4012,
      "...": 4013,
      "D:": 4014,
      "ini": 4015,
      "▁orang": 4016,
      "ET": 4017,
      "▁mereka": 4018,
      "▁so": 4019,
      "▁mas": 4020,
      "▁*T": 4021,
      "▁ne": 4022,
      "00": 4023,
      "▁his": 4024,
      "sen": 4025,
      "nen": 4026,
      "▁mak": 4027,
      "aren": 4028,
      "▁hij": 4029,
      "▁meny": 4030,
      "ion": 4031,
      "tr": 4032,
      "R:": 4033,
      "▁bo": 4034,
      "▁seb": 4035,
      "▁Dan": 4036,
      "her": 4037,
      "▁fr": 4038,
      "rij": 4039,
      "ich": 4040,
      "ess": 4041,
      "▁tr": 4042,
      "gi": 4043,
      "eah": 4044,
      "LD:": 4045,
      "▁don": 4046,
      "ikan": 4047,
      "▁up": 4048,
      "▁af": 4049,
      "es.": 4050,
      "▁pro": 4051,
      "akt": 4052,
      "▁ing": 4053,
      "▁Wat": 4054,
      "▁but": 4055,
      "ken": 4056,
      "elijk": 4057,
      "na": 4058,
      "ARG": 4059,
      "ARGET": 4060,
      "CHILD:": 4061,
      "_CHILD:": 4062,
      "▁*TARGET": 4063,
      "▁*TARGET_CHILD:": 4064,
      "▁know": 4065,
      "▁sem": 4066,
      "▁dit": 4067,
      "ack": 4068,
      "▁wer": 4069,
      "▁harus": 4070,
      "out": 4071,
      "alu": 4072,
      "aga": 4073,
      "og": 4074,
      "▁your": 4075,
      "aal": 4076,
      "uga": 4077,
      "▁bl": 4078,
      "sch": 4079,
      "▁she": 4080,
      "unya": 4081,
      "eel": 4082,
      "▁bel": 4083,
      "▁adalah": 4084,
      "eeft": 4085,
      "ard": 4086,
      "▁sudah": 4087,
      "▁Tidak": 4088,
      "amp": 4089,
      "▁beg": 4090,
      "▁Dat": 4091,
      "eman": 4092,
      "▁wil": 4093,
      "asa": 4094,
      "uat": 4095,
      "▁tw": 4096,
      "jadi": 4097,
      "▁wel": 4098,
      "▁bij": 4099,
      "itt": 4100,
      "inya": 4101,
      "▁my": 4102,
      "s,": 4103,
      "ff": 4104,
      "ike": 4105,
      "▁ook": 4106,
      "▁Ini": 4107,
      "eperti": 4108,
      "lie": 4109,
      "oc": 4110,
      "▁/": 4111,
      "ce": 4112,
      "▁gr": 4113,
      "▁saja": 4114,
      "▁nog": 4115,
      "▁St": 4116,
      "amu": 4117,
      "▁kom": 4118,
      "aya": 4119,
      "▁sel": 4120,
      "▁get": 4121,
      "ouw": 4122,
      "▁br": 4123,
      "▁one": 4124,
      "acht": 4125,
      "od": 4126,
      "▁hier": 4127,
      "any": 4128,
      "uar": 4129,
      "▁waar": 4130,
      "uan": 4131,
      "▁Wh": 4132,
      "ank": 4133,
      "oh": 4134,
      "gh": 4135,
      "▁ab": 4136,
      "ation": 4137,
      "ian": 4138,
      "elah": 4139,
      "▁out": 4140,
      "arang": 4141,
      "▁dalam": 4142,
      "▁Ch": 4143,
      "elf": 4144,
      "ib": 4145,
      "▁door": 4146,
      "ben": 4147,
      "sp": 4148,
      "eren": 4149,
      "▁Ya": 4150,
      "▁ingin": 4151,
      "▁don't": 4152,
      "ore": 4153,
      "amb": 4154,
      "uit": 4155,
      "▁Ay": 4156,
      "n't": 4157,
      "af": 4158,
      "▁did": 4159,
      "ert": 4160,
      "▁him": 4161,
      "▁like": 4162,
      "ke": 4163,
      "▁*INV:": 4164,
      "▁com": 4165,
      "▁You": 4166,
      "▁seperti": 4167,
      "▁baik": 4168,
      "ebih": 4169,
      "▁Hij": 4170,
      "ort": 4171,
      "▁from": 4172,
      "ingg": 4173,
      "▁Oh": 4174,
      "'re": 4175,
      "▁Itu": 4176,
      "▁mijn": 4177,
      "▁juga": 4178,
      "angat": 4179,
      "▁heeft": 4180,
      "▁oh": 4181,
      "▁con": 4182,
      "ge": 4183,
      "asi": 4184,
      "▁pen": 4185,
      "▁geb": 4186,
      "▁look": 4187,
      "▁goed": 4188,
      "uku": 4189,
      "HE": 4190,
      "ing.": 4191,
      "▁by": 4192,
      "▁19": 4193,
      "orm": 4194,
      "ste": 4195,
      "ide": 4196,
      "▁*F": 4197,
      "▁bet": 4198,
      "pen": 4199,
      "▁Ze": 4200,
      "▁ex": 4201,
      "a.": 4202,
      "▁dr": 4203,
      "ound": 4204,
      "▁hel": 4205,
      "apat": 4206,
      "▁menc": 4207,
      "▁put": 4208,
      "▁us": 4209,
      "ll": 4210,
      "we": 4211,
      "ijd": 4212,
      "uis": 4213,
      "▁hebben": 4214,
      "▁dis": 4215,
      "▁An": 4216,
      "arena": 4217,
      "▁kun": 4218,
      "▁hem": 4219,
      "own": 4220,
      "oon": 4221,
      "▁Ber": 4222,
      "▁el": 4223,
      "angg": 4224,
      "▁were": 4225,
      "ame": 4226,
      "ine": 4227,
      "▁them": 4228,
      "ata": 4229,
      "er.": 4230,
      "aku": 4231,
      "y,": 4232,
      "▁si": 4233,
      "ew": 4234,
      "▁want": 4235,
      "▁here": 4236,
      "▁lagi": 4237,
      "▁yeah": 4238,
      "te": 4239,
      "▁kamu": 4240,
      "our": 4241,
      "▁sini": 4242,
      "▁ag": 4243,
      "▁bes": 4244,
      "▁*FAT": 4245,
      "imana": 4246,
      "▁kami": 4247,
      "xxx": 4248,
      "▁Anda": 4249,
      "▁geen": 4250,
      "▁xxx": 4251,
      "▁Kita": 4252,
      "alian": 4253,
      "▁pergi": 4254,
      "▁lebih": 4255,
      "▁3": 4256,
      "▁hal": 4257,
      "ick": 4258,
      "▁word": 4259,
      "▁will": 4260,
      "per": 4261,
      "▁bah": 4262,
      "atan": 4263,
      "aten": 4264,
      "eken": 4265,
      "▁Tapi": 4266,
      "itu": 4267,
      "▁it's": 4268,
      "▁I'm": 4269,
      "HER:": 4270,
      "▁got": 4271,
      "ese": 4272,
      "▁mend": 4273,
      "ally": 4274,
      "▁just": 4275,
      "kin": 4276,
      "alan": 4277,
      "mer": 4278,
      "▁pada": 4279,
      "▁sangat": 4280,
      "ry": 4281,
      "▁Ter": 4282,
      "▁say": 4283,
      "egen": 4284,
      "ima": 4285,
      "▁see": 4286,
      "ies": 4287,
      "▁kel": 4288,
      "--": 4289,
      "land": 4290,
      "▁ma": 4291,
      "▁bers": 4292,
      "▁haar": 4293,
      "▁about": 4294,
      "ingen": 4295,
      "ende": 4296,
      "▁think": 4297,
      "▁daar": 4298,
      "ikir": 4299,
      "▁*FAT:": 4300,
      "▁hanya": 4301,
      "▁ap": 4302,
      "av": 4303,
      "▁Ad": 4304,
      "eden": 4305,
      "ten": 4306,
      "qu": 4307,
      "▁un": 4308,
      "▁meer": 4309,
      "▁tim": 4310,
      "▁sl": 4311,
      "▁kl": 4312,
      "▁set": 4313,
      "▁benar": 4314,
      "▁deze": 4315,
      "agaimana": 4316,
      "▁jij": 4317,
      "oord": 4318,
      "▁some": 4319,
      "anyak": 4320,
      "▁gaan": 4321,
      "▁Mer": 4322,
      "one": 4323,
      "▁min": 4324,
      "▁right": 4325,
      "▁saya": 4326,
      "▁ac": 4327,
      "ish": 4328,
      "▁said": 4329,
      "ami": 4330,
      "▁20": 4331,
      "▁semua": 4332,
      "wa": 4333,
      "ungg": 4334,
      "o.": 4335,
      "▁punya": 4336,
      "ens": 4337,
      "▁now": 4338,
      "▁would": 4339,
      "▁gel": 4340,
      "imp": 4341,
      "eder": 4342,
      "orang": 4343,
      "▁bukan": 4344,
      "ed.": 4345,
      "▁pas": 4346,
      "▁nu": 4347,
      "engar": 4348,
      "▁Als": 4349,
      "ost": 4350,
      "▁Maar": 4351,
      "▁that's": 4352,
      "▁Waar": 4353,
      "▁*MOTHER:": 4354,
      "▁Per": 4355,
      "ach": 4356,
      "▁bert": 4357,
      "ay.": 4358,
      "].": 4359,
      "ive": 4360,
      "▁who": 4361,
      "▁weet": 4362,
      "imu": 4363,
      "▁if": 4364,
      "anc": 4365,
      "▁onder": 4366,
      "eh": 4367,
      "▁am": 4368,
      "▁Een": 4369,
      "ark": 4370,
      "▁bent": 4371,
      "▁zou": 4372,
      "▁when": 4373,
      "▁ser": 4374,
      "▁anak": 4375,
      "es,": 4376,
      "if": 4377,
      "iv": 4378,
      "eten": 4379,
      "ungkin": 4380,
      "nt": 4381,
      "akah": 4382,
      "▁mau": 4383,
      "ough": 4384,
      "ect": 4385,
      "▁sed": 4386,
      "eker": 4387,
      "▁it.": 4388,
      "▁hand": 4389,
      "atakan": 4390,
      "lijk": 4391,
      "ige": 4392,
      "ool": 4393,
      "▁hou": 4394,
      "▁melihat": 4395,
      "▁kep": 4396,
      "▁zeg": 4397,
      "▁ker": 4398,
      "empat": 4399,
      "▁banyak": 4400,
      "▁doen": 4401,
      "▁gaat": 4402,
      "▁pern": 4403,
      "elen": 4404,
      "angk": 4405,
      "ES": 4406,
      "▁membuat": 4407,
      "ullie": 4408,
      "▁any": 4409,
      "si": 4410,
      "▁Ma": 4411,
      "▁Er": 4412,
      "▁saat": 4413,
      "uka": 4414,
      "▁menjadi": 4415,
      "▁satu": 4416,
      "oll": 4417,
      "▁melakukan": 4418,
      "ru": 4419,
      "▁cl": 4420,
      "▁car": 4421,
      "iets": 4422,
      "▁lain": 4423,
      "ite": 4424,
      "uur": 4425,
      "ilang": 4426,
      ",\"": 4427,
      "▁hari": 4428,
      "▁gew": 4429,
      "asih": 4430,
      "▁tent": 4431,
      "▁5": 4432,
      "▁ga": 4433,
      "▁Fr": 4434,
      "oed": 4435,
      "▁ok": 4436,
      "▁alle": 4437,
      "be": 4438,
      "idup": 4439,
      "▁atau": 4440,
      "▁terl": 4441,
      "to": 4442,
      "other": 4443,
      "uw": 4444,
      "▁sam": 4445,
      "iri": 4446,
      "▁wordt": 4447,
      "▁has": 4448,
      "enapa": 4449,
      "▁worden": 4450,
      "▁Mereka": 4451,
      "▁karena": 4452,
      "ittle": 4453,
      "ate": 4454,
      "▁down": 4455,
      "▁where": 4456,
      "▁·": 4457,
      "▁bed": 4458,
      "▁pad": 4459,
      "▁Jangan": 4460,
      "ilik": 4461,
      "▁vol": 4462,
      "▁yeah.": 4463,
      "▁mij": 4464,
      "▁then": 4465,
      "▁off": 4466,
      "icht": 4467,
      ".\"": 4468,
      "▁thr": 4469,
      "▁even": 4470,
      "▁bar": 4471,
      "▁best": 4472,
      "▁Men": 4473,
      "▁lang": 4474,
      "▁Baik": 4475,
      "isch": 4476,
      "▁good": 4477,
      "▁su": 4478,
      "▁berb": 4479,
      "▁sekarang": 4480,
      "▁mengh": 4481,
      "▁hoe": 4482,
      "▁Ap": 4483,
      "▁som": 4484,
      "iss": 4485,
      "ear": 4486,
      "pl": 4487,
      "epat": 4488,
      "▁kalian": 4489,
      "isi": 4490,
      "▁Si": 4491,
      "▁Ja": 4492,
      "▁pernah": 4493,
      "ings": 4494,
      "uj": 4495,
      "anj": 4496,
      "▁vr": 4497,
      "▁back": 4498,
      "enang": 4499,
      "▁kon": 4500,
      "▁Dit": 4501,
      "ne": 4502,
      "▁tapi": 4503,
      "TI": 4504,
      "▁little": 4505,
      "▁been": 4506,
      "▁Hoe": 4507,
      "▁4": 4508,
      "alau": 4509,
      "▁ons": 4510,
      "▁Sel": 4511,
      "ahan": 4512,
      "ice": 4513,
      "▁Ben": 4514,
      "iku": 4515,
      "riend": 4516,
      "enk": 4517,
      "▁jika": 4518,
      "▁well": 4519,
      "ous": 4520,
      "ele": 4521,
      "▁let": 4522,
      "▁Jika": 4523,
      "▁kunnen": 4524,
      "▁Di": 4525,
      "ause": 4526,
      "▁peng": 4527,
      "ose": 4528,
      "▁datang": 4529,
      "hir": 4530,
      "▁Is": 4531,
      "▁pe": 4532,
      "▁Kami": 4533,
      "▁kem": 4534,
      "▁which": 4535,
      "▁going": 4536,
      "iz": 4537,
      "▁could": 4538,
      "▁ont": 4539,
      "▁kemb": 4540,
      "agen": 4541,
      "▁wan": 4542,
      "amat": 4543,
      "ull": 4544,
      "▁Br": 4545,
      "▁Mr": 4546,
      "ure": 4547,
      "▁hebt": 4548,
      "▁gev": 4549,
      "▁telah": 4550,
      "als": 4551,
      "heid": 4552,
      "inggal": 4553,
      "o,": 4554,
      "▁their": 4555,
      "▁teman": 4556,
      "▁zal": 4557,
      "lu": 4558,
      "▁lakukan": 4559,
      "old": 4560,
      "ATO": 4561,
      "▁fir": 4562,
      "oel": 4563,
      "▁gen": 4564,
      "TIG": 4565,
      "▁Ada": 4566,
      "▁makan": 4567,
      "jes": 4568,
      "▁veel": 4569,
      "eber": 4570,
      "ESTIG": 4571,
      "▁mu": 4572,
      "ESTIGATO": 4573,
      "▁*INVESTIGATO": 4574,
      "▁*INVESTIGATOR:": 4575,
      "▁member": 4576,
      "ther": 4577,
      "onder": 4578,
      "man": 4579,
      "omm": 4580,
      "emand": 4581,
      "▁weg": 4582,
      "▁aw": 4583,
      "▁ses": 4584,
      "▁iets": 4585,
      "dat": 4586,
      "inta": 4587,
      "▁jullie": 4588,
      "raag": 4589,
      "▁pert": 4590,
      "orn": 4591,
      "▁very": 4592,
      "hing": 4593,
      "racht": 4594,
      "oof": 4595,
      "▁gez": 4596,
      "ade": 4597,
      "▁eer": 4598,
      "umah": 4599,
      "▁send": 4600,
      "▁ged": 4601,
      "▁sn": 4602,
      "▁Jadi": 4603,
      "arent": 4604,
      "igen": 4605,
      "▁Kom": 4606,
      "aran": 4607,
      "urn": 4608,
      "▁bag": 4609,
      "▁begitu": 4610,
      "▁tot": 4611,
      "▁come": 4612,
      "▁What": 4613,
      "atie": 4614,
      "▁kembali": 4615,
      "alk": 4616,
      "▁sec": 4617,
      "oot": 4618,
      "▁bec": 4619,
      "ord": 4620,
      "▁Ayo": 4621,
      "apan": 4622,
      "▁str": 4623,
      "▁kasih": 4624,
      "▁Mar": 4625,
      "umb": 4626,
      "en,": 4627,
      "aks": 4628,
      "▁ket": 4629,
      "air": 4630,
      "▁ay": 4631,
      "m.": 4632,
      "ansp": 4633,
      "oop": 4634,
      "▁fl": 4635,
      "ock": 4636,
      "wer": 4637,
      "ans": 4638,
      "▁kes": 4639,
      "ont": 4640,
      "emu": 4641,
      "▁na": 4642,
      "▁berh": 4643,
      "▁more": 4644,
      "▁how": 4645,
      "een": 4646,
      "▁Bagaimana": 4647,
      "▁Nee": 4648,
      "▁terb": 4649,
      "▁no.": 4650,
      "ed,": 4651,
      "els": 4652,
      "▁bi": 4653,
      "▁keluar": 4654,
      "ater": 4655,
      "▁gro": 4656,
      "▁Ar": 4657,
      "▁Sh": 4658,
      "▁ever": 4659,
      "ght": 4660,
      "uck": 4661,
      "bu": 4662,
      "▁Yeah": 4663,
      "▁prob": 4664,
      "awa": 4665,
      "ons": 4666,
      "▁play": 4667,
      "▁tahun": 4668,
      "▁tentang": 4669,
      "ov": 4670,
      "pai": 4671,
      "uatu": 4672,
      "annya": 4673,
      "▁hidup": 4674,
      "arkan": 4675,
      "app": 4676,
      "chter": 4677,
      "▁moeten": 4678,
      "▁terug": 4679,
      "t.": 4680,
      "▁tempat": 4681,
      "ath": 4682,
      "▁two": 4683,
      "▁weer": 4684,
      "▁zien": 4685,
      "eger": 4686,
      "▁dapat": 4687,
      "▁terjadi": 4688,
      "-t": 4689,
      "▁ak": 4690,
      "▁Tak": 4691,
      "▁jadi": 4692,
      "▁But": 4693,
      "▁c.": 4694,
      "▁Saya": 4695,
      "ief": 4696,
      "▁werk": 4697,
      "▁sekali": 4698,
      "?\"": 4699,
      "ing,": 4700,
      "transp": 4701,
      "bg": 4702,
      "▁..": 4703,
      "transparent": 4704,
      "_transparent": 4705,
      "bg_transparent": 4706,
      "▁\"I": 4707,
      "▁c.bg_transparent": 4708,
      "▁mana": 4709,
      "▁wakt": 4710,
      "dig": 4711,
      "zen": 4712,
      "unggu": 4713,
      "▁xxx.": 4714,
      "act": 4715,
      "ity": 4716,
      "▁rumah": 4717,
      "ild": 4718,
      "▁masih": 4719,
      "age": 4720,
      "'ll": 4721,
      "▁Pr": 4722,
      "▁mensen": 4723,
      "uah": 4724,
      "▁ya": 4725,
      "▁gon": 4726,
      "omen": 4727,
      "emen": 4728,
      "▁menj": 4729,
      "ilah": 4730,
      "ct": 4731,
      "▁pol": 4732,
      "und": 4733,
      "▁part": 4734,
      "emaal": 4735,
      "▁Kamu": 4736,
      "iek": 4737,
      "▁Kenapa": 4738,
      "ger": 4739,
      "▁Ok": 4740,
      "▁tegen": 4741,
      "gel": 4742,
      "ial": 4743,
      "AN": 4744,
      "▁eens": 4745,
      "▁twee": 4746,
      "ople": 4747,
      "innen": 4748,
      "▁into": 4749,
      "ruik": 4750,
      "iliki": 4751,
      "▁you.": 4752,
      "eef": 4753,
      "erd": 4754,
      "▁other": 4755,
      "▁kec": 4756,
      "ny": 4757,
      "aman": 4758,
      "▁land": 4759,
      "ace": 4760,
      "▁sc": 4761,
      "oen": 4762,
      "▁mungkin": 4763,
      "▁tijd": 4764,
      "ump": 4765,
      "a,": 4766,
      "▁ant": 4767,
      "▁echt": 4768,
      "▁again": 4769,
      "▁you're": 4770,
      "▁pun": 4771,
      "▁laat": 4772,
      "▁sm": 4773,
      "ker": 4774,
      "unuh": 4775,
      "agai": 4776,
      "▁ro": 4777,
      "▁bur": 4778,
      "▁Hei": 4779,
      "▁seorang": 4780,
      "tion": 4781,
      "▁alleen": 4782,
      "ote": 4783,
      "▁sana": 4784,
      "▁mis": 4785,
      "reat": 4786,
      "▁mee": 4787,
      "▁Gr": 4788,
      "ember": 4789,
      "▁Daar": 4790,
      "enc": 4791,
      "▁sesuatu": 4792,
      "▁does": 4793,
      "▁werd": 4794,
      "▁Apakah": 4795,
      "▁bilang": 4796,
      "▁make": 4797,
      "ga": 4798,
      "les": 4799,
      "▁uh": 4800,
      "▁toch": 4801,
      "eberapa": 4802,
      "▁Se": 4803,
      "▁dir": 4804,
      "▁dib": 4805,
      "inn": 4806,
      "arah": 4807,
      "ulang": 4808,
      "▁jou": 4809,
      "▁Ind": 4810,
      "ass": 4811,
      "leh": 4812,
      "▁sedang": 4813,
      "▁mengg": 4814,
      "▁Op": 4815,
      "▁air": 4816,
      "ue": 4817,
      "esp": 4818,
      "▁zich": 4819,
      "oek": 4820,
      "iap": 4821,
      "ful": 4822,
      "augh": 4823,
      "▁She": 4824,
      "▁gonna": 4825,
      "gr": 4826,
      "▁Meng": 4827,
      "▁it?": 4828,
      "ought": 4829,
      "aca": 4830,
      "▁people": 4831,
      "▁komt": 4832,
      "▁bahwa": 4833,
      "▁baru": 4834,
      "▁bagi": 4835,
      "▁waktu": 4836,
      "▁Sek": 4837,
      "▁tell": 4838,
      "eur": 4839,
      "ooit": 4840,
      "▁jaar": 4841,
      "▁gem": 4842,
      "ulai": 4843,
      "▁Pak": 4844,
      "▁nam": 4845,
      "emukan": 4846,
      "▁work": 4847,
      "olah": 4848,
      "anda": 4849,
      "▁Bob": 4850,
      "▁time": 4851,
      "▁call": 4852,
      "of": 4853,
      "▁krij": 4854,
      "ahkan": 4855,
      "▁ru": 4856,
      "▁pers": 4857,
      "oud": 4858,
      "▁war": 4859,
      "▁somet": 4860,
      "▁denk": 4861,
      "unj": 4862,
      "▁Sch": 4863,
      "uhan": 4864,
      "▁gek": 4865,
      "▁memiliki": 4866,
      "eed": 4867,
      "▁take": 4868,
      "▁besar": 4869,
      "cl": 4870,
      "▁first": 4871,
      "▁Le": 4872,
      "▁kw": 4873,
      "▁6": 4874,
      "▁201": 4875,
      "▁pel": 4876,
      "ett": 4877,
      "▁Seb": 4878,
      "▁jong": 4879,
      "▁Sem": 4880,
      "ult": 4881,
      "▁Ayah": 4882,
      "▁On": 4883,
      "icara": 4884,
      "ann": 4885,
      "elum": 4886,
      "ijf": 4887,
      "over": 4888,
      "▁cr": 4889,
      "▁Terima": 4890,
      "▁They": 4891,
      "'ve": 4892,
      "▁malam": 4893,
      "▁kijk": 4894,
      "uid": 4895,
      "▁sama": 4896,
      "▁tet": 4897,
      "▁mat": 4898,
      "▁sendiri": 4899,
      "▁)": 4900,
      "▁mus": 4901,
      "▁Or": 4902,
      "ment": 4903,
      "▁kle": 4904,
      "▁heel": 4905,
      "▁Sp": 4906,
      "▁hun": 4907,
      "▁Baiklah": 4908,
      "▁after": 4909,
      "kat": 4910,
      "ma": 4911,
      "▁leven": 4912,
      "ala": 4913,
      "▁Amer": 4914,
      "form": 4915,
      "▁there.": 4916,
      "ische": 4917,
      "▁mag": 4918,
      "▁oleh": 4919,
      "ader": 4920,
      "awan": 4921,
      "sh": 4922,
      "▁That": 4923,
      "inder": 4924,
      "▁nooit": 4925,
      "tu": 4926,
      "▁vert": 4927,
      "▁andere": 4928,
      "▁bab": 4929,
      "ather": 4930,
      "akin": 4931,
      "ahu": 4932,
      "▁tan": 4933,
      "▁nie": 4934,
      "▁pikir": 4935,
      "▁Waarom": 4936,
      "▁maken": 4937,
      "▁Un": 4938,
      "▁berp": 4939,
      "▁I'll": 4940,
      "▁inter": 4941,
      "ER": 4942,
      "▁need": 4943,
      "▁qu": 4944,
      "oy": 4945,
      "ile": 4946,
      "kah": 4947,
      "▁only": 4948,
      "▁sle": 4949,
      "elt": 4950,
      "oog": 4951,
      "▁ken": 4952,
      "oth": 4953,
      "▁because": 4954,
      "▁salah": 4955,
      "oorden": 4956,
      "oren": 4957,
      "▁zelf": 4958,
      "▁can't": 4959,
      "ely": 4960,
      "▁bagus": 4961,
      "én": 4962,
      "▁sampai": 4963,
      "ilm": 4964,
      "▁dag": 4965,
      "▁water": 4966,
      "▁our": 4967,
      "ungan": 4968,
      "zelf": 4969,
      "▁Ga": 4970,
      "▁every": 4971,
      "▁way": 4972,
      "ied": 4973,
      "asan": 4974,
      "!\"": 4975,
      "ale": 4976,
      "appen": 4977,
      "▁alles": 4978,
      "▁day": 4979,
      "▁berd": 4980,
      "▁vind": 4981,
      "▁elk": 4982,
      "▁It's": 4983,
      "▁rec": 4984,
      "▁um": 4985,
      "▁wr": 4986,
      "▁pak": 4987,
      "▁Har": 4988,
      "▁verd": 4989,
      "ict": 4990,
      "▁komen": 4991,
      "▁mendapat": 4992,
      "▁beberapa": 4993,
      "▁dep": 4994,
      "akit": 4995,
      "▁A:": 4996,
      "▁school": 4997,
      "bil": 4998,
      "▁gebruik": 4999,
      "onden": 5000,
      "000": 5001,
      "▁mati": 5002,
      "unakan": 5003,
      "ulu": 5004,
      "EN": 5005,
      "irl": 5006,
      "▁pem": 5007,
      "▁big": 5008,
      "▁Maaf": 5009,
      "-teman": 5010,
      "▁zei": 5011,
      "▁Yang": 5012,
      "▁ind": 5013,
      "ellen": 5014,
      "▁long": 5015,
      "aki": 5016,
      "tijd": 5017,
      "▁berk": 5018,
      "▁staat": 5019,
      "▁gl": 5020,
      "ev": 5021,
      "▁lihat": 5022,
      "▁mil": 5023,
      "oba": 5024,
      "▁bu": 5025,
      "▁berl": 5026,
      "y?": 5027,
      "eerd": 5028,
      "ambil": 5029,
      "▁vo": 5030,
      "▁Well": 5031,
      "▁Heb": 5032,
      "▁Die": 5033,
      "▁sur": 5034,
      "▁much": 5035,
      "an,": 5036,
      "unia": 5037,
      "org": 5038,
      "an.": 5039,
      "umm": 5040,
      "amil": 5041,
      "voor": 5042,
      "ting": 5043,
      "▁perlu": 5044,
      "▁Ver": 5045,
      "▁sep": 5046,
      "men": 5047,
      "▁\"T": 5048,
      "▁blij": 5049,
      "▁masuk": 5050,
      "▁comp": 5051,
      "▁At": 5052,
      "ase": 5053,
      "▁didn't": 5054,
      "▁rem": 5055,
      "▁Set": 5056,
      "▁Voor": 5057,
      "orgen": 5058,
      "arnya": 5059,
      "▁won": 5060,
      "wn": 5061,
      "iks": 5062,
      "aakt": 5063,
      "▁kalau": 5064,
      "▁*P": 5065,
      "▁what's": 5066,
      "ys": 5067,
      "▁B:": 5068,
      "ount": 5069,
      "▁sup": 5070,
      "▁7": 5071,
      "▁year": 5072,
      "▁should": 5073,
      "▁masalah": 5074,
      "▁seh": 5075,
      "iver": 5076,
      "aling": 5077,
      "▁may": 5078,
      "▁This": 5079,
      "▁rep": 5080,
      "ederland": 5081,
      "▁nodig": 5082,
      "▁cer": 5083,
      "▁help": 5084,
      "▁reg": 5085,
      "ina": 5086,
      "▁than": 5087,
      "▁here.": 5088,
      "▁Zo": 5089,
      "▁these": 5090,
      "sl": 5091,
      "▁Bukan": 5092,
      "ajar": 5093,
      "able": 5094,
      "▁Am": 5095,
      "▁nou": 5096,
      "▁really": 5097,
      "schien": 5098,
      "▁Siapa": 5099,
      "▁diri": 5100,
      ").": 5101,
      "eter": 5102,
      "▁made": 5103,
      "▁suka": 5104,
      "▁open": 5105,
      "aja": 5106,
      "▁10": 5107,
      "▁keh": 5108,
      "▁ayah": 5109,
      "igh": 5110,
      "woord": 5111,
      "inc": 5112,
      "▁bang": 5113,
      "▁me.": 5114,
      "kannya": 5115,
      "▁Karena": 5116,
      "-1": 5117,
      "▁oud": 5118,
      "rijk": 5119,
      "main": 5120,
      "▁Hal": 5121,
      "▁gebeur": 5122,
      "▁Nederland": 5123,
      "▁lalu": 5124,
      "antu": 5125,
      "ebut": 5126,
      "▁vriend": 5127,
      "way": 5128,
      "ement": 5129,
      "aak": 5130,
      "▁Jij": 5131,
      "▁kind": 5132,
      "▁Par": 5133,
      "▁app": 5134,
      "▁dik": 5135,
      "▁Unt": 5136,
      "▁Sekarang": 5137,
      "idd": 5138,
      "ise": 5139,
      "A:": 5140,
      "▁selalu": 5141,
      "esch": 5142,
      "▁bersama": 5143,
      "▁bef": 5144,
      "ove": 5145,
      "ef": 5146,
      "ail": 5147,
      "▁vrouw": 5148,
      "▁Sam": 5149,
      "▁eigen": 5150,
      "oleh": 5151,
      "▁sebagai": 5152,
      "▁zit": 5153,
      "▁huis": 5154,
      "ving": 5155,
      "awat": 5156,
      "▁(1": 5157,
      "▁zw": 5158,
      "▁ple": 5159,
      "self": 5160,
      "▁you?": 5161,
      "d.": 5162,
      "-b": 5163,
      "▁under": 5164,
      "orr": 5165,
      "▁net": 5166,
      "ukup": 5167,
      "ake": 5168,
      "▁tel": 5169,
      "▁siapa": 5170,
      "i.": 5171,
      "▁kecil": 5172,
      "asil": 5173,
      "caya": 5174,
      "▁So": 5175,
      "▁200": 5176,
      "ussen": 5177,
      "▁Lihat": 5178,
      "▁stop": 5179,
      "ait": 5180,
      "▁went": 5181,
      "▁jangan": 5182,
      "▁beh": 5183,
      "▁ters": 5184,
      "ave": 5185,
      "▁altijd": 5186,
      "▁dua": 5187,
      "▁lama": 5188,
      "▁kunt": 5189,
      "▁bro": 5190,
      "str": 5191,
      "beeld": 5192,
      "▁gu": 5193,
      "▁he's": 5194,
      "▁8": 5195,
      "▁é": 5196,
      "▁toen": 5197,
      "vol": 5198,
      "▁girl": 5199,
      "▁menger": 5200,
      "▁Selamat": 5201,
      "get": 5202,
      "ident": 5203,
      "▁verk": 5204,
      "▁Joh": 5205,
      "▁mengatakan": 5206,
      "ister": 5207,
      "oun": 5208,
      "▁belum": 5209,
      "vel": 5210,
      "▁last": 5211,
      "▁doe": 5212,
      "are": 5213,
      "▁pasti": 5214,
      "▁bagaimana": 5215,
      "omp": 5216,
      "▁Hier": 5217,
      "iga": 5218,
      "▁Bl": 5219,
      "itten": 5220,
      "▁Cl": 5221,
      "ward": 5222,
      "▁talk": 5223,
      "▁ku": 5224,
      "gens": 5225,
      "▁God": 5226,
      "▁atas": 5227,
      "enti": 5228,
      "▁weten": 5229,
      "bij": 5230,
      "▁yes.": 5231,
      "ota": 5232,
      "▁lu": 5233,
      "▁tinggal": 5234,
      "▁oh.": 5235,
      "▁18": 5236,
      "▁okay.": 5237,
      "▁Untuk": 5238,
      "▁één": 5239,
      "▁sebelum": 5240,
      "▁pos": 5241,
      "ones": 5242,
      "idur": 5243,
      "▁onze": 5244,
      "▁aut": 5245,
      "▁\"W": 5246,
      "▁achter": 5247,
      "▁Be": 5248,
      "ila": 5249,
      "atuur": 5250,
      "▁ia": 5251,
      "▁As": 5252,
      "▁keb": 5253,
      "▁that.": 5254,
      "▁kali": 5255,
      "▁ja": 5256,
      "▁des": 5257,
      "▁iemand": 5258,
      "▁Om": 5259,
      "ingin": 5260,
      "▁kr": 5261,
      "iden": 5262,
      "duc": 5263,
      "▁versch": 5264,
      "▁turn": 5265,
      "er,": 5266,
      "▁zeggen": 5267,
      "askan": 5268,
      "oort": 5269,
      "▁three": 5270,
      "ated": 5271,
      "▁read": 5272,
      "uanya": 5273,
      "▁film": 5274,
      "ole": 5275,
      "ins": 5276,
      "▁There": 5277,
      "▁right.": 5278,
      "▁'n": 5279,
      "▁menemukan": 5280,
      "ingga": 5281,
      "arl": 5282,
      "bl": 5283,
      "▁waren": 5284,
      "▁mon": 5285,
      "▁fe": 5286,
      "▁cont": 5287,
      "▁Bel": 5288,
      "edere": 5289,
      "akhir": 5290,
      "▁something": 5291,
      "▁dus": 5292,
      "▁elkaar": 5293,
      "▁geh": 5294,
      "upakan": 5295,
      "▁po": 5296,
      "▁dim": 5297,
      "▁also": 5298,
      "ash": 5299,
      "▁gewoon": 5300,
      "▁dunia": 5301,
      "▁start": 5302,
      "▁wanna": 5303,
      "open": 5304,
      "ulit": 5305,
      "pr": 5306,
      "▁mom": 5307,
      "stand": 5308,
      "▁pres": 5309,
      "▁Af": 5310,
      "▁never": 5311,
      "▁volg": 5312,
      "▁keer": 5313,
      "▁dood": 5314,
      "▁kinder": 5315,
      "anti": 5316,
      "ullen": 5317,
      "oofd": 5318,
      "ie.": 5319,
      "xt": 5320,
      "ijden": 5321,
      "auh": 5322,
      "usia": 5323,
      "▁dil": 5324,
      "▁*PAR": 5325,
      "me": 5326,
      "inden": 5327,
      "▁terlalu": 5328,
      "▁jalan": 5329,
      "▁there's": 5330,
      "▁ask": 5331,
      "ary": 5332,
      "▁laten": 5333,
      "ar.": 5334,
      "▁Mijn": 5335,
      "▁fin": 5336,
      "▁[l": 5337,
      "etje": 5338,
      "▁tek": 5339,
      "▁must": 5340,
      "on.": 5341,
      "ster": 5342,
      "jalan": 5343,
      "▁Ibu": 5344,
      "▁El": 5345,
      "▁ger": 5346,
      "▁merasa": 5347,
      "▁zegt": 5348,
      "ulan": 5349,
      "▁thought": 5350,
      "▁Dr": 5351,
      "▁Goed": 5352,
      "et.": 5353,
      "▁comm": 5354,
      "aam": 5355,
      "att": 5356,
      "ing?": 5357,
      "ahun": 5358,
      "▁those": 5359,
      "ept": 5360,
      "entu": 5361,
      "▁maakt": 5362,
      "▁bertemu": 5363,
      "▁niets": 5364,
      "dy": 5365,
      "ikit": 5366,
      "▁too": 5367,
      "wij": 5368,
      "▁head": 5369,
      "ign": 5370,
      "off": 5371,
      "▁cara": 5372,
      "uran": 5373,
      "▁show": 5374,
      "▁Nam": 5375,
      "▁came": 5376,
      "uru": 5377,
      "▁sen": 5378,
      "▁erg": 5379,
      "▁old": 5380,
      "▁Wil": 5381,
      "▁Juga": 5382,
      "ubuh": 5383,
      "▁padaku": 5384,
      "▁sebuah": 5385,
      "▁new": 5386,
      "▁mulai": 5387,
      "elijke": 5388,
      "nis": 5389,
      "▁Laat": 5390,
      "▁...d": 5391,
      "▁Tr": 5392,
      "▁Ke": 5393,
      "olong": 5394,
      "oeg": 5395,
      "ulah": 5396,
      "▁tangan": 5397,
      "▁Niet": 5398,
      "at.": 5399,
      "▁book": 5400,
      "▁mendengar": 5401,
      "▁bre": 5402,
      "▁teman-teman": 5403,
      "▁through": 5404,
      "ci": 5405,
      "adis": 5406,
      "▁allemaal": 5407,
      "ayang": 5408,
      "▁Wel": 5409,
      "▁leg": 5410,
      "▁bagian": 5411,
      "▁another": 5412,
      "▁res": 5413,
      "▁kepada": 5414,
      "ets": 5415,
      "▁bit": 5416,
      "ekerja": 5417,
      "▁one.": 5418,
      "▁pemb": 5419,
      "tinya": 5420,
      "▁9": 5421,
      "ilih": 5422,
      "▁famil": 5423,
      "ber": 5424,
      "br": 5425,
      "▁moo": 5426,
      "▁find": 5427,
      "▁bus": 5428,
      "▁vast": 5429,
      "▁before": 5430,
      "▁grote": 5431,
      "hat": 5432,
      "▁med": 5433,
      "▁I've": 5434,
      "▁lot": 5435,
      "▁eerste": 5436,
      "veel": 5437,
      "aken": 5438,
      "▁bicara": 5439,
      "uwe": 5440,
      "i,": 5441,
      "▁tra": 5442,
      "▁nee": 5443,
      "▁cepat": 5444,
      "ors": 5445,
      "umu": 5446,
      "uruh": 5447,
      "▁wij": 5448,
      "▁ju": 5449,
      "▁give": 5450,
      "ly.": 5451,
      "▁okay": 5452,
      "▁Sudah": 5453,
      "▁verl": 5454,
      "apt": 5455,
      "▁Met": 5456,
      "▁week": 5457,
      "▁ob": 5458,
      "▁groot": 5459,
      "▁rest": 5460,
      "▁No": 5461,
      "▁Saat": 5462,
      "▁doet": 5463,
      "▁many": 5464,
      "aut": 5465,
      "▁that?": 5466,
      "uiten": 5467,
      "▁still": 5468,
      "▁luar": 5469,
      "▁ked": 5470,
      "omb": 5471,
      "▁plan": 5472,
      "ance": 5473,
      "awab": 5474,
      "▁cukup": 5475,
      "▁minut": 5476,
      "dracht": 5477,
      "▁berg": 5478,
      "▁vader": 5479,
      "▁samen": 5480,
      "▁binnen": 5481,
      "▁krijg": 5482,
      "▁Mungkin": 5483,
      "ott": 5484,
      "sel": 5485,
      "thing": 5486,
      "▁John": 5487,
      "▁tert": 5488,
      "▁berada": 5489,
      "▁inform": 5490,
      "▁Wie": 5491,
      "▁\"A": 5492,
      "▁kwam": 5493,
      "▁sej": 5494,
      "ekt": 5495,
      "▁Kijk": 5496,
      "▁plaat": 5497,
      "urut": 5498,
      "▁great": 5499,
      "apun": 5500,
      "ers.": 5501,
      "ius": 5502,
      "▁ja.": 5503,
      "▁Man": 5504,
      "▁How": 5505,
      "▁membunuh": 5506,
      "▁is.": 5507,
      "ight.": 5508,
      "▁Pro": 5509,
      "▁geld": 5510,
      "▁col": 5511,
      "eil": 5512,
      "▁imp": 5513,
      "▁Don": 5514,
      "▁polit": 5515,
      "▁Kalian": 5516,
      "▁red": 5517,
      "▁why": 5518,
      "▁Baca": 5519,
      "▁wereld": 5520,
      "▁zoals": 5521,
      "eseorang": 5522,
      "▁bad": 5523,
      "IS": 5524,
      "unjuk": 5525,
      "ual": 5526,
      "▁bek": 5527,
      "▁peny": 5528,
      "▁zie": 5529,
      "ory": 5530,
      "▁pria": 5531,
      "▁tetap": 5532,
      "▁thing": 5533,
      "▁Kur": 5534,
      "▁child": 5535,
      "▁setelah": 5536,
      "▁kap": 5537,
      "▁gedaan": 5538,
      "▁kant": 5539,
      "▁New": 5540,
      "▁Tunggu": 5541,
      "ubl": 5542,
      "-h": 5543,
      "▁dip": 5544,
      "▁sat": 5545,
      "ried": 5546,
      "ren": 5547,
      "ubah": 5548,
      "▁melakukannya": 5549,
      "▁'s": 5550,
      "▁Bi": 5551,
      "▁uang": 5552,
      "▁away": 5553,
      "▁sedikit": 5554,
      "▁Juga:": 5555,
      "▁found": 5556,
      "▁spr": 5557,
      "▁eat": 5558,
      "edereen": 5559,
      "ege": 5560,
      "▁tidur": 5561,
      "alen": 5562,
      "▁hati": 5563,
      "▁Bag": 5564,
      "▁semuanya": 5565,
      "oto": 5566,
      "▁bekerja": 5567,
      "iel": 5568,
      "rib": 5569,
      "ijt": 5570,
      "▁drie": 5571,
      "▁hele": 5572,
      "▁bez": 5573,
      "▁kh": 5574,
      "▁Deze": 5575,
      "▁pop": 5576,
      "▁Bar": 5577,
      "ush": 5578,
      "▁Pen": 5579,
      "allen": 5580,
      "▁Tuhan": 5581,
      "▁mean": 5582,
      "ohon": 5583,
      "ester": 5584,
      "ira": 5585,
      "▁pertama": 5586,
      "▁called": 5587,
      "rijf": 5588,
      "as.": 5589,
      "eeds": 5590,
      "yl": 5591,
      "ikut": 5592,
      "ition": 5593,
      "usnya": 5594,
      "▁vinden": 5595,
      "▁jam": 5596,
      "oos": 5597,
      "▁selama": 5598,
      "ork": 5599,
      "ical": 5600,
      "ift": 5601,
      "▁vraag": 5602,
      "▁it,": 5603,
      "▁meninggal": 5604,
      "▁Tuan": 5605,
      "▁All": 5606,
      "ungi": 5607,
      "▁moment": 5608,
      "▁Maj": 5609,
      "▁katakan": 5610,
      "rec": 5611,
      "▁Semua": 5612,
      "▁staan": 5613,
      "▁id": 5614,
      "▁kata": 5615,
      "imb": 5616,
      "▁Kalau": 5617,
      "▁leuk": 5618,
      "van": 5619,
      "▁its": 5620,
      "▁paar": 5621,
      "▁Lalu": 5622,
      "▁Mari": 5623,
      "▁Teman": 5624,
      "ton": 5625,
      "▁Oke": 5626,
      "▁might": 5627,
      "▁wie": 5628,
      "▁ster": 5629,
      "▁mengerti": 5630,
      "arik": 5631,
      "▁Me": 5632,
      "uister": 5633,
      "▁Hanya": 5634,
      "▁biasa": 5635,
      "rop": 5636,
      "ië": 5637,
      "▁ketika": 5638,
      "▁kinderen": 5639,
      "▁15": 5640,
      "▁rel": 5641,
      "▁lig": 5642,
      "▁Ge": 5643,
      "egera": 5644,
      "▁bas": 5645,
      "▁ging": 5646,
      "▁sy": 5647,
      "uduk": 5648,
      "angen": 5649,
      "wan": 5650,
      "▁memper": 5651,
      "▁Oh,": 5652,
      "udian": 5653,
      "ungguh": 5654,
      "kom": 5655,
      "▁hard": 5656,
      "▁uw": 5657,
      "20": 5658,
      "▁diff": 5659,
      "yp": 5660,
      "uda": 5661,
      "▁[laugh": 5662,
      "▁Chr": 5663,
      "▁try": 5664,
      "▁tubuh": 5665,
      "red": 5666,
      "le.": 5667,
      "▁verh": 5668,
      "▁acc": 5669,
      "in.": 5670,
      "),": 5671,
      "▁happen": 5672,
      "▁ah": 5673,
      "▁isn't": 5674,
      "▁Anak": 5675,
      "▁lie": 5676,
      "▁friend": 5677,
      "io": 5678,
      "▁Q": 5679,
      "▁wanita": 5680,
      "▁X": 5681,
      "unc": 5682,
      "▁most": 5683,
      "▁on.": 5684,
      "nya.": 5685,
      "▁baw": 5686,
      "ved": 5687,
      "▁willen": 5688,
      "▁dra": 5689,
      "▁Orang": 5690,
      "▁Mas": 5691,
      "▁Mis": 5692,
      "▁steeds": 5693,
      "aart": 5694,
      "ng": 5695,
      "s].": 5696,
      "utan": 5697,
      "▁para": 5698,
      "orry": 5699,
      "▁around": 5700,
      "▁ten": 5701,
      "▁kur": 5702,
      "▁terus": 5703,
      "enarnya": 5704,
      "▁tussen": 5705,
      "-s": 5706,
      "uhkan": 5707,
      "▁Ser": 5708,
      "al.": 5709,
      "▁Kel": 5710,
      "▁own": 5711,
      "▁nieuwe": 5712,
      "▁omdat": 5713,
      "▁zitten": 5714,
      "ever": 5715,
      "▁bod": 5716,
      "▁pulang": 5717,
      "▁That's": 5718,
      "▁Indones": 5719,
      "▁wilde": 5720,
      "▁kab": 5721,
      "▁Jack": 5722,
      "▁Benar": 5723,
      "▁*E": 5724,
      "▁Kem": 5725,
      "rip": 5726,
      "▁snel": 5727,
      "▁sit": 5728,
      "ula": 5729,
      "▁mengambil": 5730,
      "▁Oké": 5731,
      "▁mencari": 5732,
      "ody": 5733,
      "▁belang": 5734,
      "▁langs": 5735,
      "▁da": 5736,
      "▁kenapa": 5737,
      "▁know.": 5738,
      "▁boleh": 5739,
      "▁zij": 5740,
      "▁feel": 5741,
      "▁padamu": 5742,
      "▁moeder": 5743,
      "▁Weet": 5744,
      "▁Beg": 5745,
      "▁Yeah.": 5746,
      "iteit": 5747,
      "▁Ah": 5748,
      "alt": 5749,
      "▁ped": 5750,
      "▁mendapatkan": 5751,
      "▁jouw": 5752,
      "ulis": 5753,
      "▁Dus": 5754,
      "▁cerita": 5755,
      "ani": 5756,
      "▁Let": 5757,
      "▁*G": 5758,
      "▁what?": 5759,
      "▁...en": 5760,
      "▁Nu": 5761,
      "enting": 5762,
      "▁ey": 5763,
      "uli": 5764,
      "▁terlihat": 5765,
      "vo": 5766,
      "ss": 5767,
      "mp": 5768,
      "▁you,": 5769,
      "▁anders": 5770,
      "▁hoofd": 5771,
      "▁q": 5772,
      "▁bir": 5773,
      "▁vide": 5774,
      "▁him.": 5775,
      "isten": 5776,
      "amer": 5777,
      "▁If": 5778,
      "▁percaya": 5779,
      "vis": 5780,
      "'d": 5781,
      "day": 5782,
      "▁mar": 5783,
      "unn": 5784,
      "▁berpikir": 5785,
      "▁senang": 5786,
      "▁Ket": 5787,
      "▁dem": 5788,
      "▁tanpa": 5789,
      "urun": 5790,
      "▁#": 5791,
      "▁better": 5792,
      "▁disini": 5793,
      "▁dulu": 5794,
      "▁now.": 5795,
      "az": 5796,
      "▁home": 5797,
      "▁Will": 5798,
      "▁hoor": 5799,
      "s?": 5800,
      "ife": 5801,
      "▁minum": 5802,
      "▁stand": 5803,
      "▁setiap": 5804,
      "▁pap": 5805,
      "usan": 5806,
      "▁Do": 5807,
      "▁pend": 5808,
      "▁beter": 5809,
      "▁depan": 5810,
      "uri": 5811,
      "iba": 5812,
      "wh": 5813,
      "anjang": 5814,
      "▁menyel": 5815,
      "▁top": 5816,
      "▁four": 5817,
      "bo": 5818,
      "▁bahkan": 5819,
      "atur": 5820,
      "II": 5821,
      "▁besch": 5822,
      "outh": 5823,
      "▁siap": 5824,
      "▁baby": 5825,
      "usah": 5826,
      "uss": 5827,
      "room": 5828,
      "aksud": 5829,
      "▁uur": 5830,
      "ikel": 5831,
      "▁dacht": 5832,
      "\".": 5833,
      "▁they're": 5834,
      "▁segera": 5835,
      "▁ide": 5836,
      "▁things": 5837,
      "▁Indonesia": 5838,
      "▁such": 5839,
      "▁naam": 5840,
      "son": 5841,
      "▁neg": 5842,
      "▁akhir": 5843,
      "aud": 5844,
      "▁ny": 5845,
      "▁used": 5846,
      "▁moest": 5847,
      "▁Dengan": 5848,
      "ww": 5849,
      "▁Ken": 5850,
      "▁mh": 5851,
      "▁Mengapa": 5852,
      "▁vragen": 5853,
      "▁yakin": 5854,
      "▁later": 5855,
      "▁*S": 5856,
      "ingan": 5857,
      "▁drink": 5858,
      "ampak": 5859,
      "▁ball": 5860,
      "aus": 5861,
      "▁volgende": 5862,
      "asanya": 5863,
      "anggil": 5864,
      "read": 5865,
      "▁erm": 5866,
      "▁being": 5867,
      "entikan": 5868,
      "▁Geef": 5869,
      "uang": 5870,
      "imm": 5871,
      "log": 5872,
      "oten": 5873,
      "kel": 5874,
      "▁pan": 5875,
      "▁Well,": 5876,
      "umber": 5877,
      "▁keep": 5878,
      "▁seseorang": 5879,
      "gg": 5880,
      "▁pint": 5881,
      "ope": 5882,
      "▁Re": 5883,
      "▁Car": 5884,
      "▁Bij": 5885,
      "▁sakit": 5886,
      "angkap": 5887,
      "▁makanan": 5888,
      "▁\"S": 5889,
      "ited": 5890,
      "cent": 5891,
      "▁vrij": 5892,
      "uju": 5893,
      "iemand": 5894,
      "▁ziet": 5895,
      "▁sing": 5896,
      "oss": 5897,
      "▁yg": 5898,
      "▁cour": 5899,
      "▁•": 5900,
      "▁saw": 5901,
      "ta": 5902,
      "▁dengar": 5903,
      "▁spec": 5904,
      "▁Kl": 5905,
      "eth": 5906,
      "▁know,": 5907,
      "ium": 5908,
      "▁kub": 5909,
      "alis": 5910,
      "gelijk": 5911,
      "▁12": 5912,
      "▁wacht": 5913,
      "▁[CHI": 5914,
      "▁mother": 5915,
      "▁love": 5916,
      "▁stud": 5917,
      "lieft": 5918,
      "▁cat": 5919,
      "▁Seperti": 5920,
      "▁Ast": 5921,
      "▁gadis": 5922,
      "▁far": 5923,
      "▁looks": 5924,
      "el.": 5925,
      "▁watch": 5926,
      "▁kop": 5927,
      "▁Tentu": 5928,
      "▁Tahun": 5929,
      "▁manusia": 5930,
      "▁tekst": 5931,
      "▁denganmu": 5932,
      "▁buruk": 5933,
      "▁Van": 5934,
      "uren": 5935,
      "nya,": 5936,
      "XP": 5937,
      "ore.": 5938,
      "▁pes": 5939,
      "▁end": 5940,
      "▁ear": 5941,
      "ator": 5942,
      "▁...m": 5943,
      "aian": 5944,
      "▁shall": 5945,
      "▁house": 5946,
      "▁belangrijk": 5947,
      "▁Hall": 5948,
      "anden": 5949,
      "▁Tolong": 5950,
      "▁Mr.": 5951,
      "rouw": 5952,
      "▁up.": 5953,
      "uff": 5954,
      "▁menggunakan": 5955,
      "▁dar": 5956,
      "▁=": 5957,
      "▁199": 5958,
      "▁doesn't": 5959,
      "ad.": 5960,
      "▁membawa": 5961,
      "▁waarom": 5962,
      "aul": 5963,
      "▁arm": 5964,
      "ces": 5965,
      "▁takut": 5966,
      "▁name": 5967,
      "erm": 5968,
      "ustr": 5969,
      "ange": 5970,
      "▁gemaakt": 5971,
      "oet": 5972,
      "▁\"B": 5973,
      "▁Pas": 5974,
      "ekerj": 5975,
      "▁ist": 5976,
      "▁butuh": 5977,
      "▁sw": 5978,
      "▁art": 5979,
      "ways": 5980,
      "▁room": 5981,
      "rew": 5982,
      "ix": 5983,
      ",'": 5984,
      "▁*EXP": 5985,
      "▁*EXP:": 5986,
      "▁Sc": 5987,
      "▁Hou": 5988,
      "oem": 5989,
      "▁gar": 5990,
      "anger": 5991,
      "oup": 5992,
      "▁Akan": 5993,
      "res": 5994,
      "▁*A": 5995,
      "▁let's": 5996,
      "ince": 5997,
      "ican": 5998,
      "▁night": 5999,
      "▁zeker": 6000,
      "▁meis": 6001,
      "▁cent": 6002,
      "atuurlijk": 6003,
      "▁sil": 6004,
      "ow.": 6005,
      "▁att": 6006,
      "▁bew": 6007,
      "▁Of": 6008,
      "▁[s": 6009,
      "▁Setelah": 6010,
      "▁ent": 6011,
      "▁maks": 6012,
      "▁verm": 6013,
      "▁seg": 6014,
      "RO": 6015,
      "▁agar": 6016,
      "▁Pl": 6017,
      "ames": 6018,
      "▁em": 6019,
      "▁:": 6020,
      "▁seem": 6021,
      "▁menang": 6022,
      "▁kak": 6023,
      "▁meest": 6024,
      "ijkt": 6025,
      "▁dec": 6026,
      "▁wind": 6027,
      "▁itu,": 6028,
      "▁Ed": 6029,
      "vent": 6030,
      "chten": 6031,
      "▁breng": 6032,
      "▁pass": 6033,
      "▁zullen": 6034,
      "▁goede": 6035,
      "ona": 6036,
      "▁par": 6037,
      "▁oor": 6038,
      "▁stra": 6039,
      "▁menyer": 6040,
      "▁form": 6041,
      "▁menik": 6042,
      "▁Misschien": 6043,
      "▁tele": 6044,
      "baar": 6045,
      "▁kar": 6046,
      "▁verb": 6047,
      "▁helemaal": 6048,
      "ieve": 6049,
      "urt": 6050,
      "▁Bagus": 6051,
      "▁co": 6052,
      "▁bedoel": 6053,
      "▁rasa": 6054,
      "am.": 6055,
      "▁memang": 6056,
      "▁Jan": 6057,
      "▁membantu": 6058,
      "▁Ing": 6059,
      "eda": 6060,
      "▁gesch": 6061,
      "▁Eur": 6062,
      "▁next": 6063,
      "▁To": 6064,
      "▁opdracht": 6065,
      "▁mengen": 6066,
      "ouden": 6067,
      "▁\"Y": 6068,
      "olog": 6069,
      "▁Mumm": 6070,
      "▁Put": 6071,
      "▁told": 6072,
      "mas": 6073,
      "▁half": 6074,
      "▁merupakan": 6075,
      "▁left": 6076,
      "▁doing": 6077,
      "▁vl": 6078,
      "▁memp": 6079,
      "entar": 6080,
      "▁wait": 6081,
      "▁gest": 6082,
      "ious": 6083,
      "▁ret": 6084,
      "▁Frank": 6085,
      "engah": 6086,
      "▁Min": 6087,
      "uh.": 6088,
      "▁ting": 6089,
      "▁Namun": 6090,
      "▁liv": 6091,
      "▁dig": 6092,
      "se.": 6093,
      "nie": 6094,
      "▁them.": 6095,
      "▁we're": 6096,
      "▁Astaga": 6097,
      "▁stad": 6098,
      "▁Eng": 6099,
      "ield": 6100,
      "▁\"H": 6101,
      "▁My": 6102,
      "ly,": 6103,
      "ajah": 6104,
      "▁pet": 6105,
      "▁cle": 6106,
      "ph": 6107,
      "aas": 6108,
      "ijs": 6109,
      "ander": 6110,
      "led": 6111,
      "▁Ker": 6112,
      "▁boy": 6113,
      "▁main": 6114,
      "aikan": 6115,
      "ular": 6116,
      "▁secara": 6117,
      "▁mobil": 6118,
      "▁video": 6119,
      "▁thank": 6120,
      "arusnya": 6121,
      "▁Maak": 6122,
      "▁tiba": 6123,
      "on,": 6124,
      "▁ikut": 6125,
      "s]": 6126,
      "▁berhasil": 6127,
      "▁_": 6128,
      "▁gezien": 6129,
      "▁maksud": 6130,
      "gest": 6131,
      "▁wilt": 6132,
      "▁while": 6133,
      "▁hold": 6134,
      "atuh": 6135,
      "uny": 6136,
      "▁maaf": 6137,
      "-l": 6138,
      "▁eerst": 6139,
      "ekerjaan": 6140,
      "▁klaar": 6141,
      "esk": 6142,
      "▁Miss": 6143,
      "▁When": 6144,
      "▁jauh": 6145,
      ".000": 6146,
      "aring": 6147,
      "▁dingen": 6148,
      "▁produc": 6149,
      "▁vis": 6150,
      "▁Kurasa": 6151,
      "▁same": 6152,
      "▁ph": 6153,
      "ukul": 6154,
      "atih": 6155,
      "▁go.": 6156,
      "▁houden": 6157,
      "▁always": 6158,
      "in'": 6159,
      "ped": 6160,
      "ves": 6161,
      "awatir": 6162,
      "ieren": 6163,
      "ley": 6164,
      "agu": 6165,
      "▁paling": 6166,
      "▁Con": 6167,
      "▁Cepat": 6168,
      "▁Ph": 6169,
      "epon": 6170,
      "▁verschill": 6171,
      "▁Dengar": 6172,
      "▁Doe": 6173,
      "▁toe": 6174,
      "▁hot": 6175,
      "▁ut": 6176,
      "▁terakhir": 6177,
      "ahat": 6178,
      "▁bal": 6179,
      "▁Te": 6180,
      "▁buiten": 6181,
      "pun": 6182,
      "enis": 6183,
      "▁tua": 6184,
      "▁int": 6185,
      "▁Kak": 6186,
      "▁in.": 6187,
      "▁dirimu": 6188,
      "h,": 6189,
      "door": 6190,
      "▁geven": 6191,
      "▁krijgen": 6192,
      "ling": 6193,
      "ars": 6194,
      "ah,": 6195,
      "ankt": 6196,
      "▁cinta": 6197,
      "▁[M": 6198,
      "itar": 6199,
      "aden": 6200,
      "geb": 6201,
      "▁won't": 6202,
      "▁ruang": 6203,
      "▁past": 6204,
      "▁ib": 6205,
      "istr": 6206,
      "▁Halo": 6207,
      "▁hit": 6208,
      "▁done": 6209,
      "by": 6210,
      "epen": 6211,
      "▁genoeg": 6212,
      "▁exc": 6213,
      "▁Hey": 6214,
      "▁hat": 6215,
      "▁took": 6216,
      "▁jel": 6217,
      "▁beetje": 6218,
      "eck": 6219,
      "gan": 6220,
      "▁point": 6221,
      "▁eten": 6222,
      "▁vro": 6223,
      "▁tiga": 6224,
      "▁bawah": 6225,
      "▁lief": 6226,
      "jeb": 6227,
      "▁nieuw": 6228,
      "esl": 6229,
      "empuan": 6230,
      "anjut": 6231,
      "▁voel": 6232,
      "arap": 6233,
      "▁penting": 6234,
      "▁kijken": 6235,
      "▁berhenti": 6236,
      "▁near": 6237,
      "▁den": 6238,
      "ters": 6239,
      "▁Mel": 6240,
      "▁mencoba": 6241,
      "▁No,": 6242,
      "▁30": 6243,
      "asar": 6244,
      "itas": 6245,
      "▁cons": 6246,
      "zz": 6247,
      "▁iedereen": 6248,
      "aard": 6249,
      "▁Ne": 6250,
      "ble": 6251,
      "▁lik": 6252,
      "▁Ia": 6253,
      "▁Majalah": 6254,
      "▁Now": 6255,
      "net": 6256,
      "erent": 6257,
      "▁Dad": 6258,
      "▁father": 6259,
      "ainya": 6260,
      "▁else": 6261,
      "edia": 6262,
      "▁Fl": 6263,
      "▁pleas": 6264,
      "ummer": 6265,
      "unjukkan": 6266,
      "amm": 6267,
      "▁she's": 6268,
      "▁Rob": 6269,
      "▁lar": 6270,
      "▁eind": 6271,
      "▁Vol": 6272,
      "ron": 6273,
      "▁person": 6274,
      "utup": 6275,
      "▁Tim": 6276,
      "▁Bisa": 6277,
      "▁zonder": 6278,
      "▁inv": 6279,
      "▁mener": 6280,
      "ower": 6281,
      "▁memberikan": 6282,
      "▁Ook": 6283,
      "▁gila": 6284,
      "▁Mag": 6285,
      "otor": 6286,
      "ampir": 6287,
      "▁Geen": 6288,
      "▁takkan": 6289,
      "▁gewe": 6290,
      "▁auto": 6291,
      "eling": 6292,
      "▁slecht": 6293,
      "▁Ab": 6294,
      "▁gra": 6295,
      "▁penj": 6296,
      "▁Bed": 6297,
      "▁supp": 6298,
      "▁walk": 6299,
      "▁this.": 6300,
      "▁box": 6301,
      "ational": 6302,
      "▁laatste": 6303,
      "▁spijt": 6304,
      "▁niks": 6305,
      "ates": 6306,
      "▁nama": 6307,
      "▁Na": 6308,
      "ject": 6309,
      "▁use": 6310,
      "▁masa": 6311,
      "antai": 6312,
      "uite": 6313,
      "oit": 6314,
      "▁bak": 6315,
      "▁bev": 6316,
      "▁der": 6317,
      "▁belajar": 6318,
      "▁verz": 6319,
      "▁bodoh": 6320,
      "je.": 6321,
      "▁seles": 6322,
      "▁Tw": 6323,
      "▁Nou": 6324,
      "epertinya": 6325,
      "▁though": 6326,
      "aka": 6327,
      "▁ste": 6328,
      "▁17": 6329,
      "▁hingga": 6330,
      "▁Raja": 6331,
      "▁gun": 6332,
      "▁plaats": 6333,
      "▁keku": 6334,
      "icar": 6335,
      "▁mone": 6336,
      "▁pekerjaan": 6337,
      "ider": 6338,
      "itch": 6339,
      "▁sekolah": 6340,
      "▁sir": 6341,
      "▁Ak": 6342,
      "▁probl": 6343,
      "▁five": 6344,
      "▁you've": 6345,
      "ivers": 6346,
      "▁For": 6347,
      "iding": 6348,
      "▁recht": 6349,
      "▁ins": 6350,
      "etten": 6351,
      "ream": 6352,
      "▁Her": 6353,
      "apuan": 6354,
      "werk": 6355,
      "▁out.": 6356,
      "▁perempuan": 6357,
      "anan": 6358,
      "▁enough": 6359,
      "zelfde": 6360,
      "▁Dank": 6361,
      "▁geweest": 6362,
      "▁sub": 6363,
      "▁Maksud": 6364,
      "▁lad": 6365,
      "▁jawab": 6366,
      "▁blijven": 6367,
      "▁Parapuan": 6368,
      "ice.": 6369,
      "dr": 6370,
      "ukt": 6371,
      "ON": 6372,
      "ument": 6373,
      "▁sure": 6374,
      "ollow": 6375,
      "schap": 6376,
      "▁11": 6377,
      "aad": 6378,
      "ouwen": 6379,
      "▁verder": 6380,
      "li": 6381,
      "▁May": 6382,
      "▁foto": 6383,
      "abis": 6384,
      "▁stuk": 6385,
      "▁ang": 6386,
      "▁this?": 6387,
      "▁minta": 6388,
      "▁gre": 6389,
      "▁doll": 6390,
      "▁jongen": 6391,
      "▁ingat": 6392,
      "ire": 6393,
      "cer": 6394,
      "▁helpen": 6395,
      "eerde": 6396,
      "▁Then": 6397,
      "50": 6398,
      "▁Ag": 6399,
      "▁hadden": 6400,
      "▁praten": 6401,
      "▁kemudian": 6402,
      "ged": 6403,
      "con": 6404,
      "zo": 6405,
      "▁buat": 6406,
      "▁dog": 6407,
      "▁Pet": 6408,
      "▁pagi": 6409,
      "ses": 6410,
      "eert": 6411,
      "▁misschien": 6412,
      "▁Ger": 6413,
      "▁vlie": 6414,
      "ween": 6415,
      "min": 6416,
      "irim": 6417,
      "▁tre": 6418,
      "▁lap": 6419,
      "asaan": 6420,
      "itahu": 6421,
      "▁mimp": 6422,
      "▁wist": 6423,
      "▁morn": 6424,
      "▁until": 6425,
      "▁Mem": 6426,
      "▁mudah": 6427,
      "▁pot": 6428,
      "aag": 6429,
      "ekken": 6430,
      "antik": 6431,
      "orth": 6432,
      "▁idee": 6433,
      "▁Bu": 6434,
      "▁hebat": 6435,
      "▁16": 6436,
      "▁del": 6437,
      "▁Yeah,": 6438,
      "▁fun": 6439,
      "ders": 6440,
      "▁You're": 6441,
      "ional": 6442,
      "▁dur": 6443,
      "▁Ex": 6444,
      "ola": 6445,
      "▁Can": 6446,
      "▁vier": 6447,
      "▁mhm.": 6448,
      "▁terbaik": 6449,
      "aur": 6450,
      "▁me,": 6451,
      "ode": 6452,
      "▁coun": 6453,
      "▁kuat": 6454,
      "▁deel": 6455,
      "▁Tom": 6456,
      "anmu": 6457,
      "▁mata": 6458,
      "ulp": 6459,
      "urkan": 6460,
      "▁198": 6461,
      "▁Wacht": 6462,
      "▁world": 6463,
      "iter": 6464,
      "etty": 6465,
      "▁vaak": 6466,
      "rok": 6467,
      "▁care": 6468,
      "▁kul": 6469,
      "aham": 6470,
      "▁contr": 6471,
      "▁202": 6472,
      "▁graag": 6473,
      "▁aant": 6474,
      "▁bis": 6475,
      "oman": 6476,
      "ayar": 6477,
      "EL": 6478,
      "?'": 6479,
      "rect": 6480,
      "▁small": 6481,
      "▁place": 6482,
      "enangkan": 6483,
      "▁pick": 6484,
      "▁ibu": 6485,
      "ids": 6486,
      "▁pie": 6487,
      "▁sayang": 6488,
      "----": 6489,
      "▁huh": 6490,
      "lex": 6491,
      "-p": 6492,
      "ijna": 6493,
      "▁untukmu": 6494,
      "andaag": 6495,
      "▁Sayang": 6496,
      "arn": 6497,
      "▁bermain": 6498,
      "▁kill": 6499,
      "▁band": 6500,
      "egd": 6501,
      "▁Was": 6502,
      "▁kal": 6503,
      "ers,": 6504,
      "▁meninggalkan": 6505,
      "▁ass": 6506,
      "▁houd": 6507,
      "▁kleine": 6508,
      "▁Jullie": 6509,
      "▁\"O": 6510,
      "▁woorden": 6511,
      "▁Hallo": 6512,
      "▁lainnya": 6513,
      "▁pur": 6514,
      "tiv": 6515,
      "▁neem": 6516,
      "▁*PAR:": 6517,
      "▁Satu": 6518,
      "▁sebenarnya": 6519,
      "embak": 6520,
      "▁round": 6521,
      "▁Sorry": 6522,
      "▁verg": 6523,
      "▁ie": 6524,
      "arti": 6525,
      "▁rond": 6526,
      "▁Zijn": 6527,
      "▁Kan": 6528,
      "y's": 6529,
      "▁high": 6530,
      "▁quite": 6531,
      "▁second": 6532,
      "ahaya": 6533,
      "▁Pol": 6534,
      "ar,": 6535,
      "ots": 6536,
      "ness": 6537,
      "uil": 6538,
      "ilangan": 6539,
      "▁maj": 6540,
      "reek": 6541,
      "auw": 6542,
      "▁mov": 6543,
      "▁look.": 6544,
      "▁verw": 6545,
      "apai": 6546,
      "▁memberi": 6547,
      "enda": 6548,
      "▁Char": 6549,
      "sa": 6550,
      "▁tadi": 6551,
      "▁[laughs].": 6552,
      "▁sk": 6553,
      "▁anything": 6554,
      "▁different": 6555,
      "apen": 6556,
      "ugas": 6557,
      "or.": 6558,
      "▁seluruh": 6559,
      "▁Tn": 6560,
      "mm": 6561,
      "erk": 6562,
      "▁known": 6563,
      "eri": 6564,
      "▁terh": 6565,
      "▁nice": 6566,
      "egeven": 6567,
      "omme": 6568,
      "▁gep": 6569,
      "jar": 6570,
      "▁[MOT": 6571,
      "▁few": 6572,
      "its": 6573,
      "▁berjalan": 6574,
      "▁khawatir": 6575,
      "▁aang": 6576,
      "\",": 6577,
      "▁sleep": 6578,
      "▁Alle": 6579,
      "▁remember": 6580,
      "▁fell": 6581,
      "gether": 6582,
      "▁boven": 6583,
      "▁thuis": 6584,
      "▁together": 6585,
      "ows": 6586,
      "▁Hel": 6587,
      "▁boek": 6588,
      "▁det": 6589,
      "▁wonder": 6590,
      "▁years": 6591,
      "ender": 6592,
      "▁sound": 6593,
      "ia.": 6594,
      "▁terd": 6595,
      "▁gener": 6596,
      "gerak": 6597,
      "ross": 6598,
      "umi": 6599,
      "▁beste": 6600,
      "ouch": 6601,
      "▁goes": 6602,
      "AL": 6603,
      "▁verschillende": 6604,
      "▁werden": 6605,
      "uma": 6606,
      "▁duduk": 6607,
      "▁young": 6608,
      "▁Ayolah": 6609,
      "▁Not": 6610,
      "▁both": 6611,
      "ukk": 6612,
      "▁kat": 6613,
      "angun": 6614,
      "elling": 6615,
      "ebab": 6616,
      "▁York": 6617,
      "▁\"N": 6618,
      "▁Just": 6619,
      "▁keluarga": 6620,
      "ingk": 6621,
      "▁bulan": 6622,
      "▁Toen": 6623,
      "ime": 6624,
      "▁menunggu": 6625,
      "▁apakah": 6626,
      "▁kuc": 6627,
      "amen": 6628,
      "▁looking": 6629,
      "ingat": 6630,
      "▁Hai": 6631,
      "▁du": 6632,
      "▁Kun": 6633,
      "▁dilakukan": 6634,
      "▁laugh": 6635,
      "erg": 6636,
      "▁langsung": 6637,
      "▁Go": 6638,
      "▁nanti": 6639,
      "eph": 6640,
      "▁dri": 6641,
      "jeblieft": 6642,
      "ijdens": 6643,
      "▁0": 6644,
      "▁seen": 6645,
      "amatkan": 6646,
      "▁each": 6647,
      "ty": 6648,
      "▁ooit": 6649,
      "▁mind": 6650,
      "jing": 6651,
      "▁Jul": 6652,
      "▁antwoord": 6653,
      "▁disc": 6654,
      "▁dok": 6655,
      "▁Bobo": 6656,
      "▁geweld": 6657,
      "▁selesai": 6658,
      "▁keras": 6659,
      "▁exp": 6660,
      "▁yes": 6661,
      "lo": 6662,
      "▁that,": 6663,
      "ation.": 6664,
      "▁Come": 6665,
      "angi": 6666,
      "▁present": 6667,
      "▁haven": 6668,
      "▁plac": 6669,
      "acam": 6670,
      "▁anda": 6671,
      "▁run": 6672,
      "▁zorgen": 6673,
      "▁seharusnya": 6674,
      "▁miss": 6675,
      "▁welke": 6676,
      "▁juist": 6677,
      "▁diper": 6678,
      "▁hear": 6679,
      "alkan": 6680,
      "-m": 6681,
      "▁berj": 6682,
      "inya.": 6683,
      "▁suc": 6684,
      "ilan": 6685,
      "▁Art": 6686,
      "▁sent": 6687,
      "▁[p": 6688,
      "▁stay": 6689,
      "ion.": 6690,
      "▁bat": 6691,
      "▁\"M": 6692,
      "ihkan": 6693,
      "▁Thom": 6694,
      "▁hen": 6695,
      "▁kehilangan": 6696,
      "▁heard": 6697,
      "▁Peng": 6698,
      "▁char": 6699,
      "▁tol": 6700,
      "ven.": 6701,
      "▁klein": 6702,
      "▁tinggi": 6703,
      "▁deed": 6704,
      "▁dekat": 6705,
      "▁milik": 6706,
      "▁organ": 6707,
      "gram": 6708,
      "val": 6709,
      "ban": 6710,
      "akang": 6711,
      "CH:": 6712,
      "▁lijkt": 6713,
      "▁kota": 6714,
      "▁Don't": 6715,
      "▁Who": 6716,
      "ekker": 6717,
      "rijp": 6718,
      "leg": 6719,
      "▁cut": 6720,
      "▁between": 6721,
      "▁Tet": 6722,
      "werp": 6723,
      "jak": 6724,
      "▁prof": 6725,
      "elde": 6726,
      "▁geeft": 6727,
      "▁tepat": 6728,
      "▁time.": 6729,
      "▁hom": 6730,
      "▁Duit": 6731,
      "▁leave": 6732,
      "▁where's": 6733,
      "▁mooi": 6734,
      "▁light": 6735,
      "▁By": 6736,
      "▁197": 6737,
      "▁foot": 6738,
      "▁heet": 6739,
      "▁sering": 6740,
      "▁rust": 6741,
      "▁Ketika": 6742,
      "▁getting": 6743,
      "arr": 6744,
      "▁again.": 6745,
      "▁14": 6746,
      "▁sekitar": 6747,
      "ee.": 6748,
      "▁real": 6749,
      "▁tetapi": 6750,
      "▁follow": 6751,
      "OR": 6752,
      "eak": 6753,
      "▁himself": 6754,
      "▁nya": 6755,
      "▁padanya": 6756,
      "▁upon": 6757,
      "▁fig": 6758,
      "ocht": 6759,
      "▁Su": 6760,
      "▁menit": 6761,
      "rab": 6762,
      "ald": 6763,
      "▁maka": 6764,
      "▁jatuh": 6765,
      "▁berdua": 6766,
      "▁13": 6767,
      "aald": 6768,
      "▁sebentar": 6769,
      "▁publ": 6770,
      "▁1.": 6771,
      "▁without": 6772,
      "▁Thank": 6773,
      "▁Amerika": 6774,
      "▁vertr": 6775,
      "▁sulit": 6776,
      "▁manier": 6777,
      "ball": 6778,
      "▁*SIS": 6779,
      "▁zag": 6780,
      "▁es": 6781,
      "zoek": 6782,
      "-k": 6783,
      "▁Gel": 6784,
      "▁Christ": 6785,
      "▁tersebut": 6786,
      "▁100": 6787,
      "woorden": 6788,
      "▁train": 6789,
      "▁we'll": 6790,
      "▁Hé": 6791,
      "▁team": 6792,
      "enen": 6793,
      "'n": 6794,
      "onnen": 6795,
      "▁berbicara": 6796,
      "the": 6797,
      "uman": 6798,
      "▁temp": 6799,
      "une": 6800,
      "▁Over": 6801,
      "▁melihatnya": 6802,
      "angkat": 6803,
      "▁im": 6804,
      "▁there?": 6805,
      "▁anim": 6806,
      "▁suatu": 6807,
      "▁bijna": 6808,
      "▁woord": 6809,
      "▁lay": 6810,
      "▁pict": 6811,
      "▁offic": 6812,
      "▁berkata": 6813,
      "▁vertellen": 6814,
      "tif": 6815,
      "▁ligt": 6816,
      "▁menikah": 6817,
      "▁informatie": 6818,
      "AS": 6819,
      "uurt": 6820,
      "▁dad": 6821,
      "▁Mat": 6822,
      "▁mencapai": 6823,
      "ines": 6824,
      "▁asked": 6825,
      "▁Uh": 6826,
      "ations": 6827,
      "▁resp": 6828,
      "▁Dari": 6829,
      "▁Wij": 6830,
      "rijven": 6831,
      "▁sal": 6832,
      "nyata": 6833,
      "▁haft": 6834,
      "▁says": 6835,
      "▁six": 6836,
      "▁ref": 6837,
      "▁kut": 6838,
      "▁hoog": 6839,
      "▁perm": 6840,
      "▁heen": 6841,
      "▁aard": 6842,
      "▁jum": 6843,
      "▁meisje": 6844,
      "was": 6845,
      "▁happ": 6846,
      "▁aneh": 6847,
      "en't": 6848,
      "▁laut": 6849,
      "▁coming": 6850,
      "▁norm": 6851,
      "▁uh,": 6852,
      "▁elke": 6853,
      "▁\"The": 6854,
      "ret": 6855,
      "ies.": 6856,
      "DA": 6857,
      "▁*GM": 6858,
      "▁niemand": 6859,
      "▁eng": 6860,
      "▁Pres": 6861,
      "inter": 6862,
      "aps": 6863,
      "▁down.": 6864,
      "▁meneer": 6865,
      "intah": 6866,
      "ikk": 6867,
      "ipp": 6868,
      "akes": 6869,
      "asakan": 6870,
      "ries": 6871,
      "ahui": 6872,
      "▁krijgt": 6873,
      "fect": 6874,
      "▁hor": 6875,
      "▁Atau": 6876,
      "▁Sampai": 6877,
      "▁hafta": 6878,
      "rat": 6879,
      "▁Berh": 6880,
      "le,": 6881,
      "ica": 6882,
      "▁gelijk": 6883,
      "▁av": 6884,
      "▁looked": 6885,
      "ambut": 6886,
      "▁hoop": 6887,
      "▁berubah": 6888,
      "▁gesp": 6889,
      "▁Kap": 6890,
      "▁dokter": 6891,
      "▁apapun": 6892,
      "▁cantik": 6893,
      "avond": 6894,
      "▁\"D": 6895,
      "lang": 6896,
      "eeuw": 6897,
      "alaman": 6898,
      "urg": 6899,
      "▁pay": 6900,
      "▁United": 6901,
      "orp": 6902,
      "▁bung": 6903,
      "▁'c": 6904,
      "▁nothing": 6905,
      "▁bant": 6906,
      "▁plant": 6907,
      "▁Zeg": 6908,
      "ished": 6909,
      "ips": 6910,
      "iarkan": 6911,
      "▁...k": 6912,
      "▁*GMA:": 6913,
      "▁Dav": 6914,
      "▁American": 6915,
      "adang": 6916,
      "▁having": 6917,
      "emuanya": 6918,
      "dag": 6919,
      "▁Hari": 6920,
      "▁Jer": 6921,
      "▁vijf": 6922,
      "▁menyuk": 6923,
      "1:": 6924,
      "▁pra": 6925,
      "▁pat": 6926,
      "uskan": 6927,
      "▁kej": 6928,
      "▁kup": 6929,
      "▁mens": 6930,
      "▁number": 6931,
      "▁Ny": 6932,
      "ions": 6933,
      "▁angg": 6934,
      "arak": 6935,
      "ence": 6936,
      "ooi": 6937,
      "zicht": 6938,
      "▁[m": 6939,
      "▁Bedankt": 6940,
      "▁Ac": 6941,
      "▁is,": 6942,
      "▁verhaal": 6943,
      "ax": 6944,
      "▁sungguh": 6945,
      "▁memer": 6946,
      "▁klas": 6947,
      "▁Yah": 6948,
      "▁kamer": 6949,
      "inds": 6950,
      "anji": 6951,
      "id.": 6952,
      "▁Pert": 6953,
      "OU": 6954,
      "▁menarik": 6955,
      "▁peduli": 6956,
      "ony": 6957,
      "antung": 6958,
      "▁her.": 6959,
      "waar": 6960,
      "▁midd": 6961,
      "▁besl": 6962,
      "▁live": 6963,
      "ING": 6964,
      "▁bertanya": 6965,
      "▁heart": 6966,
      "▁Gen": 6967,
      "▁gave": 6968,
      "▁break": 6969,
      "inggu": 6970,
      "▁los": 6971,
      "DU": 6972,
      "voorbeeld": 6973,
      "▁kedua": 6974,
      "ape": 6975,
      "▁Bahkan": 6976,
      "al,": 6977,
      "clud": 6978,
      "agia": 6979,
      "▁dih": 6980,
      "ekk": 6981,
      "▁pri": 6982,
      "▁Bobo.": 6983,
      "oint": 6984,
      "▁Semuanya": 6985,
      "▁good.": 6986,
      "yn": 6987,
      "▁Bers": 6988,
      "▁baj": 6989,
      "▁antara": 6990,
      "▁lucht": 6991,
      "▁Why": 6992,
      "▁course": 6993,
      "▁ans": 6994,
      "▁Memb": 6995,
      "▁terp": 6996,
      "▁kekuatan": 6997,
      "FF": 6998,
      "ah.": 6999,
      "▁punt": 7000,
      "▁*C": 7001,
      "ni": 7002,
      "▁knew": 7003,
      "▁god": 7004,
      "▁gone": 7005,
      "▁sla": 7006,
      "▁along": 7007,
      "▁speel": 7008,
      "▁belakang": 7009,
      "olf": 7010,
      "▁nemen": 7011,
      "▁grond": 7012,
      "▁vandaag": 7013,
      "▁196": 7014,
      "▁act": 7015,
      "tern": 7016,
      "▁op.": 7017,
      "▁enige": 7018,
      "▁sort": 7019,
      "apkan": 7020,
      "▁Zij": 7021,
      "ine.": 7022,
      "▁Pada": 7023,
      "▁50": 7024,
      "▁haven't": 7025,
      "▁fall": 7026,
      "esta": 7027,
      "esar": 7028,
      "▁No.": 7029,
      "iam": 7030,
      "▁mark": 7031,
      "▁actu": 7032,
      "▁vindt": 7033,
      "ox": 7034,
      "▁mul": 7035,
      "▁Dalam": 7036,
      "▁buah": 7037,
      "pada": 7038,
      "angga": 7039,
      "▁berbeda": 7040,
      "▁swe": 7041,
      "▁kepad": 7042,
      "epaskan": 7043,
      "anku": 7044,
      "▁tampak": 7045,
      "most": 7046,
      "▁too.": 7047,
      "▁suara": 7048,
      "▁oper": 7049,
      "akai": 7050,
      "▁bergerak": 7051,
      "unch": 7052,
      "▁Wik": 7053,
      "▁mogelijk": 7054,
      "ide.": 7055,
      "ertain": 7056,
      "▁Tot": 7057,
      "▁soort": 7058,
      "▁negara": 7059,
      "▁him,": 7060,
      "onton": 7061,
      "▁zijn.": 7062,
      "ason": 7063,
      "▁THE": 7064,
      "▁Qu": 7065,
      "▁zat": 7066,
      "▁Mich": 7067,
      "ay,": 7068,
      "▁werken": 7069,
      "▁said,": 7070,
      "▁fant": 7071,
      "▁def": 7072,
      "ambat": 7073,
      "▁Aan": 7074,
      "▁life": 7075,
      "▁ton": 7076,
      "▁bersam": 7077,
      "wat": 7078,
      "embuny": 7079,
      "▁mannen": 7080,
      "urr": 7081,
      "▁darah": 7082,
      "▁zelfs": 7083,
      "▁maak": 7084,
      "ser": 7085,
      "angkan": 7086,
      "ably": 7087,
      "▁betek": 7088,
      "▁Kr": 7089,
      "oul": 7090,
      "▁hart": 7091,
      "▁2.": 7092,
      "▁fav": 7093,
      "▁conf": 7094,
      "oven": 7095,
      "▁wanted": 7096,
      "▁pre": 7097,
      "▁against": 7098,
      "▁les": 7099,
      "kl": 7100,
      "▁wajah": 7101,
      "▁Sl": 7102,
      "▁Ho": 7103,
      "▁*B": 7104,
      "ijken": 7105,
      "yat": 7106,
      "▁diam": 7107,
      "▁ev": 7108,
      "▁zouden": 7109,
      "▁Sn": 7110,
      "utuhkan": 7111,
      "komen": 7112,
      "▁membel": 7113,
      "▁ini,": 7114,
      "engk": 7115,
      "igd": 7116,
      "su": 7117,
      "▁soon": 7118,
      "▁terima": 7119,
      "alnya": 7120,
      "body": 7121,
      "erah": 7122,
      "ikt": 7123,
      "▁buku": 7124,
      "▁bay": 7125,
      "ikirkan": 7126,
      "▁mur": 7127,
      "▁he?": 7128,
      "▁hour": 7129,
      "▁situ": 7130,
      "▁leer": 7131,
      "arat": 7132,
      "et,": 7133,
      "ran": 7134,
      "▁*SIS:": 7135,
      "in,": 7136,
      "▁ayo": 7137,
      "icarakan": 7138,
      "▁Laten": 7139,
      "▁vorm": 7140,
      "▁Alles": 7141,
      "▁kamar": 7142,
      "ahas": 7143,
      "▁ed": 7144,
      "▁stem": 7145,
      "uni": 7146,
      "▁ext": 7147,
      "arm": 7148,
      "▁His": 7149,
      "▁Mus": 7150,
      "eta": 7151,
      "idupan": 7152,
      "empatan": 7153,
      "▁soc": 7154,
      "▁mod": 7155,
      "▁Bukankah": 7156,
      "ieten": 7157,
      "▁kabar": 7158,
      "is.": 7159,
      "ang.": 7160,
      "▁jaren": 7161,
      "▁membaw": 7162,
      "▁...dan": 7163,
      "!'": 7164,
      "ha": 7165,
      "▁verand": 7166,
      "▁horen": 7167,
      "▁Dis": 7168,
      "▁eff": 7169,
      "▁Da": 7170,
      "▁ogen": 7171,
      "▁Katakan": 7172,
      "▁denken": 7173,
      "▁Som": 7174,
      "▁194": 7175,
      "▁vroeg": 7176,
      "ner": 7177,
      "▁jongens": 7178,
      "▁direct": 7179,
      "▁Sial": 7180,
      "▁memas": 7181,
      "▁dicht": 7182,
      "▁me?": 7183,
      "▁sign": 7184,
      "▁soal": 7185,
      "▁lat": 7186,
      "rijd": 7187,
      "▁Denk": 7188,
      "▁Leg": 7189,
      "▁lem": 7190,
      "▁vlieg": 7191,
      "▁lov": 7192,
      "▁loop": 7193,
      ".'": 7194,
      "▁oude": 7195,
      "▁count": 7196,
      "▁bank": 7197,
      "▁reach": 7198,
      "gaan": 7199,
      "ieden": 7200,
      "ril": 7201,
      "▁barang": 7202,
      "iew": 7203,
      "gem": 7204,
      "▁perh": 7205,
      "▁Bis": 7206,
      "ede": 7207,
      "atian": 7208,
      "▁naik": 7209,
      "▁Sen": 7210,
      "▁Franc": 7211,
      "usaha": 7212,
      "▁Selain": 7213,
      "▁Stop": 7214,
      "▁table": 7215,
      "▁I'd": 7216,
      "▁besok": 7217,
      "▁black": 7218,
      "▁and,": 7219,
      "ei": 7220,
      "iger": 7221,
      "▁meet": 7222,
      "▁bep": 7223,
      "▁making": 7224,
      "▁'I": 7225,
      "▁*FATHER:": 7226,
      "▁berc": 7227,
      "▁Hy": 7228,
      "▁huh?": 7229,
      "▁Peter": 7230,
      "▁Mc": 7231,
      "mee": 7232,
      "▁'cause": 7233,
      "▁prot": 7234,
      "▁One": 7235,
      "▁aantal": 7236,
      "▁inst": 7237,
      "▁gebruikt": 7238,
      "▁bring": 7239,
      "▁Yes,": 7240,
      "▁oorlog": 7241,
      "ahari": 7242,
      "▁Comm": 7243,
      "encana": 7244,
      "▁on,": 7245,
      "▁hell": 7246,
      "▁hers": 7247,
      "▁itu.": 7248,
      "egang": 7249,
      "olo": 7250,
      "▁matter": 7251,
      "▁morgen": 7252,
      "▁ander": 7253,
      "AR:": 7254,
      "▁dagen": 7255,
      "▁inf": 7256,
      "▁Menurut": 7257,
      "▁once": 7258,
      "▁bloed": 7259,
      "▁food": 7260,
      "opt": 7261,
      "▁laki": 7262,
      "▁zoon": 7263,
      "▁letter": 7264,
      "▁hampir": 7265,
      "▁post": 7266,
      "adaan": 7267,
      "-d": 7268,
      "at,": 7269,
      "-c": 7270,
      "▁nacht": 7271,
      "▁wasn't": 7272,
      "▁fac": 7273,
      "▁II": 7274,
      "▁dol": 7275,
      "▁cir": 7276,
      "▁Maksudku": 7277,
      "▁Joe": 7278,
      "vers": 7279,
      "▁ulang": 7280,
      "▁vond": 7281,
      "▁minder": 7282,
      "us.": 7283,
      "▁keber": 7284,
      "as,": 7285,
      "osed": 7286,
      "▁*ADU": 7287,
      "▁anjing": 7288,
      "▁prec": 7289,
      "inner": 7290,
      "iksa": 7291,
      "ziek": 7292,
      "alikan": 7293,
      "▁tunggu": 7294,
      "▁menya": 7295,
      "▁kol": 7296,
      "ney": 7297,
      "▁Where": 7298,
      "ared": 7299,
      "wel": 7300,
      "▁popul": 7301,
      "▁return": 7302,
      "▁side": 7303,
      "▁sejak": 7304,
      "▁familie": 7305,
      "▁pul": 7306,
      "bed": 7307,
      "▁samp": 7308,
      "▁Luc": 7309,
      "▁Schrijf": 7310,
      "▁song": 7311,
      "sten": 7312,
      "▁Kep": 7313,
      "um.": 7314,
      "▁believe": 7315,
      "▁expl": 7316,
      "ia,": 7317,
      "▁Door": 7318,
      "▁che": 7319,
      "▁...t": 7320,
      "uld": 7321,
      "▁sold": 7322,
      "▁marah": 7323,
      "▁geleden": 7324,
      "▁Sil": 7325,
      "▁menel": 7326,
      "▁...h": 7327,
      "▁kamp": 7328,
      "▁mengapa": 7329,
      "▁houdt": 7330,
      "▁akhirnya": 7331,
      "it.": 7332,
      "▁\\": 7333,
      "▁eigenlijk": 7334,
      "▁gebeurt": 7335,
      "▁25": 7336,
      "▁[c": 7337,
      "▁teken": 7338,
      "▁Good": 7339,
      "▁do.": 7340,
      "▁indah": 7341,
      "▁denganku": 7342,
      "▁camp": 7343,
      "▁Are": 7344,
      "▁onge": 7345,
      "▁Paul": 7346,
      "▁Mau": 7347,
      "▁alr": 7348,
      "ating": 7349,
      "▁actually": 7350,
      "▁geef": 7351,
      "▁simp": 7352,
      "▁sad": 7353,
      "▁Welke": 7354,
      "▁la": 7355,
      "▁kre": 7356,
      "▁tolong": 7357,
      "▁Nog": 7358,
      "▁jenis": 7359,
      "▁penuh": 7360,
      "▁berarti": 7361,
      "▁eyes": 7362,
      "▁eh": 7363,
      "uncul": 7364,
      "▁Keluar": 7365,
      "▁He's": 7366,
      "uary": 7367,
      "▁memilih": 7368,
      "▁din": 7369,
      "▁ikan": 7370,
      "▁Em": 7371,
      "aint": 7372,
      "▁talking": 7373,
      "itie": 7374,
      "▁Tan": 7375,
      "amin": 7376,
      "ats": 7377,
      "▁perjalan": 7378,
      "▁gebeurd": 7379,
      "ebr": 7380,
      "▁hair": 7381,
      "ible": 7382,
      "▁Makan": 7383,
      "▁town": 7384,
      "▁born": 7385,
      "oke": 7386,
      "▁tu": 7387,
      "▁Maafkan": 7388,
      "idden": 7389,
      "▁Kon": 7390,
      "▁keg": 7391,
      "ommy": 7392,
      "aknya": 7393,
      "ahuan": 7394,
      "▁ee": 7395,
      "▁pant": 7396,
      "ually": 7397,
      "▁countr": 7398,
      "k.": 7399,
      "▁gezegd": 7400,
      "alahkan": 7401,
      "jata": 7402,
      "ily": 7403,
      "roken": 7404,
      "▁zin": 7405,
      "▁dist": 7406,
      "▁ek": 7407,
      "▁menuju": 7408,
      "▁veil": 7409,
      "▁cup": 7410,
      "▁kaki": 7411,
      "▁thir": 7412,
      "▁betekent": 7413,
      "roduc": 7414,
      "ën": 7415,
      "▁vak": 7416,
      "ura": 7417,
      "▁muda": 7418,
      "▁hub": 7419,
      "▁kesempatan": 7420,
      "▁bos": 7421,
      "adap": 7422,
      "▁satunya": 7423,
      "anggung": 7424,
      "▁tit": 7425,
      "▁zon": 7426,
      "▁mama": 7427,
      "▁bangun": 7428,
      "▁includ": 7429,
      "▁Alex": 7430,
      "▁meminta": 7431,
      "▁ris": 7432,
      "▁berusaha": 7433,
      "▁commun": 7434,
      "▁CHI": 7435,
      "▁zorg": 7436,
      "isah": 7437,
      "▁quest": 7438,
      "▁maybe": 7439,
      "▁face": 7440,
      "▁job": 7441,
      "▁Col": 7442,
      "▁licht": 7443,
      "▁bantuan": 7444,
      "▁pu": 7445,
      "▁menurut": 7446,
      "▁saud": 7447,
      "aris": 7448,
      "▁whole": 7449,
      "▁moeil": 7450,
      "▁chair": 7451,
      "▁moeilijk": 7452,
      "cus": 7453,
      "▁became": 7454,
      "▁pretty": 7455,
      "▁floor": 7456,
      "▁ontst": 7457,
      "▁natuurlijk": 7458,
      "▁Ang": 7459,
      "ak.": 7460,
      "ative": 7461,
      "▁halen": 7462,
      "▁Pel": 7463,
      "��": 7464,
      "▁King": 7465,
      "▁Sed": 7466,
      "▁'D": 7467,
      "▁'W": 7468,
      "▁pilih": 7469,
      "▁color": 7470,
      "▁sebelumnya": 7471,
      "inde": 7472,
      "oga": 7473,
      "▁lupa": 7474,
      "-f": 7475,
      "erta": 7476,
      "intang": 7477,
      "▁prov": 7478,
      "▁kemari": 7479,
      "ongeng": 7480,
      "IT": 7481,
      "bank": 7482,
      "▁contin": 7483,
      "▁pull": 7484,
      "▁denkt": 7485,
      "uidelijk": 7486,
      "▁Sepertinya": 7487,
      "aught": 7488,
      "▁berakhir": 7489,
      "▁gehe": 7490,
      "▁Dimana": 7491,
      "▁answer": 7492,
      "▁adv": 7493,
      "▁well.": 7494,
      "zin": 7495,
      "▁compl": 7496,
      "▁fact": 7497,
      "▁kepala": 7498,
      "▁ontm": 7499,
      "▁almost": 7500,
      "▁zoek": 7501,
      "▁happened": 7502,
      "rag": 7503,
      "▁interest": 7504,
      "aanse": 7505,
      "▁gevonden": 7506,
      "▁Luister": 7507,
      "veer": 7508,
      "▁ding": 7509,
      "osong": 7510,
      "▁Mrs.": 7511,
      "▁begin": 7512,
      "abel": 7513,
      "ient": 7514,
      "una": 7515,
      "▁kost": 7516,
      "kelijk": 7517,
      "▁ot": 7518,
      "▁milj": 7519,
      "▁Omdat": 7520,
      "aptain": 7521,
      "▁hond": 7522,
      "▁niet.": 7523,
      "alami": 7524,
      "▁geg": 7525,
      "▁geloof": 7526,
      "▁Pergi": 7527,
      "▁ambil": 7528,
      "ju": 7529,
      "▁Lebih": 7530,
      "gilah": 7531,
      "angka": 7532,
      "▁Sy": 7533,
      "igheid": 7534,
      "▁Hol": 7535,
      "ie,": 7536,
      "▁dengannya": 7537,
      "▁Menjadi": 7538,
      "▁alasan": 7539,
      "▁persoon": 7540,
      "▁Air": 7541,
      "▁proble": 7542,
      "▁raja": 7543,
      "▁no,": 7544,
      "▁oth": 7545,
      "alanya": 7546,
      "▁since": 7547,
      "▁inc": 7548,
      "lijke": 7549,
      "▁menyelamatkan": 7550,
      "esten": 7551,
      "▁ud": 7552,
      "ess.": 7553,
      "▁Pe": 7554,
      "▁Mart": 7555,
      "akkan": 7556,
      "▁itulah": 7557,
      "▁groep": 7558,
      "▁understand": 7559,
      "▁membiarkan": 7560,
      "▁turun": 7561,
      "▁stor": 7562,
      "▁cari": 7563,
      "▁Sangat": 7564,
      "▁Mesk": 7565,
      "▁wed": 7566,
      "▁kehidupan": 7567,
      "||": 7568,
      "▁kapal": 7569,
      "▁lekker": 7570,
      "▁hewan": 7571,
      "UN": 7572,
      "▁then.": 7573,
      "▁3.": 7574,
      "ler": 7575,
      "▁radi": 7576,
      "▁menangkap": 7577,
      "▁plek": 7578,
      "impin": 7579,
      "orge": 7580,
      "▁we've": 7581,
      "▁Ha": 7582,
      "izen": 7583,
      "▁Neem": 7584,
      "▁Gu": 7585,
      "▁dic": 7586,
      "▁trying": 7587,
      "▁started": 7588,
      "ager": 7589,
      "houd": 7590,
      "▁putih": 7591,
      "arch": 7592,
      "age.": 7593,
      "▁kil": 7594,
      "▁semakin": 7595,
      "less": 7596,
      "▁kucing": 7597,
      "▁money": 7598,
      "▁wouldn't": 7599,
      "▁Lees": 7600,
      "uct": 7601,
      "▁poss": 7602,
      "▁penc": 7603,
      "raak": 7604,
      "▁children": 7605,
      "▁zi": 7606,
      "▁spelen": 7607,
      "▁ve": 7608,
      "▁brand": 7609,
      "▁wrong": 7610,
      "▁Did": 7611,
      "▁kent": 7612,
      "▁order": 7613,
      "▁here?": 7614,
      "faat": 7615,
      "▁move": 7616,
      "▁tuj": 7617,
      "▁ur": 7618,
      "▁back.": 7619,
      "▁sehingga": 7620,
      "etahui": 7621,
      "▁hands": 7622,
      "ene": 7623,
      "slag": 7624,
      "S:": 7625,
      "▁gi": 7626,
      "---": 7627,
      "▁probleem": 7628,
      "▁bern": 7629,
      "aan.": 7630,
      "enty": 7631,
      "▁toward": 7632,
      "ity.": 7633,
      "rap": 7634,
      "▁hilang": 7635,
      "▁tijdens": 7636,
      "cle": 7637,
      "▁Yes.": 7638,
      "▁off.": 7639,
      "▁alread": 7640,
      "▁rock": 7641,
      "▁berm": 7642,
      "▁neer": 7643,
      "▁bestaat": 7644,
      "1.": 7645,
      "▁zet": 7646,
      "▁typ": 7647,
      "▁city": 7648,
      "▁soms": 7649,
      "▁Ste": 7650,
      "▁Itulah": 7651,
      "RO:": 7652,
      "▁lost": 7653,
      "itah": 7654,
      "▁Mon": 7655,
      "ow,": 7656,
      "▁jelas": 7657,
      "▁build": 7658,
      "▁terk": 7659,
      "entara": 7660,
      "▁eeuw": 7661,
      "▁membuatku": 7662,
      "▁poor": 7663,
      "▁ner": 7664,
      "▁prom": 7665,
      "▁memanggil": 7666,
      "ities": 7667,
      "▁began": 7668,
      "-A": 7669,
      "ampu": 7670,
      "ibat": 7671,
      "▁speak": 7672,
      "▁reden": 7673,
      "▁cap": 7674,
      "▁Sm": 7675,
      "▁24": 7676,
      "▁kans": 7677,
      "lish": 7678,
      "▁vrienden": 7679,
      "▁Japan": 7680,
      "▁Mama": 7681,
      "▁bijvoorbeeld": 7682,
      "▁Mo": 7683,
      "ebabkan": 7684,
      "▁tanah": 7685,
      "▁dij": 7686,
      "ight,": 7687,
      "▁hang": 7688,
      "ired": 7689,
      "▁Gl": 7690,
      "vern": 7691,
      "sk": 7692,
      "uter": 7693,
      "▁blijft": 7694,
      "▁Look": 7695,
      "▁tentu": 7696,
      "▁muncul": 7697,
      "▁spel": 7698,
      "zak": 7699,
      "▁menyenangkan": 7700,
      "I:": 7701,
      "onya": 7702,
      "▁warm": 7703,
      "▁died": 7704,
      "▁front": 7705,
      "▁nom": 7706,
      "wijl": 7707,
      "aiknya": 7708,
      "imes": 7709,
      "▁rot": 7710,
      "▁cuma": 7711,
      "▁berapa": 7712,
      "ancurkan": 7713,
      "▁52": 7714,
      "▁Teman-teman": 7715,
      "▁ruim": 7716,
      "▁schat": 7717,
      "▁president": 7718,
      "where": 7719,
      "deel": 7720,
      "▁beb": 7721,
      "ced": 7722,
      "▁War": 7723,
      "▁*BRO:": 7724,
      "asp": 7725,
      "bel": 7726,
      "▁hè": 7727,
      "▁oke": 7728,
      "▁pintu": 7729,
      "▁hm": 7730,
      "▁begrijp": 7731,
      "t,": 7732,
      "▁quick": 7733,
      "▁full": 7734,
      "▁during": 7735,
      "▁favor": 7736,
      "enek": 7737,
      "▁Echt": 7738,
      "▁lif": 7739,
      "sc": 7740,
      "▁druk": 7741,
      "iness": 7742,
      "AT:": 7743,
      "▁selamat": 7744,
      "LO": 7745,
      "ased": 7746,
      "▁----": 7747,
      "eks": 7748,
      "▁Afr": 7749,
      "▁daripada": 7750,
      "▁gebruiken": 7751,
      "▁mengirim": 7752,
      "www": 7753,
      "▁luister": 7754,
      "esh": 7755,
      "▁coba": 7756,
      "▁loc": 7757,
      "alui": 7758,
      "▁melawan": 7759,
      "rog": 7760,
      "ison": 7761,
      "▁right?": 7762,
      "▁Cr": 7763,
      "oran": 7764,
      "▁way.": 7765,
      "▁super": 7766,
      "▁see.": 7767,
      "auti": 7768,
      "▁stick": 7769,
      "▁nak": 7770,
      "ane": 7771,
      "▁woon": 7772,
      "▁who's": 7773,
      "▁Mad": 7774,
      "▁bawa": 7775,
      "▁aman": 7776,
      "▁mengel": 7777,
      "ande": 7778,
      "▁\"You": 7779,
      "▁music": 7780,
      "▁group": 7781,
      "upp": 7782,
      "aim": 7783,
      "ce.": 7784,
      "▁add": 7785,
      "▁kuk": 7786,
      "side": 7787,
      "▁bekend": 7788,
      "2.": 7789,
      "▁gig": 7790,
      "▁Bisakah": 7791,
      "▁special": 7792,
      "▁Berapa": 7793,
      "▁park": 7794,
      "▁draw": 7795,
      "▁Phil": 7796,
      "▁Zie": 7797,
      "istor": 7798,
      "▁link": 7799,
      "▁vre": 7800,
      "▁pijn": 7801,
      "▁cook": 7802,
      "▁What's": 7803,
      "▁sorr": 7804,
      "▁cel": 7805,
      "ulkan": 7806,
      "▁problem": 7807,
      "ties": 7808,
      "▁yuk": 7809,
      "▁onderzoek": 7810,
      "▁right,": 7811,
      "▁Belajar": 7812,
      "▁deur": 7813,
      "ep.": 7814,
      "▁gotta": 7815,
      "▁Pers": 7816,
      "▁Jo": 7817,
      "▁lich": 7818,
      "or,": 7819,
      "eid": 7820,
      "vl": 7821,
      "▁okay?": 7822,
      "▁comes": 7823,
      "▁menerima": 7824,
      "▁jo": 7825,
      "▁panas": 7826,
      "▁Kat": 7827,
      "▁terken": 7828,
      "▁kek": 7829,
      "amanya": 7830,
      "▁drop": 7831,
      "▁$": 7832,
      "▁sun": 7833,
      "▁Geb": 7834,
      "▁minuten": 7835,
      "▁behind": 7836,
      "▁gegeven": 7837,
      "agian": 7838,
      "ures": 7839,
      "weg": 7840,
      "▁polisi": 7841,
      "ship": 7842,
      "▁*PAR1:": 7843,
      "oes": 7844,
      "AM": 7845,
      "etahuan": 7846,
      "▁white": 7847,
      "▁played": 7848,
      "tah": 7849,
      "▁sebab": 7850,
      "▁Artikel": 7851,
      "▁David": 7852,
      "▁mand": 7853,
      "▁Meny": 7854,
      "▁hulp": 7855,
      "▁werkt": 7856,
      "empur": 7857,
      "▁Biarkan": 7858,
      "▁Rep": 7859,
      "angnya": 7860,
      "▁ble": 7861,
      "▁one?": 7862,
      "abb": 7863,
      "▁burung": 7864,
      "▁geweldig": 7865,
      "▁held": 7866,
      "▁dimana": 7867,
      "ether": 7868,
      "▁do?": 7869,
      "▁you'll": 7870,
      "▁memakai": 7871,
      "▁hund": 7872,
      "▁rak": 7873,
      "cc": 7874,
      "▁kawan": 7875,
      "▁kerja": 7876,
      "▁import": 7877,
      "▁After": 7878,
      "▁game": 7879,
      "▁close": 7880,
      "erb": 7881,
      "▁tumb": 7882,
      "▁brought": 7883,
      "ukkig": 7884,
      "▁berlangg": 7885,
      "▁\"Th": 7886,
      "▁yell": 7887,
      "▁eruit": 7888,
      "▁fish": 7889,
      "▁kosong": 7890,
      "iep": 7891,
      "'.": 7892,
      "▁Pat": 7893,
      "▁chang": 7894,
      "aksi": 7895,
      "▁membant": 7896,
      "ital": 7897,
      "▁opg": 7898,
      "ingkat": 7899,
      "tive": 7900,
      "▁kreeg": 7901,
      "▁Brit": 7902,
      "▁ziek": 7903,
      "nam": 7904,
      "▁sang": 7905,
      "▁boys": 7906,
      "ajaran": 7907,
      "foon": 7908,
      "ijst": 7909,
      "▁pohon": 7910,
      "▁Bah": 7911,
      "raf": 7912,
      "ambah": 7913,
      "▁sus": 7914,
      "▁membutuhkan": 7915,
      "▁Pem": 7916,
      "com": 7917,
      "▁acara": 7918,
      "ino": 7919,
      "▁[n": 7920,
      "▁berikut": 7921,
      "▁bahagia": 7922,
      "▁mes": 7923,
      "▁short": 7924,
      "▁Berhenti": 7925,
      "▁here,": 7926,
      "ific": 7927,
      "ying": 7928,
      "▁appear": 7929,
      "▁mengikut": 7930,
      "▁*N": 7931,
      "▁makes": 7932,
      "key": 7933,
      "30": 7934,
      "▁leren": 7935,
      "bum": 7936,
      "▁koning": 7937,
      "▁tom": 7938,
      "gev": 7939,
      "iling": 7940,
      "▁Bermain": 7941,
      "▁Sir": 7942,
      "heen": 7943,
      "uth": 7944,
      "oom": 7945,
      "one.": 7946,
      "very": 7947,
      "itting": 7948,
      "▁Stap": 7949,
      "▁'H": 7950,
      "ijnen": 7951,
      "▁probably": 7952,
      "EA:": 7953,
      "jur": 7954,
      "▁stuff": 7955,
      "▁aren't": 7956,
      "kus": 7957,
      "▁Alleen": 7958,
      "▁now,": 7959,
      "▁...s": 7960,
      "ko": 7961,
      "▁biarkan": 7962,
      "stof": 7963,
      "▁diriku": 7964,
      "▁certain": 7965,
      "▁Ir": 7966,
      "▁dah": 7967,
      "T:": 7968,
      "ection": 7969,
      "mat": 7970,
      "teri": 7971,
      "▁oké": 7972,
      "▁perjalanan": 7973,
      "▁mengaj": 7974,
      "▁stat": 7975,
      "▁taken": 7976,
      "▁them,": 7977,
      "▁Blijf": 7978,
      "▁Dem": 7979,
      "▁sud": 7980,
      "iff": 7981,
      "irian": 7982,
      "-an": 7983,
      "▁yuk!": 7984,
      "orden": 7985,
      "anyakan": 7986,
      "▁hoort": 7987,
      "▁memberitah": 7988,
      "▁bott": 7989,
      "▁*TEA:": 7990,
      "▁noise": 7991,
      "arkah": 7992,
      "▁vers": 7993,
      "land.": 7994,
      "▁mouth": 7995,
      "alisasi": 7996,
      "▁month": 7997,
      "▁Kh": 7998,
      "ukum": 7999,
      "ilt": 8000,
      "raz": 8001,
      "▁Ulang": 8002,
      "▁program": 8003,
      "▁hoeveel": 8004,
      "▁voet": 8005,
      "▁kort": 8006,
      "ohong": 8007,
      "▁Uit": 8008,
      "▁turned": 8009,
      "▁Mul": 8010,
      "reven": 8011,
      "▁trans": 8012,
      "ucu": 8013,
      "▁worden.": 8014,
      "ter.": 8015,
      "▁teg": 8016,
      "▁cover": 8017,
      "▁Duits": 8018,
      "ages": 8019,
      "huis": 8020,
      "▁gesl": 8021,
      "▁grot": 8022,
      "igde": 8023,
      "▁Sur": 8024,
      "▁zom": 8025,
      "alahan": 8026,
      "cess": 8027,
      "irkan": 8028,
      "▁Russ": 8029,
      "▁menulis": 8030,
      "▁bron": 8031,
      "▁roll": 8032,
      "▁wachten": 8033,
      "▁George": 8034,
      "▁today": 8035,
      "▁inginkan": 8036,
      "▁tenang": 8037,
      "yang": 8038,
      "▁rele": 8039,
      "▁et": 8040,
      "AP": 8041,
      "▁away.": 8042,
      "neer": 8043,
      "▁Str": 8044,
      "▁playing": 8045,
      "benar": 8046,
      "usak": 8047,
      "rek": 8048,
      "▁dieren": 8049,
      "rit": 8050,
      "▁With": 8051,
      "▁menunjukkan": 8052,
      "enten": 8053,
      "umohon": 8054,
      "▁everything": 8055,
      "▁lo": 8056,
      "▁eas": 8057,
      "▁Onder": 8058,
      "aruh": 8059,
      "▁onderwerp": 8060,
      "▁seemed": 8061,
      "zij": 8062,
      "ober": 8063,
      "▁West": 8064,
      "▁ontw": 8065,
      "▁Bon": 8066,
      "▁kelas": 8067,
      "▁Mark": 8068,
      "▁duidelijk": 8069,
      "▁death": 8070,
      "▁hon": 8071,
      "▁kas": 8072,
      "▁bud": 8073,
      "▁Benarkah": 8074,
      "co": 8075,
      "ring": 8076,
      "ipt": 8077,
      "encan": 8078,
      "▁Nona": 8079,
      "▁please": 8080,
      "2:": 8081,
      "ench": 8082,
      "stem": 8083,
      "anneer": 8084,
      "▁demi": 8085,
      "am,": 8086,
      "ajaan": 8087,
      "▁jezelf": 8088,
      "▁Hentikan": 8089,
      "autiful": 8090,
      "▁noem": 8091,
      "angs": 8092,
      "▁wanneer": 8093,
      "▁landen": 8094,
      "▁meter": 8095,
      "▁emp": 8096,
      "illy": 8097,
      "let": 8098,
      "▁Den": 8099,
      "anten": 8100,
      "▁alsof": 8101,
      "▁sambil": 8102,
      "▁mengalami": 8103,
      "▁precies": 8104,
      "▁Thomas": 8105,
      "go": 8106,
      "▁mencint": 8107,
      "opp": 8108,
      "▁hundred": 8109,
      "▁\"C": 8110,
      "luk": 8111,
      "zer": 8112,
      "▁istr": 8113,
      "▁often": 8114,
      "zien": 8115,
      "▁\"P": 8116,
      "▁pengetahuan": 8117,
      "sy": 8118,
      "abung": 8119,
      "▁pertanya": 8120,
      "▁Harry": 8121,
      "▁Hen": 8122,
      "▁blue": 8123,
      "▁senjata": 8124,
      "ither": 8125,
      "▁tweed": 8126,
      "▁lagu": 8127,
      "midd": 8128,
      "anse": 8129,
      "▁brother": 8130,
      "▁arr": 8131,
      "▁Mal": 8132,
      "▁bot": 8133,
      "▁able": 8134,
      "▁digunakan": 8135,
      "▁}": 8136,
      "▁gezicht": 8137,
      "▁doing?": 8138,
      "band": 8139,
      "▁Sungguh": 8140,
      "ering": 8141,
      "▁web": 8142,
      "▁Park": 8143,
      "es].": 8144,
      "u.": 8145,
      "▁hol": 8146,
      "▁Max": 8147,
      "▁gehad": 8148,
      "▁tuan": 8149,
      "▁Rome": 8150,
      "▁members": 8151,
      "conom": 8152,
      "ern": 8153,
      "▁(b": 8154,
      "▁Perm": 8155,
      "▁Kar": 8156,
      "▁serv": 8157,
      "▁40": 8158,
      "▁Verd": 8159,
      "▁kulit": 8160,
      "▁eight": 8161,
      "▁memut": 8162,
      "▁echte": 8163,
      "us,": 8164,
      "▁time,": 8165,
      "egeri": 8166,
      "arde": 8167,
      "ugust": 8168,
      "ekom": 8169,
      "▁serius": 8170,
      "▁ir": 8171,
      "▁195": 8172,
      "-benar": 8173,
      "m,": 8174,
      "ress": 8175,
      "▁Begitu": 8176,
      "▁telepon": 8177,
      "ektr": 8178,
      "isti": 8179,
      "ion,": 8180,
      "▁berdiri": 8181,
      "el,": 8182,
      "▁*MCH:": 8183,
      "▁lab": 8184,
      "▁Lou": 8185,
      "▁Veel": 8186,
      "▁Yes": 8187,
      "▁man.": 8188,
      "▁Grand": 8189,
      "▁yet": 8190,
      "▁perasaan": 8191,
      "▁bahasa": 8192,
      "▁vrouwen": 8193,
      "▁Ib": 8194,
      "ined": 8195,
      "▁dingin": 8196,
      "▁Sw": 8197,
      "▁paham": 8198,
      "otong": 8199,
      "▁there,": 8200,
      "▁James": 8201,
      "▁learn": 8202,
      "▁yourself": 8203,
      "▁miljoen": 8204,
      "ics": 8205,
      ",000": 8206,
      "▁zoeken": 8207,
      "▁ready": 8208,
      "▁couldn't": 8209,
      "acau": 8210,
      "▁melew": 8211,
      "▁tanya": 8212,
      "▁Wor": 8213,
      "not": 8214,
      "yak": 8215,
      "indungi": 8216,
      "▁lima": 8217,
      "▁menge": 8218,
      "ks": 8219,
      "edi": 8220,
      "inig": 8221,
      "▁wish": 8222,
      "▁Austr": 8223,
      "▁Natuurlijk": 8224,
      "▁kaart": 8225,
      "ever,": 8226,
      "chn": 8227,
      "▁mir": 8228,
      "▁Some": 8229,
      "▁arah": 8230,
      "▁Bobo.id": 8231,
      "▁tas": 8232,
      "is,": 8233,
      "▁pand": 8234,
      "itakan": 8235,
      "▁Meer": 8236,
      "▁Daarom": 8237,
      "▁Para": 8238,
      "▁21": 8239,
      "▁hog": 8240,
      "ka": 8241,
      "▁melalui": 8242,
      "▁record": 8243,
      "▁stond": 8244,
      "▁pac": 8245,
      "▁Eer": 8246,
      "▁Sup": 8247,
      "▁verlie": 8248,
      "▁touch": 8249,
      "▁already": 8250,
      "▁Setiap": 8251,
      "ram": 8252,
      "▁maksudmu": 8253,
      "▁putr": 8254,
      "▁tengah": 8255,
      "▁please.": 8256,
      "▁ra": 8257,
      "ford": 8258,
      "▁maken.": 8259,
      "▁nois": 8260,
      "▁Wanneer": 8261,
      "▁till": 8262,
      "▁Bek": 8263,
      "olen": 8264,
      "verd": 8265,
      "▁Tahun,": 8266,
      "▁berikan": 8267,
      "▁mimpinya.": 8268,
      "ikahan": 8269,
      "▁Kim": 8270,
      "zaam": 8271,
      "▁2020": 8272,
      "alif": 8273,
      "ected": 8274,
      "▁Bobo!": 8275,
      "reg": 8276,
      "▁aktu": 8277,
      "▁sister": 8278,
      "AN:": 8279,
      "▁Dag": 8280,
      "▁kracht": 8281,
      "▁Your": 8282,
      "▁Kemb": 8283,
      "ikat": 8284,
      "3.": 8285,
      "▁was.": 8286,
      "▁fire": 8287,
      "▁lok": 8288,
      "ieke": 8289,
      "▁menemu": 8290,
      "▁lichaam": 8291,
      "▁amb": 8292,
      "▁dollar": 8293,
      "ation,": 8294,
      "ree": 8295,
      "UR": 8296,
      "▁zoveel": 8297,
      "▁Dua": 8298,
      "▁English": 8299,
      "antwoord": 8300,
      "▁Carl": 8301,
      "▁schr": 8302,
      "▁aktualisasi": 8303,
      "angkah": 8304,
      "▁sand": 8305,
      "hatikan": 8306,
      "schijn": 8307,
      "▁guess": 8308,
      "▁means": 8309,
      "▁menjaga": 8310,
      "▁log": 8311,
      "▁rac": 8312,
      "ori": 8313,
      "ised": 8314,
      "▁opp": 8315,
      "▁Diam": 8316,
      "▁law": 8317,
      "▁mooie": 8318,
      "▁green": 8319,
      "▁mengur": 8320,
      "tje": 8321,
      "ided": 8322,
      "ipun": 8323,
      "▁kulakukan": 8324,
      "▁extra": 8325,
      "▁Sebenarnya": 8326,
      "usi": 8327,
      "▁sol": 8328,
      "▁merasakan": 8329,
      "war": 8330,
      "hing.": 8331,
      "akar": 8332,
      "aties": 8333,
      "▁Che": 8334,
      "▁rob": 8335,
      "▁gag": 8336,
      "▁gevaar": 8337,
      "▁Volgens": 8338,
      "▁merah": 8339,
      "ule": 8340,
      "inal": 8341,
      "▁Let's": 8342,
      "ant.": 8343,
      "▁Daddy": 8344,
      "▁fout": 8345,
      "▁less": 8346,
      "▁brief": 8347,
      "▁Bur": 8348,
      "▁rol": 8349,
      "▁are.": 8350,
      "▁Kup": 8351,
      "▁disebut": 8352,
      "▁uit.": 8353,
      "▁Hell": 8354,
      "▁dark": 8355,
      "▁papa": 8356,
      "▁berharap": 8357,
      "▁berbagai": 8358,
      "▁beautiful": 8359,
      "angku": 8360,
      "▁enak": 8361,
      "▁Cara": 8362,
      "▁son": 8363,
      "▁test": 8364,
      "▁vooral": 8365,
      "ore,": 8366,
      "que": 8367,
      "ante": 8368,
      "▁gas": 8369,
      "▁afbeeld": 8370,
      "▁⠙": 8371,
      "ae": 8372,
      "▁Bet": 8373,
      "▁well,": 8374,
      "ergi": 8375,
      "▁area": 8376,
      "▁grand": 8377,
      "▁(19": 8378,
      "▁Seh": 8379,
      "ot.": 8380,
      "arian": 8381,
      "▁adik": 8382,
      "▁Iedereen": 8383,
      "▁water.": 8384,
      "▁terbang": 8385,
      "▁Univers": 8386,
      "▁disana": 8387,
      "▁muziek": 8388,
      "▁now?": 8389,
      "▁door.": 8390,
      "▁panjang": 8391,
      "▁\"It": 8392,
      "heden": 8393,
      "▁term": 8394,
      "▁wants": 8395,
      "▁nieuws": 8396,
      "▁saling": 8397,
      "urch": 8398,
      "▁empat": 8399,
      "▁awal": 8400,
      "▁myself": 8401,
      "▁menangis": 8402,
      "▁hope": 8403,
      "▁Red": 8404,
      "▁IN": 8405,
      "▁Entah": 8406,
      "▁taking": 8407,
      "▁ill": 8408,
      "ig.": 8409,
      "▁macht": 8410,
      "▁keren": 8411,
      "alik": 8412,
      "▁surat": 8413,
      "▁School": 8414,
      "▁tugas": 8415,
      "▁daarna": 8416,
      "▁beginnen": 8417,
      "▁Amerik": 8418,
      "▁perang": 8419,
      "▁Nederlandse": 8420,
      "▁alsjeblieft": 8421,
      "▁rather": 8422,
      "▁\"L": 8423,
      "▁jump": 8424,
      "▁tweede": 8425,
      "▁ongeveer": 8426,
      "▁ouders": 8427,
      "▁\"K": 8428,
      "▁an'": 8429,
      "inger": 8430,
      "▁...b": 8431,
      "▁sendirian": 8432,
      "isan": 8433,
      "urs": 8434,
      "untung": 8435,
      "iko": 8436,
      "ahl": 8437,
      "▁[f": 8438,
      "▁4.": 8439,
      "hi": 8440,
      "▁Get": 8441,
      "▁pil": 8442,
      "▁mad": 8443,
      "▁pakaian": 8444,
      "AK": 8445,
      "ury": 8446,
      "e.\"": 8447,
      "▁batu": 8448,
      "▁Biar": 8449,
      "▁bertahan": 8450,
      "▁orde": 8451,
      "▁membuatnya": 8452,
      "oub": 8453,
      "▁dam": 8454,
      "▁OK": 8455,
      "▁api": 8456,
      "ico": 8457,
      ".]": 8458,
      "impan": 8459,
      "▁up,": 8460,
      "▁{": 8461,
      "▁&": 8462,
      "▁beri": 8463,
      "▁brengen": 8464,
      "▁Jam": 8465,
      "▁biasanya": 8466,
      "▁Masuk": 8467,
      "EM": 8468,
      "iging": 8469,
      "▁sug": 8470,
      "▁tamp": 8471,
      "ela": 8472,
      "veral": 8473,
      "▁tien": 8474,
      "▁Banyak": 8475,
      "▁musim": 8476,
      "▁Kennis": 8477,
      "▁feest": 8478,
      "ple": 8479,
      "▁Gro": 8480,
      "uke": 8481,
      "▁genoem": 8482,
      "▁'Ik": 8483,
      "▁There's": 8484,
      "▁teach": 8485,
      "▁bird": 8486,
      "▁house.": 8487,
      "▁listen": 8488,
      "▁felt": 8489,
      "▁Bert": 8490,
      "▁Bab": 8491,
      "udi": 8492,
      "▁step": 8493,
      "▁keadaan": 8494,
      "▁trad": 8495,
      "jut": 8496,
      "▁hors": 8497,
      "▁acht": 8498,
      "ants": 8499,
      "▁Zet": 8500,
      "igg": 8501,
      "▁benar-benar": 8502,
      "▁untukku": 8503,
      "▁saying": 8504,
      "anding": 8505,
      "iny": 8506,
      "▁aand": 8507,
      "uhi": 8508,
      "▁Putri": 8509,
      "▁strong": 8510,
      "▁Lee": 8511,
      "do": 8512,
      "arin": 8513,
      "▁mach": 8514,
      "ungai": 8515,
      "▁MOT": 8516,
      "▁val": 8517,
      "▁bintang": 8518,
      "▁politie": 8519,
      "▁Wakt": 8520,
      "▁story": 8521,
      "akken": 8522,
      "▁ring": 8523,
      "▁days": 8524,
      "▁Keb": 8525,
      "ora": 8526,
      "arung": 8527,
      "day.": 8528,
      "▁meteen": 8529,
      "anggu": 8530,
      "king": 8531,
      "▁avond": 8532,
      "▁Hey,": 8533,
      "▁TV": 8534,
      "empurna": 8535,
      "▁*NAN:": 8536,
      "za": 8537,
      "▁oef": 8538,
      "ente": 8539,
      "▁pelajaran": 8540,
      "adiah": 8541,
      "sol": 8542,
      "▁prop": 8543,
      "▁cold": 8544,
      "ED": 8545,
      "▁televis": 8546,
      "▁Vert": 8547,
      "vrouw": 8548,
      "lucht": 8549,
      "▁elektr": 8550,
      "▁Kemudian": 8551,
      "▁Gebruik": 8552,
      "▁Ros": 8553,
      "▁grootste": 8554,
      "iting": 8555,
      "▁rambut": 8556,
      "▁wak": 8557,
      "sn": 8558,
      "▁kok": 8559,
      "ouble": 8560,
      "plaat": 8561,
      "▁AN": 8562,
      "enn": 8563,
      "ral": 8564,
      "▁bor": 8565,
      "▁mogen": 8566,
      "▁handen": 8567,
      "▁menak": 8568,
      "▁Salah": 8569,
      "▁\"Wh": 8570,
      "▁berat": 8571,
      "▁jumpa": 8572,
      "asi,": 8573,
      "▁dear": 8574,
      "lin": 8575,
      "▁terhadap": 8576,
      "▁Ked": 8577,
      "▁Here": 8578,
      "ahasia": 8579,
      "▁Charlie": 8580,
      "▁What?": 8581,
      "S.": 8582,
      "entuk": 8583,
      "▁lemb": 8584,
      "▁bahan": 8585,
      "ast.": 8586,
      "▁beras": 8587,
      "▁Ku": 8588,
      "ained": 8589,
      "▁cloth": 8590,
      "artment": 8591,
      "▁birth": 8592,
      "alang": 8593,
      "▁Rich": 8594,
      "ilder": 8595,
      "▁energ": 8596,
      "▁Harus": 8597,
      "ujan": 8598,
      "▁coll": 8599,
      "▁Jos": 8600,
      "4)": 8601,
      "▁...,": 8602,
      "▁Stat": 8603,
      "▁verwacht": 8604,
      "▁minggu": 8605,
      "iaal": 8606,
      "bare": 8607,
      "▁mill": 8608,
      "▁~": 8609,
      "ema": 8610,
      "▁gevoel": 8611,
      "aged": 8612,
      "atal": 8613,
      "▁clos": 8614,
      "kh": 8615,
      "irahat": 8616,
      "▁hop": 8617,
      "kele": 8618,
      "▁uitleg": 8619,
      "▁occ": 8620,
      "ihir": 8621,
      "▁Sang": 8622,
      "▁govern": 8623,
      "▁kakak": 8624,
      "▁Wow": 8625,
      "anch": 8626,
      "▁Nak": 8627,
      "▁gehoord": 8628,
      "▁1,": 8629,
      "▁saf": 8630,
      "▁morning": 8631,
      "▁Nah,": 8632,
      "▁hurt": 8633,
      "▁lid": 8634,
      "▁ho": 8635,
      "▁oh,": 8636,
      "▁Semoga": 8637,
      "▁Mil": 8638,
      "▁mengenal": 8639,
      "ocok": 8640,
      "▁fair": 8641,
      "▁...dat": 8642,
      "ap.": 8643,
      "▁dirinya": 8644,
      "▁'em": 8645,
      "▁Micha": 8646,
      "▁schrij": 8647,
      "▁World": 8648,
      "line": 8649,
      "▁perb": 8650,
      "isme": 8651,
      "opa": 8652,
      "▁begint": 8653,
      "zet": 8654,
      "▁large": 8655,
      "ards": 8656,
      "▁hid": 8657,
      "▁Beeld": 8658,
      "▁Nov": 8659,
      "▁given": 8660,
      "▁mater": 8661,
      "ell,": 8662,
      "unning": 8663,
      "▁lib": 8664,
      "▁mm.": 8665,
      "istem": 8666,
      "den.": 8667,
      "▁stre": 8668,
      "▁telefoon": 8669,
      "▁hetzelfde": 8670,
      "iment": 8671,
      "▁ergens": 8672,
      "▁terlambat": 8673,
      "▁mari": 8674,
      "▁Mary": 8675,
      "▁I,": 8676,
      "ecause": 8677,
      "▁nummer": 8678,
      "-M": 8679,
      "▁Tel": 8680,
      "▁Bill": 8681,
      "▁[t": 8682,
      "▁zodat": 8683,
      "▁piece": 8684,
      "▁buk": 8685,
      "▁giv": 8686,
      "▁vanavond": 8687,
      "▁club": 8688,
      "▁wou": 8689,
      "▁bra": 8690,
      "abat": 8691,
      "▁dress": 8692,
      "▁meeste": 8693,
      "indelijk": 8694,
      "▁mister": 8695,
      "▁Heel": 8696,
      "ambar": 8697,
      "▁aan.": 8698,
      "▁lopen": 8699,
      "ardon": 8700,
      "▁hutan": 8701,
      "ouse": 8702,
      "▁uitg": 8703,
      "▁terj": 8704,
      "▁tanda": 8705,
      "▁voed": 8706,
      "▁ground": 8707,
      "▁siang": 8708,
      "▁manis": 8709,
      "▁ayahmu": 8710,
      "▁We're": 8711,
      "▁rug": 8712,
      "▁they?": 8713,
      "▁Net": 8714,
      "engg": 8715,
      "▁Ol": 8716,
      "epas": 8717,
      "▁repl": 8718,
      "▁lucu": 8719,
      "umsi": 8720,
      "om.": 8721,
      "▁home.": 8722,
      "ute": 8723,
      "▁Heeft": 8724,
      "▁dongeng": 8725,
      "▁tip": 8726,
      "▁mond": 8727,
      "eren.": 8728,
      "fort": 8729,
      "ujur": 8730,
      "▁picture": 8731,
      "▁family": 8732,
      "▁maat": 8733,
      "▁liggen": 8734,
      "mainan": 8735,
      "▁tri": 8736,
      "9.": 8737,
      "inding": 8738,
      "-2": 8739,
      "urk": 8740,
      "▁musik": 8741,
      "iti": 8742,
      "▁Best": 8743,
      "▁riv": 8744,
      "iar": 8745,
      "ba": 8746,
      "▁pesawat": 8747,
      "▁fight": 8748,
      "▁proberen": 8749,
      "inginkan": 8750,
      "da": 8751,
      "▁Dasar": 8752,
      "sek": 8753,
      "▁*DA": 8754,
      "▁...maar": 8755,
      "but": 8756,
      "▁tik": 8757,
      "▁kapan": 8758,
      "▁lel": 8759,
      "▁lah": 8760,
      "▁push": 8761,
      "▁lead": 8762,
      "▁yaitu": 8763,
      "▁verst": 8764,
      "▁mm": 8765,
      "ekening": 8766,
      "▁free": 8767,
      "▁Lond": 8768,
      "▁hm.": 8769,
      "▁Ses": 8770,
      "▁Niemand": 8771,
      "▁ª": 8772,
      "▁sport": 8773,
      "▁keluarg": 8774,
      "▁Tenang": 8775,
      "▁*DAD:": 8776,
      "▁semb": 8777,
      "▁cre": 8778,
      "▁Val": 8779,
      "▁Mummy": 8780,
      "▁Guru": 8781,
      "aha": 8782,
      "▁Jim": 8783,
      "▁einde": 8784,
      "5.": 8785,
      "-anak": 8786,
      "▁gent": 8787,
      "▁mot": 8788,
      "▁Ro": 8789,
      "ken.": 8790,
      "▁opl": 8791,
      "▁via": 8792,
      "▁eerder": 8793,
      "ikap": 8794,
      "ry.": 8795,
      "owing": 8796,
      "ekat": 8797,
      "indah": 8798,
      "▁193": 8799,
      "IL": 8800,
      "yarak": 8801,
      "andung": 8802,
      "-w": 8803,
      "schapp": 8804,
      "▁uhh": 8805,
      "▁lari": 8806,
      "▁hotel": 8807,
      "▁hey": 8808,
      "abiskan": 8809,
      "▁pesta": 8810,
      "▁Want": 8811,
      "▁Gew": 8812,
      "▁menyebabkan": 8813,
      "TER": 8814,
      "▁bere": 8815,
      "▁zus": 8816,
      "▁mulut": 8817,
      "▁gaf": 8818,
      "▁Engel": 8819,
      "▁pir": 8820,
      "▁gebouw": 8821,
      "oft": 8822,
      "▁led": 8823,
      "bal": 8824,
      "jes.": 8825,
      "▁geloven": 8826,
      "intaimu": 8827,
      "▁pernikahan": 8828,
      "hand": 8829,
      "▁\"G": 8830,
      "▁cry": 8831,
      "▁stap": 8832,
      "▁hidupku": 8833,
      "▁sepanjang": 8834,
      "▁benda": 8835,
      "▁album": 8836,
      "anggap": 8837,
      "▁ayahku": 8838,
      "▁problemen": 8839,
      "kant": 8840,
      "▁careful": 8841,
      "inj": 8842,
      "▁rencana": 8843,
      "▁sorry": 8844,
      "▁cond": 8845,
      "▁ko": 8846,
      "▁nee.": 8847,
      "▁perfect": 8848,
      "▁toy": 8849,
      "▁Berikan": 8850,
      "▁Mm.": 8851,
      "▁voorbij": 8852,
      "alm": 8853,
      "▁pesan": 8854,
      "▁Namun,": 8855,
      "▁gevangen": 8856,
      "ure.": 8857,
      "ID": 8858,
      "▁leav": 8859,
      "▁berku": 8860,
      "▁doct": 8861,
      "▁menelepon": 8862,
      "▁paper": 8863,
      "▁anggota": 8864,
      "ille": 8865,
      "fl": 8866,
      "▁econom": 8867,
      "▁Iya": 8868,
      "▁rijk": 8869,
      "▁kond": 8870,
      "▁Sebuah": 8871,
      "▁truck": 8872,
      "▁vraagt": 8873,
      "▁Moet": 8874,
      "▁pukul": 8875,
      "acter": 8876,
      "▁woman": 8877,
      "▁volgens": 8878,
      "aire": 8879,
      "▁rib": 8880,
      "ket": 8881,
      "▁continu": 8882,
      "▁Dok": 8883,
      "nieuw": 8884,
      "▁dezelfde": 8885,
      "houden": 8886,
      "▁more.": 8887,
      "▁halaman": 8888,
      "▁liefde": 8889,
      "▁mencintaimu": 8890,
      "▁Peny": 8891,
      "ogen": 8892,
      "▁pakai": 8893,
      "ered": 8894,
      "▁zes": 8895,
      "▁udara": 8896,
      "-n": 8897,
      "▁partic": 8898,
      "▁result": 8899,
      "▁feet": 8900,
      "akannya": 8901,
      "aliz": 8902,
      "▁22": 8903,
      "▁hasil": 8904,
      "ism": 8905,
      "▁motor": 8906,
      "emd": 8907,
      "▁happy": 8908,
      "▁ongel": 8909,
      "▁warna": 8910,
      "▁cool": 8911,
      "▁leeft": 8912,
      "anyi": 8913,
      "▁artinya": 8914,
      "▁terwijl": 8915,
      "atang": 8916,
      "cy": 8917,
      "usahaan": 8918,
      "▁Pergilah": 8919,
      "▁pertanyaan": 8920,
      "uki": 8921,
      "▁Beberapa": 8922,
      "▁gedacht": 8923,
      "▁dank": 8924,
      "▁bunga": 8925,
      "▁lo.": 8926,
      "▁fift": 8927,
      "ragen": 8928,
      "oph": 8929,
      "▁zee": 8930,
      "▁rat": 8931,
      "▁sweet": 8932,
      "▁creat": 8933,
      "aars": 8934,
      "US": 8935,
      "oma": 8936,
      "▁pintar": 8937,
      "▁trouw": 8938,
      "▁April": 8939,
      "▁kus": 8940,
      "▁this,": 8941,
      "▁broer": 8942,
      "inkt": 8943,
      "alth": 8944,
      "▁membuatmu": 8945,
      "▁Had": 8946,
      "esan": 8947,
      "▁ervan": 8948,
      "▁dead": 8949,
      "ikasi": 8950,
      "uta": 8951,
      "▁Jong": 8952,
      "▁profess": 8953,
      "▁Black": 8954,
      "ubb": 8955,
      "iez": 8956,
      "▁Even": 8957,
      "▁mean,": 8958,
      "aid": 8959,
      "▁Permisi": 8960,
      "yum": 8961,
      "u,": 8962,
      "▁membayar": 8963,
      "▁valt": 8964,
      "recht": 8965,
      "▁intern": 8966,
      "▁several": 8967,
      "▁memikirkan": 8968,
      "▁William": 8969,
      "▁baby.": 8970,
      "▁Part": 8971,
      "ayan": 8972,
      "▁Boleh": 8973,
      "▁fuck": 8974,
      "▁over.": 8975,
      "abr": 8976,
      "▁Tek": 8977,
      "▁control": 8978,
      "uci": 8979,
      "▁membeli": 8980,
      "ekend": 8981,
      "▁[g": 8982,
      "▁Gre": 8983,
      "▁Gaat": 8984,
      "5)": 8985,
      "4.": 8986,
      "▁doel": 8987,
      "die": 8988,
      "▁wet": 8989,
      "ilai": 8990,
      "RE": 8991,
      "8.": 8992,
      "▁verkl": 8993,
      "▁matahari": 8994,
      "▁menghilang": 8995,
      "▁lift": 8996,
      "▁girls": 8997,
      "▁Hati": 8998,
      "▁vern": 8999,
      "▁Wal": 9000,
      "▁tong": 9001,
      "▁San": 9002,
      "ANG": 9003,
      "▁Sec": 9004,
      "head": 9005,
      "▁Kec": 9006,
      "▁us.": 9007,
      "onde": 9008,
      "▁sta": 9009,
      "iran": 9010,
      "▁geworden": 9011,
      "▁Robert": 9012,
      "▁gets": 9013,
      "▁mengubah": 9014,
      "▁koff": 9015,
      "▁ontd": 9016,
      "▁wall": 9017,
      "▁ternyata": 9018,
      "▁glad": 9019,
      "▁nas": 9020,
      "▁partij": 9021,
      "uai": 9022,
      "▁melihatmu": 9023,
      "ang,": 9024,
      "▁spreken": 9025,
      "▁obat": 9026,
      "▁Rumah": 9027,
      "▁hoeft": 9028,
      "eld.": 9029,
      "▁Zoals": 9030,
      "lect": 9031,
      "▁Lihatlah": 9032,
      "▁her,": 9033,
      "▁weinig": 9034,
      "▁finish": 9035,
      "▁pengh": 9036,
      "▁zo'n": 9037,
      "ato": 9038,
      "▁buy": 9039,
      "▁bezig": 9040,
      "ing]": 9041,
      "▁someone": 9042,
      "▁vand": 9043,
      "uali": 9044,
      "▁mengingat": 9045,
      "▁seper": 9046,
      "arg": 9047,
      "reed": 9048,
      "▁across": 9049,
      "▁Cent": 9050,
      "▁Hoeveel": 9051,
      "▁twenty": 9052,
      "▁Akhir": 9053,
      "▁was,": 9054,
      "▁movie": 9055,
      "▁least": 9056,
      "iken": 9057,
      "▁berani": 9058,
      "ountain": 9059,
      "▁yeah,": 9060,
      "il.": 9061,
      "▁ervoor": 9062,
      "▁power": 9063,
      "▁Sim": 9064,
      "▁Every": 9065,
      "▁list": 9066,
      "ice,": 9067,
      "▁Count": 9068,
      "▁pracht": 9069,
      "▁Lu": 9070,
      "▁vergeten": 9071,
      "▁Paman": 9072,
      "▁23": 9073,
      "ikkel": 9074,
      "▁rece": 9075,
      "▁Seorang": 9076,
      "▁Sal": 9077,
      "stuk": 9078,
      "ebody": 9079,
      "▁lewat": 9080,
      "▁*J": 9081,
      "▁bin": 9082,
      "▁Bo": 9083,
      "▁wink": 9084,
      "undur": 9085,
      "ogel": 9086,
      "▁cab": 9087,
      "anjutkan": 9088,
      "▁maakte": 9089,
      "itan": 9090,
      "-orang": 9091,
      "▁Des": 9092,
      "▁Tempat": 9093,
      "gar": 9094,
      "▁sometimes": 9095,
      "▁doen.": 9096,
      "▁begon": 9097,
      "▁telur": 9098,
      "▁Pasti": 9099,
      "schijnlijk": 9100,
      "▁French": 9101,
      "▁German": 9102,
      "▁apa-": 9103,
      "zie": 9104,
      "▁dochter": 9105,
      "6.": 9106,
      "▁Dec": 9107,
      "▁uj": 9108,
      "▁Pemb": 9109,
      "▁beneden": 9110,
      "▁afg": 9111,
      "▁vill": 9112,
      "▁Bekijk": 9113,
      "vert": 9114,
      "ady": 9115,
      "▁These": 9116,
      "▁kijkt": 9117,
      "▁Veren": 9118,
      "ayangkan": 9119,
      "▁putri": 9120,
      "▁important": 9121,
      "▁kalah": 9122,
      "▁hitam": 9123,
      "▁gere": 9124,
      "ida": 9125,
      "▁Ut": 9126,
      "ies,": 9127,
      "ck": 9128,
      "▁teh": 9129,
      "orie": 9130,
      "▁loopt": 9131,
      "▁zwart": 9132,
      "raph": 9133,
      "▁menyebut": 9134,
      "▁kurang": 9135,
      "▁exper": 9136,
      "velop": 9137,
      "ham": 9138,
      "▁Ambil": 9139,
      "eens": 9140,
      "uldig": 9141,
      "ologi": 9142,
      "▁moder": 9143,
      "▁we?": 9144,
      "nem": 9145,
      "▁kira": 9146,
      "ye": 9147,
      "▁pret": 9148,
      "▁girl.": 9149,
      "▁mengikuti": 9150,
      "ak,": 9151,
      "ity,": 9152,
      "udd": 9153,
      "▁imm": 9154,
      "enden": 9155,
      "▁noemen": 9156,
      "▁kor": 9157,
      "▁boy.": 9158,
      "▁football": 9159,
      "ijl": 9160,
      "▁*MAR:": 9161,
      "▁hung": 9162,
      "▁Ple": 9163,
      "7.": 9164,
      "eksi": 9165,
      "▁menghentikan": 9166,
      "ekor": 9167,
      "▁Iku": 9168,
      "▁egg": 9169,
      "entje": 9170,
      "▁ol": 9171,
      "mati": 9172,
      "▁catch": 9173,
      "▁vermoord": 9174,
      "▁membaca": 9175,
      "rokken": 9176,
      "▁komp": 9177,
      "▁Tetapi": 9178,
      "▁Mrs": 9179,
      "kanmu": 9180,
      "▁La": 9181,
      "▁ship": 9182,
      "idaknya": 9183,
      "▁pilihan": 9184,
      "atis": 9185,
      "s.\"": 9186,
      "▁car.": 9187,
      "-r": 9188,
      "▁\"Oh,": 9189,
      "▁road": 9190,
      "▁waarin": 9191,
      "▁system": 9192,
      "▁pembunuh": 9193,
      "▁Um": 9194,
      "7)": 9195,
      "inar": 9196,
      "▁said.": 9197,
      "▁dom": 9198,
      "▁here's": 9199,
      "▁Kn": 9200,
      "▁blood": 9201,
      "▁Indian": 9202,
      "2)": 9203,
      "▁Mac": 9204,
      "▁DE": 9205,
      "owed": 9206,
      "▁ng": 9207,
      "alia": 9208,
      "▁maand": 9209,
      "orong": 9210,
      "ella": 9211,
      "▁herself": 9212,
      "▁vor": 9213,
      "▁apa-apa": 9214,
      "eseh": 9215,
      "▁III": 9216,
      "ampuan": 9217,
      "▁mist": 9218,
      "▁among": 9219,
      "▁Fir": 9220,
      "▁verr": 9221,
      "▁opge": 9222,
      "OM": 9223,
      "▁sinds": 9224,
      "▁daging": 9225,
      "▁bon": 9226,
      "▁times": 9227,
      "▁kesalahan": 9228,
      "inet": 9229,
      "▁consider": 9230,
      "▁mess": 9231,
      "▁cow": 9232,
      "▁instr": 9233,
      "ena": 9234,
      "inning": 9235,
      "gris": 9236,
      "▁India": 9237,
      "rian": 9238,
      "bert": 9239,
      "▁Sebelum": 9240,
      "▁Ji": 9241,
      "▁business": 9242,
      "▁aarde": 9243,
      "▁vanaf": 9244,
      "▁day.": 9245,
      "atas": 9246,
      "▁Kakak": 9247,
      "▁South": 9248,
      "▁gebied": 9249,
      "▁konden": 9250,
      "▁\"What": 9251,
      "▁agak": 9252,
      "▁bernama": 9253,
      "▁it!": 9254,
      "▁Kapten": 9255,
      "▁win": 9256,
      "ube": 9257,
      "▁Twee": 9258,
      "▁Bung": 9259,
      "▁pus": 9260,
      "itter": 9261,
      "inda": 9262,
      "▁artikel": 9263,
      "▁sim": 9264,
      "▁class": 9265,
      "uze": 9266,
      "▁omong": 9267,
      "ampa": 9268,
      "vorm": 9269,
      "▁zo.": 9270,
      "masuk": 9271,
      "▁%": 9272,
      "▁kotor": 9273,
      "ky": 9274,
      "▁berbahaya": 9275,
      "▁pemer": 9276,
      "▁mengetahui": 9277,
      "▁soft": 9278,
      "▁question": 9279,
      "▁all.": 9280,
      "▁...\"": 9281,
      "▁hadiah": 9282,
      "▁hi": 9283,
      "▁state": 9284,
      "osp": 9285,
      "▁kay": 9286,
      "▁musuh": 9287,
      "boek": 9288,
      "▁nomor": 9289,
      "▁Senang": 9290,
      "▁vir": 9291,
      "RI": 9292,
      "▁kenal": 9293,
      "▁ran": 9294,
      "ayah": 9295,
      "▁Dir": 9296,
      "ution": 9297,
      "▁Mulia": 9298,
      "▁daugh": 9299,
      "▁early": 9300,
      "ic.": 9301,
      "▁Zw": 9302,
      "▁bola": 9303,
      "▁zult": 9304,
      "-g": 9305,
      "1,": 9306,
      "▁vij": 9307,
      "▁not.": 9308,
      "▁perintah": 9309,
      "anjutnya": 9310,
      "elaskan": 9311,
      "▁memutuskan": 9312,
      "▁Terl": 9313,
      "▁gevol": 9314,
      "▁enkele": 9315,
      "▁orig": 9316,
      "osten": 9317,
      "▁camer": 9318,
      "unjungi": 9319,
      "ing].": 9320,
      "▁Ev": 9321,
      "▁June": 9322,
      "ard.": 9323,
      "▁seks": 9324,
      "▁Daarna": 9325,
      "ude": 9326,
      "▁country": 9327,
      "tions": 9328,
      "ungk": 9329,
      "▁August": 9330,
      "▁menghancurkan": 9331,
      "elas": 9332,
      "ists": 9333,
      "uk,": 9334,
      "▁stoppen": 9335,
      "▁Nah": 9336,
      "▁Kapan": 9337,
      "▁corn": 9338,
      "▁rij": 9339,
      "▁North": 9340,
      "▁verteld": 9341,
      "embunyi": 9342,
      "esehatan": 9343,
      "▁Kes": 9344,
      "▁Lakukan": 9345,
      "aalde": 9346,
      "▁Kupikir": 9347,
      "▁Ternyata": 9348,
      "▁Maka": 9349,
      "▁conc": 9350,
      "astikan": 9351,
      "▁March": 9352,
      "▁deal": 9353,
      "▁priv": 9354,
      "fer": 9355,
      "▁guy": 9356,
      "▁juiste": 9357,
      "▁Republ": 9358,
      "▁reger": 9359,
      "▁Because": 9360,
      "▁perk": 9361,
      "▁become": 9362,
      "▁cult": 9363,
      "▁dew": 9364,
      "▁sempurna": 9365,
      "▁direc": 9366,
      "ui": 9367,
      "▁Ten": 9368,
      "▁tujuan": 9369,
      "ically": 9370,
      "▁pikirkan": 9371,
      "▁doden": 9372,
      "adikan": 9373,
      "ging": 9374,
      "▁media": 9375,
      "▁wood": 9376,
      "ousand": 9377,
      "yarakat": 9378,
      "▁segalanya": 9379,
      "▁Naar": 9380,
      "▁Help": 9381,
      "ce,": 9382,
      "▁serta": 9383,
      "▁verdw": 9384,
      "▁il": 9385,
      "▁voordat": 9386,
      "▁Papa": 9387,
      "▁praat": 9388,
      "ago": 9389,
      "▁desa": 9390,
      "AH": 9391,
      "tuig": 9392,
      "▁panggil": 9393,
      "rift": 9394,
      "▁Ant": 9395,
      "▁'M": 9396,
      "▁Michael": 9397,
      "23": 9398,
      "▁maanden": 9399,
      "▁monster": 9400,
      "▁Kumohon": 9401,
      "▁Lord": 9402,
      "▁lezen": 9403,
      "▁tried": 9404,
      "▁sebaiknya": 9405,
      "▁lach": 9406,
      "▁sebabnya": 9407,
      "9,": 9408,
      "▁kud": 9409,
      "▁cur": 9410,
      "▁Mak": 9411,
      "you": 9412,
      "▁slapen": 9413,
      "▁nad": 9414,
      "▁rahasia": 9415,
      "▁sens": 9416,
      "ukaan": 9417,
      "▁ann": 9418,
      "ake.": 9419,
      "▁pis": 9420,
      "▁slag": 9421,
      "▁\"We": 9422,
      "amar": 9423,
      "ompok": 9424,
      "itte": 9425,
      "▁quiet": 9426,
      "kanku": 9427,
      "1)": 9428,
      "▁planet": 9429,
      "▁overle": 9430,
      "▁sos": 9431,
      "▁Lepaskan": 9432,
      "▁Berb": 9433,
      "▁lag": 9434,
      "iman": 9435,
      "▁baca": 9436,
      "▁vallen": 9437,
      "est.": 9438,
      "▁change": 9439,
      "▁check": 9440,
      "▁menyes": 9441,
      "▁geluk": 9442,
      "▁schoon": 9443,
      "▁kand": 9444,
      "▁usually": 9445,
      "▁voorst": 9446,
      "▁liet": 9447,
      "▁Pad": 9448,
      "ee,": 9449,
      "ently": 9450,
      "▁Vertel": 9451,
      "▁ontmoet": 9452,
      "▁Amerikaanse": 9453,
      "▁takes": 9454,
      "▁jahat": 9455,
      "▁Uh-h": 9456,
      "▁sab": 9457,
      "▁menyerang": 9458,
      "▁Coba": 9459,
      "▁univers": 9460,
      "esse": 9461,
      "▁langu": 9462,
      "▁*PAT:": 9463,
      "▁penyakit": 9464,
      "es?": 9465,
      "▁[b": 9466,
      "▁pakken": 9467,
      "▁memukul": 9468,
      "oo.": 9469,
      "▁Rust": 9470,
      "esaikan": 9471,
      "▁Alsjeblieft": 9472,
      "▁kemana": 9473,
      "entuh": 9474,
      "▁kwamen": 9475,
      "▁one,": 9476,
      "▁oog": 9477,
      "▁SM": 9478,
      "▁vle": 9479,
      "▁idi": 9480,
      "▁Tetap": 9481,
      "▁heav": 9482,
      "▁rasanya": 9483,
      "ending": 9484,
      "▁namanya": 9485,
      "▁menyukai": 9486,
      "oep": 9487,
      "stub": 9488,
      "▁line": 9489,
      "▁idea": 9490,
      "▁boot": 9491,
      "2,": 9492,
      "▁temukan": 9493,
      "irm": 9494,
      "▁Ingin": 9495,
      "rol": 9496,
      "ue.": 9497,
      "▁suk": 9498,
      "▁bunuh": 9499,
      "-baik": 9500,
      "ent.": 9501,
      "▁kilom": 9502,
      "roep": 9503,
      "▁alam": 9504,
      "▁pasukan": 9505,
      "▁out,": 9506,
      "gen.": 9507,
      "▁verv": 9508,
      "wood": 9509,
      "▁grap": 9510,
      "onel": 9511,
      "▁Angel": 9512,
      "▁distr": 9513,
      "stublieft": 9514,
      "▁kantor": 9515,
      "▁horse": 9516,
      "▁dahulu": 9517,
      "ocol": 9518,
      "▁surpr": 9519,
      "▁menembak": 9520,
      "▁radio": 9521,
      "▁pound": 9522,
      "▁Bro": 9523,
      "▁fast": 9524,
      "▁squ": 9525,
      "ts": 9526,
      "▁Jimm": 9527,
      "▁arg": 9528,
      "h.": 9529,
      "▁kurasa": 9530,
      "▁gingen": 9531,
      "▁anderen": 9532,
      "iland": 9533,
      "▁apart": 9534,
      "▁(born": 9535,
      "▁leger": 9536,
      "▁figuur": 9537,
      "press": 9538,
      "▁carry": 9539,
      "▁tumbuh": 9540,
      "▁snap": 9541,
      "▁sis": 9542,
      "▁inside": 9543,
      "▁hubungan": 9544,
      "▁Sept": 9545,
      "tor": 9546,
      "▁clean": 9547,
      "uluh": 9548,
      "▁age": 9549,
      "IE": 9550,
      "▁voice": 9551,
      "▁bear": 9552,
      "▁Jin": 9553,
      "▁hm?": 9554,
      "▁zetten": 9555,
      "▁5.": 9556,
      "▁Mom": 9557,
      "elit": 9558,
      "▁Lau": 9559,
      "▁sepert": 9560,
      "voc": 9561,
      "▁star": 9562,
      "ents": 9563,
      "▁fil": 9564,
      "▁'J": 9565,
      "▁bicarakan": 9566,
      "paya": 9567,
      "▁sib": 9568,
      "▁Okay.": 9569,
      "▁[1": 9570,
      "eral": 9571,
      "▁voorb": 9572,
      "▁afbeelding": 9573,
      "▁stood": 9574,
      "▁Billy": 9575,
      "▁bentuk": 9576,
      "▁mah": 9577,
      "▁Kore": 9578,
      "▁She's": 9579,
      "▁fit": 9580,
      "▁Chin": 9581,
      "ate.": 9582,
      "▁Captain": 9583,
      "▁kept": 9584,
      "▁Lagi": 9585,
      "use": 9586,
      "▁dibuat": 9587,
      "▁daarom": 9588,
      "OL": 9589,
      "▁neemt": 9590,
      "sta": 9591,
      "strijd": 9592,
      "▁Wer": 9593,
      "▁ibumu": 9594,
      "▁pain": 9595,
      "▁beruntung": 9596,
      "▁outside": 9597,
      "won": 9598,
      "▁organis": 9599,
      "okok": 9600,
      "▁seven": 9601,
      "gl": 9602,
      "▁drinken": 9603,
      "▁sepertinya": 9604,
      "▁tal": 9605,
      "▁mesin": 9606,
      "▁Bawa": 9607,
      "▁darl": 9608,
      "▁nut": 9609,
      "▁Inggris": 9610,
      "▁Cukup": 9611,
      "tiviteit": 9612,
      "sb": 9613,
      "▁Del": 9614,
      "▁CH": 9615,
      "▁toekom": 9616,
      "▁thousand": 9617,
      "▁geval": 9618,
      "▁...z": 9619,
      "▁lange": 9620,
      "id,": 9621,
      "▁complet": 9622,
      "▁attack": 9623,
      "'m": 9624,
      "▁sterk": 9625,
      "▁baik-baik": 9626,
      "▁dolar": 9627,
      "▁menjawab": 9628,
      "▁write": 9629,
      "▁fix": 9630,
      "▁haal": 9631,
      "▁vi": 9632,
      "enst": 9633,
      "der.": 9634,
      "▁bayi": 9635,
      "-B": 9636,
      "▁ident": 9637,
      "▁kart": 9638,
      "▁Sarah": 9639,
      "▁rain": 9640,
      "▁lunch": 9641,
      "▁Sun": 9642,
      "ned": 9643,
      "▁*GR": 9644,
      "erti": 9645,
      "▁Jalan": 9646,
      "▁membuka": 9647,
      "▁punten": 9648,
      "▁mampu": 9649,
      "▁anak-anak": 9650,
      "▁winter": 9651,
      "oorten": 9652,
      "▁lez": 9653,
      "ictor": 9654,
      "olak": 9655,
      "▁adj": 9656,
      "▁dimulai": 9657,
      "▁hur": 9658,
      "▁ijs": 9659,
      "▁eraan": 9660,
      "▁perusahaan": 9661,
      "▁Silakan": 9662,
      "▁buurt": 9663,
      "oken": 9664,
      "▁then,": 9665,
      "▁So,": 9666,
      "aft": 9667,
      "quar": 9668,
      "▁in,": 9669,
      "▁gang": 9670,
      "▁jar": 9671,
      "▁sisi": 9672,
      "▁pag": 9673,
      "eller": 9674,
      "▁hujan": 9675,
      "▁heer": 9676,
      "▁zeer": 9677,
      "6)": 9678,
      "▁bercanda": 9679,
      "▁friends": 9680,
      "dy.": 9681,
      "▁segala": 9682,
      "▁insp": 9683,
      "▁Europ": 9684,
      "enal": 9685,
      "▁tau": 9686,
      "▁daerah": 9687,
      "8)": 9688,
      "▁cor": 9689,
      "▁blijf": 9690,
      "▁yellow": 9691,
      "▁Selama": 9692,
      "10": 9693,
      "▁cas": 9694,
      "▁khus": 9695,
      "▁clear": 9696,
      "▁Bumi": 9697,
      "▁fear": 9698,
      "▁26": 9699,
      "▁waktunya": 9700,
      "idge": 9701,
      "atihan": 9702,
      "▁sitting": 9703,
      "▁government": 9704,
      "▁Ye": 9705,
      "▁webs": 9706,
      "▁tar": 9707,
      "▁frog": 9708,
      "ersch": 9709,
      "▁hak": 9710,
      "-C": 9711,
      "▁gekomen": 9712,
      "▁permainan": 9713,
      "uarkan": 9714,
      "▁erop": 9715,
      "▁setuju": 9716,
      "▁report": 9717,
      "ides": 9718,
      "punt": 9719,
      "▁rijden": 9720,
      "▁sadar": 9721,
      "▁effect": 9722,
      "▁kot": 9723,
      "▁veilig": 9724,
      "ukur": 9725,
      "▁Eén": 9726,
      "▁Spa": 9727,
      "eme": 9728,
      "▁somebody": 9729,
      "▁Gri": 9730,
      "iatan": 9731,
      "▁negeri": 9732,
      "▁moe": 9733,
      "▁enorm": 9734,
      "▁reason": 9735,
      "▁toekomst": 9736,
      "▁*LO": 9737,
      "▁President": 9738,
      "▁north": 9739,
      "▁Goog": 9740,
      "▁gister": 9741,
      "ured": 9742,
      "▁bib": 9743,
      "▁done.": 9744,
      "▁Bos": 9745,
      "though": 9746,
      "▁terasa": 9747,
      "uring": 9748,
      "▁basis": 9749,
      "▁setengah": 9750,
      "▁school.": 9751,
      "▁tep": 9752,
      "▁terkenal": 9753,
      "pis": 9754,
      "iapkan": 9755,
      "▁Toch": 9756,
      "'s.": 9757,
      "▁antwoorden": 9758,
      "actie": 9759,
      "hana": 9760,
      "▁27": 9761,
      "▁semacam": 9762,
      "▁leid": 9763,
      "ïn": 9764,
      "▁vent": 9765,
      "▁page": 9766,
      "▁British": 9767,
      "▁mandi": 9768,
      "thing.": 9769,
      "▁natuur": 9770,
      "ym": 9771,
      "▁sungai": 9772,
      "▁social": 9773,
      "▁'N": 9774,
      "▁spa": 9775,
      "▁sorry.": 9776,
      "▁+": 9777,
      "hluk": 9778,
      "view": 9779,
      "▁Ka": 9780,
      "▁Prof": 9781,
      "▁why?": 9782,
      "▁afra": 9783,
      "▁lived": 9784,
      "▁Hit": 9785,
      "uf": 9786,
      "etch": 9787,
      "adem": 9788,
      "aksa": 9789,
      "unk": 9790,
      "ungsi": 9791,
      "▁mimpi": 9792,
      "▁tab": 9793,
      "onsumsi": 9794,
      "▁Ky": 9795,
      "▁richt": 9796,
      "▁redden": 9797,
      "▁Beri": 9798,
      "▁menyuruh": 9799,
      "▁words": 9800,
      "icult": 9801,
      "▁working": 9802,
      "geet": 9803,
      "8,": 9804,
      "bouw": 9805,
      "jurit": 9806,
      "▁Han": 9807,
      "▁berlangganan": 9808,
      "▁body": 9809,
      "ived": 9810,
      "▁YOU": 9811,
      "baik": 9812,
      "araan": 9813,
      "▁Pan": 9814,
      "▁kunst": 9815,
      "▁sex": 9816,
      "erv": 9817,
      "▁Wan": 9818,
      "-S": 9819,
      "▁gast": 9820,
      "▁named": 9821,
      "▁November": 9822,
      "▁Nick": 9823,
      "▁memberitahu": 9824,
      "ograph": 9825,
      "▁Oct": 9826,
      "▁seru": 9827,
      "▁Siap": 9828,
      "▁party": 9829,
      "▁so.": 9830,
      "antie": 9831,
      "ruk": 9832,
      "ird": 9833,
      "▁rend": 9834,
      "ength": 9835,
      "oorlog": 9836,
      "TE": 9837,
      "▁Sand": 9838,
      "▁sudden": 9839,
      "▁pist": 9840,
      "▁Anna": 9841,
      "▁anakku": 9842,
      "▁menyakit": 9843,
      "▁Gar": 9844,
      "]?": 9845,
      "rie": 9846,
      "▁schrijven": 9847,
      "▁January": 9848,
      "▁menyukainya": 9849,
      "▁probeer": 9850,
      "▁tanaman": 9851,
      "▁kont": 9852,
      "▁*ADU:": 9853,
      "▁themsel": 9854,
      "ning": 9855,
      "▁[y": 9856,
      "aien": 9857,
      "hoog": 9858,
      "▁Bes": 9859,
      "▁melindungi": 9860,
      "▁gam": 9861,
      "▁perl": 9862,
      "▁block": 9863,
      "uch": 9864,
      "▁stil": 9865,
      "▁zak": 9866,
      "▁berikutnya": 9867,
      "▁*LOI:": 9868,
      "▁terg": 9869,
      "▁Sep": 9870,
      "▁Twe": 9871,
      "aking": 9872,
      "▁wild": 9873,
      "▁est": 9874,
      "▁voort": 9875,
      "▁fly": 9876,
      "▁menyad": 9877,
      "▁sebelah": 9878,
      "▁berasal": 9879,
      "▁Vl": 9880,
      "▁(2": 9881,
      "▁gebeuren": 9882,
      "spr": 9883,
      "▁peri": 9884,
      "oenen": 9885,
      "onen": 9886,
      "▁bouw": 9887,
      "▁Europa": 9888,
      "▁bantu": 9889,
      "lingen": 9890,
      "-19": 9891,
      "abri": 9892,
      "arikan": 9893,
      "▁Zuid": 9894,
      "▁km": 9895,
      "▁langit": 9896,
      "ially": 9897,
      "▁Have": 9898,
      "▁kemampuan": 9899,
      "eet": 9900,
      "▁Okay": 9901,
      "LE": 9902,
      "▁techn": 9903,
      "▁Big": 9904,
      "▁life.": 9905,
      "▁posisi": 9906,
      "▁cocok": 9907,
      "▁mevrouw": 9908,
      "derd": 9909,
      "▁ruangan": 9910,
      "▁Ray": 9911,
      "▁makkelijk": 9912,
      "unyai": 9913,
      "▁September": 9914,
      "▁Lang": 9915,
      "▁sibuk": 9916,
      "▁janji": 9917,
      "▁Pria": 9918,
      "▁dest": 9919,
      "▁teman-teman.": 9920,
      "▁dasar": 9921,
      "▁kast": 9922,
      "ide,": 9923,
      "▁und": 9924,
      "▁naast": 9925,
      "▁fijn": 9926,
      "▁public": 9927,
      "▁Super": 9928,
      "▁gelukkig": 9929,
      "▁mengunjungi": 9930,
      "▁sesuai": 9931,
      "▁living": 9932,
      "ilahkan": 9933,
      "▁toil": 9934,
      "ended": 9935,
      "▁suam": 9936,
      "▁schip": 9937,
      "▁voelt": 9938,
      "▁object": 9939,
      "▁misteri,": 9940,
      "▁alat": 9941,
      "agon": 9942,
      "▁fantasi,": 9943,
      "inen": 9944,
      "uut": 9945,
      "▁Brown": 9946,
      "--------": 9947,
      "weer": 9948,
      "▁wakker": 9949,
      "rob": 9950,
      "▁Blu": 9951,
      "▁station": 9952,
      "▁lied": 9953,
      "▁gagal": 9954,
      "ur.": 9955,
      "▁Dokter": 9956,
      "▁you'd": 9957,
      "▁utama": 9958,
      "assen": 9959,
      "agen.": 9960,
      "▁Mana": 9961,
      "estig": 9962,
      "▁weken": 9963,
      "es]": 9964,
      "asaran": 9965,
      "wijs": 9966,
      "ribadi": 9967,
      "LT:": 9968,
      "▁Zelf": 9969,
      "▁ayam": 9970,
      "▁*ADULT:": 9971,
      "ival": 9972,
      "DS:": 9973,
      "▁energi": 9974,
      "akte": 9975,
      "▁melewati": 9976,
      "ature": 9977,
      "▁*CDS:": 9978,
      "▁sistem": 9979,
      "oh.": 9980,
      "mon": 9981,
      "▁prins": 9982,
      "▁waardoor": 9983,
      "genoot": 9984,
      "olled": 9985,
      "oose": 9986,
      "▁membangun": 9987,
      "▁Mulai": 9988,
      "▁toys": 9989,
      "▁[voc": 9990,
      "thern": 9991,
      "ji": 9992,
      "▁pacar": 9993,
      "▁kematian": 9994,
      "orrow": 9995,
      "▁bedrijf": 9996,
      "▁vuur": 9997,
      "▁exact": 9998,
      "▁reis": 9999,
      "▁night.": 10000,
      "ihan": 10001,
      "▁boat": 10002,
      "▁gevraag": 10003,
      "raw": 10004,
      "abuk": 10005,
      "ience": 10006,
      "▁single": 10007,
      "▁pec": 10008,
      "▁dewasa": 10009,
      "erikan": 10010,
      "spraak": 10011,
      "▁mhm": 10012,
      "▁verander": 10013,
      "▁Hidup": 10014,
      "▁\"But": 10015,
      "▁late": 10016,
      "▁baan": 10017,
      "▁river": 10018,
      "▁Masih": 10019,
      "▁bijz": 10020,
      "▁Med": 10021,
      "otte": 10022,
      "▁ah.": 10023,
      "▁taf": 10024,
      "indung": 10025,
      "▁beritahu": 10026,
      "▁bath": 10027,
      "iat": 10028,
      "▁bom": 10029,
      "▁Sama": 10030,
      "itein": 10031,
      "9)": 10032,
      "▁60": 10033,
      "emuan": 10034,
      "▁Europe": 10035,
      "ine,": 10036,
      "▁excl": 10037,
      "▁minister": 10038,
      "▁menyerah": 10039,
      "▁cried": 10040,
      "▁baas": 10041,
      "land,": 10042,
      "▁nyaman": 10043,
      "maken": 10044,
      "▁Pertama": 10045,
      "IJ": 10046,
      "▁beeld": 10047,
      "▁Noord": 10048,
      "▁Dar": 10049,
      "▁Port": 10050,
      "apak": 10051,
      "▁Uh-huh.": 10052,
      "▁oefen": 10053,
      "▁shop": 10054,
      "▁Jon": 10055,
      "▁respect": 10056,
      "ega": 10057,
      "▁lots": 10058,
      "entang": 10059,
      "gave": 10060,
      "▁histor": 10061,
      "▁pula": 10062,
      "elden": 10063,
      "oda": 10064,
      "▁ibuku": 10065,
      "▁Google": 10066,
      "▁TO": 10067,
      "ous.": 10068,
      "▁daun": 10069,
      "▁spl": 10070,
      "▁mempunyai": 10071,
      "▁mant": 10072,
      "▁milk": 10073,
      "▁malu": 10074,
      "▁Mm": 10075,
      "▁mal": 10076,
      "▁forg": 10077,
      "▁menemukannya": 10078,
      "▁wis": 10079,
      "lymp": 10080,
      "▁saudara": 10081,
      "▁'t": 10082,
      "▁go?": 10083,
      "▁...?": 10084,
      "icip": 10085,
      "▁Cer": 10086,
      "aster": 10087,
      "▁istri": 10088,
      "▁Cont": 10089,
      "▁Meneer": 10090,
      "▁mengalahkan": 10091,
      "ahlawan": 10092,
      "raat": 10093,
      "▁Kub": 10094,
      "▁Ram": 10095,
      "▁dro": 10096,
      "▁temanku": 10097,
      "▁wife": 10098,
      "▁bebas": 10099,
      "▁is?": 10100,
      "▁press": 10101,
      "▁menghub": 10102,
      "▁mencuri": 10103,
      "▁meningkat": 10104,
      "▁zichzelf": 10105,
      "▁informasi": 10106,
      "oost": 10107,
      "▁temper": 10108,
      "▁Haar": 10109,
      "▁TH": 10110,
      "▁Now,": 10111,
      "▁coup": 10112,
      "▁desc": 10113,
      "▁nyata": 10114,
      "▁overal": 10115,
      "▁middel": 10116,
      "▁cahaya": 10117,
      "▁States": 10118,
      "▁work.": 10119,
      "▁ti": 10120,
      "▁Res": 10121,
      "▁nor": 10122,
      "▁cross": 10123,
      "olly": 10124,
      "▁guru": 10125,
      "▁toeg": 10126,
      "▁Prob": 10127,
      "aliforn": 10128,
      "▁Sant": 10129,
      "▁boom": 10130,
      "▁kennen": 10131,
      "r.": 10132,
      "umur": 10133,
      "▁uitge": 10134,
      "▁ini.": 10135,
      "▁throw": 10136,
      "ben.": 10137,
      "▁Mah": 10138,
      "▁cal": 10139,
      "▁menonton": 10140,
      "▁Nor": 10141,
      "▁termasuk": 10142,
      "▁moed": 10143,
      "osaur": 10144,
      "▁women": 10145,
      "▁klim": 10146,
      "▁running": 10147,
      "etak": 10148,
      "▁Doc": 10149,
      "▁Henry": 10150,
      "icks": 10151,
      "▁bergabung": 10152,
      "eke": 10153,
      "ek.": 10154,
      "▁animal": 10155,
      "akaan": 10156,
      "▁...om": 10157,
      "▁Mex": 10158,
      "▁menari": 10159,
      "ancur": 10160,
      "▁national": 10161,
      "▁Bay": 10162,
      "▁ditemukan": 10163,
      "▁forward": 10164,
      "▁shut": 10165,
      "▁wonen": 10166,
      "▁circ": 10167,
      "stead": 10168,
      "▁Ted": 10169,
[...]
