{
  "version": "1.0",
  "truncation": null,
  "padding": null,
  "added_tokens": [
    {
      "id": 0,
      "content": "<s>",
      "single_word": false,
      "lstrip": false,
      "rstrip": false,
      "normalized": false,
      "special": true
    },
    {
      "id": 1,
      "content": "<pad>",
      "single_word": false,
      "lstrip": false,
      "rstrip": false,
      "normalized": false,
      "special": true
    },
    {
      "id": 2,
      "content": "</s>",
      "single_word": false,
      "lstrip": false,
      "rstrip": false,
      "normalized": false,
      "special": true
    },
    {
      "id": 3,
      "content": "<unk>",
      "single_word": false,
      "lstrip": false,
      "rstrip": false,
      "normalized": false,
      "special": true
    },
    {
      "id": 4,
      "content": "<mask>",
      "single_word": false,
      "lstrip": false,
      "rstrip": false,
      "normalized": false,
      "special": true
    }
  ],
  "normalizer": null,
  "pre_tokenizer": {
    "type": "Sequence",
    "pretokenizers": [
      {
        "type": "WhitespaceSplit"
      },
      {
        "type": "Metaspace",
        "replacement": "▁",
        "prepend_scheme": "always",
        "split": true
      }
    ]
  },
  "post_processor": {
    "type": "TemplateProcessing",
    "single": [
      {
        "SpecialToken": {
          "id": "<s>",
          "type_id": 0
        }
      },
      {
        "Sequence": {
          "id": "A",
          "type_id": 0
        }
      },
      {
        "SpecialToken": {
          "id": "</s>",
          "type_id": 0
        }
      }
    ],
    "pair": [
      {
        "SpecialToken": {
          "id": "<s>",
          "type_id": 0
        }
      },
      {
        "Sequence": {
          "id": "A",
          "type_id": 0
        }
      },
      {
        "SpecialToken": {
          "id": "</s>",
          "type_id": 0
        }
      },
      {
        "SpecialToken": {
          "id": "</s>",
          "type_id": 0
        }
      },
      {
        "Sequence": {
          "id": "B",
          "type_id": 0
        }
      },
      {
        "SpecialToken": {
          "id": "</s>",
          "type_id": 0
        }
      }
    ],
    "special_tokens": {
      "</s>": {
        "id": "</s>",
        "ids": [
          2
        ],
        "tokens": [
          "</s>"
        ]
      },
      "<s>": {
        "id": "<s>",
        "ids": [
          0
        ],
        "tokens": [
          "<s>"
        ]
      }
    }
  },
  "decoder": {
    "type": "Metaspace",
    "replacement": "▁",
    "prepend_scheme": "always",
    "split": true
  },
  "model": {
    "type": "BPE",
    "dropout": null,
    "unk_token": "<unk>",
    "continuing_subword_prefix": null,
    "end_of_word_suffix": null,
    "fuse_unk": false,
    "byte_fallback": false,
    "ignore_merges": false,
    "vocab": {
      "<s>": 0,
      "<pad>": 1,
      "</s>": 2,
      "<unk>": 3,
      "<mask>": 4,
      "!": 5,
      "\"": 6,
      "#": 7,
      "$": 8,
      "%": 9,
      "&": 10,
      "'": 11,
      "(": 12,
      ")": 13,
      "*": 14,
      "+": 15,
      ",": 16,
      "-": 17,
      ".": 18,
      "/": 19,
      "0": 20,
      "1": 21,
      "2": 22,
      "3": 23,
      "4": 24,
      "5": 25,
      "6": 26,
      "7": 27,
      "8": 28,
      "9": 29,
      ":": 30,
      ";": 31,
      "<": 32,
      "=": 33,
      ">": 34,
      "?": 35,
      "@": 36,
      "A": 37,
      "B": 38,
      "C": 39,
      "D": 40,
      "E": 41,
      "F": 42,
      "G": 43,
      "H": 44,
      "I": 45,
      "J": 46,
      "K": 47,
      "L": 48,
      "M": 49,
      "N": 50,
      "O": 51,
      "P": 52,
      "Q": 53,
      "R": 54,
      "S": 55,
      "T": 56,
      "U": 57,
      "V": 58,
      "W": 59,
      "X": 60,
      "Y": 61,
      "Z": 62,
      "[": 63,
      "\\": 64,
      "]": 65,
      "_": 66,
      "a": 67,
      "b": 68,
      "c": 69,
      "d": 70,
      "e": 71,
      "f": 72,
      "g": 73,
      "h": 74,
      "i": 75,
      "j": 76,
      "k": 77,
      "l": 78,
      "m": 79,
      "n": 80,
      "o": 81,
      "p": 82,
      "q": 83,
      "r": 84,
      "s": 85,
      "t": 86,
      "u": 87,
      "v": 88,
      "w": 89,
      "x": 90,
      "y": 91,
      "z": 92,
      "{": 93,
      "|": 94,
      "}": 95,
      "~": 96,
      "¢": 97,
      "­": 98,
      "±": 99,
      "·": 100,
      "¼": 101,
      "½": 102,
      "É": 103,
      "à": 104,
      "â": 105,
      "å": 106,
      "è": 107,
      "é": 108,
      "ê": 109,
      "ë": 110,
      "ì": 111,
      "í": 112,
      "ó": 113,
      "ú": 114,
      "ü": 115,
      "ā": 116,
      "ę": 117,
      "ě": 118,
      "ı": 119,
      "ń": 120,
      "ŕ": 121,
      "ś": 122,
      "Ȇ": 123,
      "ə": 124,
      "ι": 125,
      "а": 126,
      "г": 127,
      "и": 128,
      "н": 129,
      "о": 130,
      "ѐ": 131,
      "،": 132,
      "ا": 133,
      "ب": 134,
      "ج": 135,
      "س": 136,
      "ف": 137,
      "م": 138,
      "ن": 139,
      "و": 140,
      "ي": 141,
      "ُ": 142,
      "ِ": 143,
      "گ": 144,
      "प": 145,
      "र": 146,
      "ु": 147,
      "প": 148,
      "ু": 149,
      "​": 150,
      "―": 151,
      "‖": 152,
      "•": 153,
      "€": 154,
      "▁": 155,
      "ペ": 156,
      "ng": 157,
      "an": 158,
      "▁s": 159,
      "▁k": 160,
      "ang": 161,
      "ing": 162,
      "ak": 163,
      "ar": 164,
      "▁d": 165,
      "en": 166,
      "▁m": 167,
      "▁p": 168,
      "ik": 169,
      "▁n": 170,
      "▁b": 171,
      "er": 172,
      "ah": 173,
      "al": 174,
      "am": 175,
      "▁t": 176,
      "at": 177,
      "▁l": 178,
      "ek": 179,
      "as": 180,
      "is": 181,
      "▁w": 182,
      "▁sing": 183,
      "on": 184,
      "eng": 185,
      "▁ng": 186,
      "aw": 187,
      "in": 188,
      "ra": 189,
      "un": 190,
      "ad": 191,
      "ur": 192,
      "▁ik": 193,
      "▁g": 194,
      "el": 195,
      "ung": 196,
      "▁o": 197,
      "▁ku": 198,
      "ane": 199,
      "ok": 200,
      "es": 201,
      "em": 202,
      "et": 203,
      "ap": 204,
      "it": 205,
      "ya": 206,
      "ong": 207,
      "▁S": 208,
      "uk": 209,
      "ut": 210,
      "us": 211,
      "▁di": 212,
      "ag": 213,
      "▁iku": 214,
      "eh": 215,
      "ew": 216,
      "▁r": 217,
      "uw": 218,
      "ul": 219,
      "angg": 220,
      "▁j": 221,
      "um": 222,
      "▁ora": 223,
      "▁K": 224,
      "ep": 225,
      "ih": 226,
      "▁lan": 227,
      "ir": 228,
      "il": 229,
      "▁P": 230,
      "ed": 231,
      "▁A": 232,
      "▁an": 233,
      "ga": 234,
      "▁ak": 235,
      "ol": 236,
      "ab": 237,
      "▁dh": 238,
      "i,": 239,
      "▁ing": 240,
      "amb": 241,
      "▁c": 242,
      "or": 243,
      "▁N": 244,
      "▁is": 245,
      "▁M": 246,
      "ara": 247,
      "▁iki": 248,
      "▁wong": 249,
      "▁B": 250,
      "▁nang": 251,
      "▁aw": 252,
      "a,": 253,
      "adi": 254,
      "ewe": 255,
      "aj": 256,
      "amp": 257,
      "▁y": 258,
      "ip": 259,
      "▁kar": 260,
      "ti": 261,
      "▁T": 262,
      "ake": 263,
      "eg": 264,
      "dh": 265,
      "ono": 266,
      "ay": 267,
      "i.": 268,
      "eb": 269,
      "anggo": 270,
      "iy": 271,
      "no": 272,
      "▁awak": 273,
      "uh": 274,
      "▁u": 275,
      "▁D": 276,
      "▁dhewe": 277,
      "os": 278,
      "▁sak": 279,
      "im": 280,
      "awe": 281,
      "▁kui": 282,
      "ot": 283,
      "e.": 284,
      "▁dadi": 285,
      "a.": 286,
      "▁amb": 287,
      "▁I": 288,
      "▁si": 289,
      "an.": 290,
      "angk": 291,
      "aya": 292,
      "ant": 293,
      "▁ma": 294,
      "▁karo": 295,
      "up": 296,
      "and": 297,
      "▁ny": 298,
      "▁per": 299,
      "ent": 300,
      "▁ambek": 301,
      "om": 302,
      "ine": 303,
      "▁aku": 304,
      "▁ana": 305,
      "▁kanggo": 306,
      "du": 307,
      "▁iso": 308,
      "▁uga": 309,
      "▁ut": 310,
      "angan": 311,
      "▁ter": 312,
      "▁J": 313,
      "uwe": 314,
      "▁akeh": 315,
      "alah": 316,
      "eneng": 317,
      "▁bis": 318,
      "▁R": 319,
      "▁ning": 320,
      "ku": 321,
      "▁kang": 322,
      "ow": 323,
      "ene": 324,
      "▁neng": 325,
      "▁pas": 326,
      "▁ono": 327,
      "ipun": 328,
      "▁am": 329,
      "▁ap": 330,
      "an,": 331,
      "▁wis": 332,
      "arang": 333,
      "▁bisa": 334,
      "▁gawe": 335,
      "end": 336,
      "▁kuw": 337,
      "▁W": 338,
      "▁tek": 339,
      "▁h": 340,
      "▁kudu": 341,
      "arga": 342,
      "▁sek": 343,
      "asi": 344,
      "emb": 345,
      "▁ya": 346,
      "oy": 347,
      "oro": 348,
      "▁yen": 349,
      "u,": 350,
      "od": 351,
      "▁ben": 352,
      "adh": 353,
      "▁men": 354,
      "▁\"": 355,
      "▁yo": 356,
      "ji": 357,
      "▁nger": 358,
      "awa": 359,
      "e,": 360,
      "ati": 361,
      "anc": 362,
      "u.": 363,
      "ud": 364,
      "▁G": 365,
      "▁L": 366,
      "▁ar": 367,
      "▁pr": 368,
      "▁nag": 369,
      "ib": 370,
      "▁nd": 371,
      "iku": 372,
      "ana": 373,
      "anj": 374,
      "angs": 375,
      "og": 376,
      "▁sa": 377,
      "edh": 378,
      "▁samp": 379,
      "▁bak": 380,
      "owo": 381,
      "▁wes": 382,
      "▁kuwi": 383,
      "oc": 384,
      "id": 385,
      "po": 386,
      "ale": 387,
      "ont": 388,
      "ari": 389,
      "anget": 390,
      "▁maeng": 391,
      "ani": 392,
      "iki": 393,
      "▁mb": 394,
      "ri": 395,
      "ej": 396,
      "abeh": 397,
      "kang": 398,
      "ac": 399,
      "▁1": 400,
      "oh": 401,
      "ata": 402,
      "one": 403,
      "▁al": 404,
      "ta": 405,
      "▁peng": 406,
      "ob": 407,
      "api": 408,
      "▁Y": 409,
      "▁mes": 410,
      "▁dip": 411,
      "asa": 412,
      "▁ker": 413,
      "▁amarga": 414,
      "go": 415,
      "eke": 416,
      "▁kon": 417,
      "▁kal": 418,
      "ika": 419,
      "▁banget": 420,
      "▁utowo": 421,
      "▁ingkang": 422,
      "▁liy": 423,
      "▁om": 424,
      "▁f": 425,
      "▁bakal": 426,
      "▁mung": 427,
      "▁ngg": 428,
      "au": 429,
      "▁koy": 430,
      "iw": 431,
      "ub": 432,
      "▁mer": 433,
      "▁ra": 434,
      "ah.": 435,
      "ahe": 436,
      "▁dig": 437,
      "na": 438,
      "▁gak": 439,
      "▁kabeh": 440,
      "agi": 441,
      "akon": 442,
      "▁kel": 443,
      "▁ber": 444,
      "▁yaiku": 445,
      "▁at": 446,
      "▁terus": 447,
      "▁mas": 448,
      "o.": 449,
      "asane": 450,
      "eni": 451,
      "ai": 452,
      "▁ngel": 453,
      "▁as": 454,
      "ug": 455,
      "▁kat": 456,
      "ij": 457,
      "ama": 458,
      "▁saka": 459,
      "ae": 460,
      "int": 461,
      "▁dis": 462,
      "▁luw": 463,
      "▁tan": 464,
      "▁pra": 465,
      "▁teko": 466,
      "▁siji": 467,
      "aran": 468,
      "▁H": 469,
      "▁pen": 470,
      "▁ol": 471,
      "mu": 472,
      "▁2": 473,
      "▁pal": 474,
      "▁duwe": 475,
      "▁ang": 476,
      "uj": 477,
      "▁dan": 478,
      "une": 479,
      "▁ket": 480,
      "▁on": 481,
      "▁dit": 482,
      "▁C": 483,
      "ia": 484,
      "aneh": 485,
      "▁salah": 486,
      "elok": 487,
      "ah,": 488,
      "▁ken": 489,
      "▁seneng": 490,
      "▁O": 491,
      "▁apik": 492,
      "▁pol": 493,
      "▁so": 494,
      "▁kep": 495,
      "aman": 496,
      "bu": 497,
      "▁luwih": 498,
      "anjur": 499,
      "ane.": 500,
      "ec": 501,
      "▁isok": 502,
      "anging": 503,
      "▁bi": 504,
      "emp": 505,
      "si": 506,
      "atan": 507,
      "ahan": 508,
      "▁mar": 509,
      "▁saiki": 510,
      "▁sam": 511,
      "-b": 512,
      "urung": 513,
      "▁kaya": 514,
      "▁nanging": 515,
      "uku": 516,
      "▁ad": 517,
      "andh": 518,
      "ocah": 519,
      "ira": 520,
      "▁paling": 521,
      "▁opo": 522,
      "nd": 523,
      "▁kul": 524,
      "sa": 525,
      "▁nganggo": 526,
      "▁pangg": 527,
      "eweke": 528,
      "▁sang": 529,
      "▁anc": 530,
      "▁maneh": 531,
      "▁ur": 532,
      "▁marang": 533,
      "▁para": 534,
      "op": 535,
      "▁en": 536,
      "▁Aku": 537,
      "▁pun": 538,
      "hi": 539,
      "▁onok": 540,
      "▁nj": 541,
      "▁nek": 542,
      "ang.": 543,
      "▁Nanging": 544,
      "▁koyok": 545,
      "ingg": 546,
      "ke": 547,
      "-w": 548,
      "▁Sing": 549,
      "imb": 550,
      "-k": 551,
      "akno": 552,
      "ali": 553,
      "▁kes": 554,
      "akoni": 555,
      "▁soale": 556,
      "▁sin": 557,
      "▁man": 558,
      "▁ml": 559,
      "▁ancene": 560,
      "▁U": 561,
      "▁jeneng": 562,
      "ang,": 563,
      "▁put": 564,
      "▁din": 565,
      "▁utawa": 566,
      "▁mesti": 567,
      "▁konc": 568,
      "▁dewe": 569,
      "awan": 570,
      "-m": 571,
      "▁pan": 572,
      "▁dil": 573,
      "ambah": 574,
      "engg": 575,
      "o,": 576,
      "apa": 577,
      "▁ngerti": 578,
      "▁neg": 579,
      "hir": 580,
      "▁Ind": 581,
      "▁lagi": 582,
      "alan": 583,
      "ungg": 584,
      "uran": 585,
      "ind": 586,
      "any": 587,
      "▁sar": 588,
      "▁kad": 589,
      "▁ag": 590,
      "▁mr": 591,
      "▁tak": 592,
      "olan": 593,
      "▁tapi": 594,
      "ump": 595,
      "▁durung": 596,
      "▁pem": 597,
      "▁padh": 598,
      "▁Ter": 599,
      "▁perk": 600,
      "▁sis": 601,
      "▁tet": 602,
      "yan": 603,
      "▁dik": 604,
      "▁aj": 605,
      "ones": 606,
      "▁mul": 607,
      "▁urip": 608,
      "-p": 609,
      "▁seko": 610,
      "▁kant": 611,
      "▁panggon": 612,
      "engk": 613,
      "aku": 614,
      "▁keb": 615,
      "▁Aw": 616,
      "onten": 617,
      "tr": 618,
      "ik.": 619,
      "▁Nah": 620,
      "▁gel": 621,
      "▁omah": 622,
      "▁Yen": 623,
      "..": 624,
      "ita": 625,
      "▁Indones": 626,
      "▁mergo": 627,
      "▁um": 628,
      "▁Pas": 629,
      "▁banjur": 630,
      "▁dad": 631,
      "▁Ng": 632,
      "▁liyane": 633,
      "▁bar": 634,
      "ja": 635,
      "▁mat": 636,
      "▁ta": 637,
      "anti": 638,
      "ikir": 639,
      "▁kono": 640,
      "isi": 641,
      "aden": 642,
      "▁mal": 643,
      "▁wus": 644,
      "ajeng": 645,
      "▁kap": 646,
      "arai": 647,
      "▁padha": 648,
      "▁par": 649,
      "yar": 650,
      "est": 651,
      "uc": 652,
      "unt": 653,
      "▁sep": 654,
      "entuk": 655,
      "▁sampun": 656,
      "▁bal": 657,
      "▁sup": 658,
      "▁den": 659,
      "▁war": 660,
      "▁sij": 661,
      "▁tok": 662,
      "aken": 663,
      "▁kr": 664,
      "▁oleh": 665,
      "ilih": 666,
      "▁bab": 667,
      "atih": 668,
      "▁barang": 669,
      "▁mel": 670,
      "▁e": 671,
      "▁mangk": 672,
      "oso": 673,
      "aka": 674,
      "▁Mb": 675,
      "angsung": 676,
      "▁jenenge": 677,
      "▁pangan": 678,
      "▁wed": 679,
      "▁saw": 680,
      "at.": 681,
      "▁digawe": 682,
      "und": 683,
      "ungan": 684,
      "arane": 685,
      "▁gamp": 686,
      "▁tetep": 687,
      "ak.": 688,
      "▁apa": 689,
      "▁isih": 690,
      "▁ib": 691,
      "▁kui,": 692,
      "▁awakmu": 693,
      "yang": 694,
      "▁langsung": 695,
      "▁arep": 696,
      "umb": 697,
      "▁bocah": 698,
      "▁wae": 699,
      "▁dib": 700,
      "▁did": 701,
      "olek": 702,
      "▁ngono": 703,
      "usah": 704,
      "▁E": 705,
      "▁sekol": 706,
      "-wong": 707,
      "at,": 708,
      "▁sami": 709,
      "▁Terus": 710,
      "▁kas": 711,
      "▁perkoro": 712,
      "▁Awak": 713,
      "▁saking": 714,
      "enting": 715,
      "▁da": 716,
      "iya": 717,
      "▁dheweke": 718,
      ".\"": 719,
      "osi": 720,
      "▁cil": 721,
      "ingk": 722,
      "atu": 723,
      "▁Al": 724,
      "▁wonten": 725,
      "▁uw": 726,
      "▁angg": 727,
      "▁Pra": 728,
      "▁ser": 729,
      "▁ngar": 730,
      "▁ngun": 731,
      "▁pel": 732,
      "are": 733,
      "▁sira": 734,
      "▁nduwe": 735,
      "ula": 736,
      "anipun": 737,
      "▁mak": 738,
      "erah": 739,
      "▁tuw": 740,
      "ak,": 741,
      "angi": 742,
      "▁sab": 743,
      "ter": 744,
      "▁sem": 745,
      "▁3": 746,
      "▁met": 747,
      "uru": 748,
      "odo": 749,
      "ate": 750,
      "▁gedh": 751,
      "▁biasane": 752,
      "▁Tapi": 753,
      "▁duw": 754,
      "ateng": 755,
      "udh": 756,
      "▁tel": 757,
      "▁tambah": 758,
      "akake": 759,
      "▁iki.": 760,
      "▁kl": 761,
      "anca": 762,
      "▁il": 763,
      "▁Ki": 764,
      "oke": 765,
      "▁pir": 766,
      "▁biy": 767,
      "utuh": 768,
      "▁Sak": 769,
      "ayu": 770,
      "-s": 771,
      "▁kam": 772,
      "ungk": 773,
      "yak": 774,
      "▁wong-wong": 775,
      "▁pang": 776,
      "ekno": 777,
      "agan": 778,
      "▁dolan": 779,
      "▁Nek": 780,
      "▁Dh": 781,
      "▁med": 782,
      "▁sijine": 783,
      "oten": 784,
      "omb": 785,
      "▁tau": 786,
      "▁gampang": 787,
      "akan": 788,
      "▁kaw": 789,
      "▁panganan": 790,
      "▁penting": 791,
      "▁Wong": 792,
      "ik,": 793,
      "▁sampe": 794,
      "ih,": 795,
      "▁Dadi": 796,
      "ing,": 797,
      "▁mau": 798,
      "ahra": 799,
      "▁Ak": 800,
      "▁bany": 801,
      "uka": 802,
      "itas": 803,
      "▁Ar": 804,
      "hire": 805,
      "▁kh": 806,
      "res": 807,
      "ig": 808,
      "pa": 809,
      "apan": 810,
      "▁Sang": 811,
      "▁ab": 812,
      "wa": 813,
      "▁anak": 814,
      "▁a": 815,
      "ekt": 816,
      "is,": 817,
      "ungs": 818,
      "asan": 819,
      "▁tum": 820,
      "ane,": 821,
      "▁An": 822,
      "▁sen": 823,
      "▁cer": 824,
      "oyo": 825,
      "▁daerah": 826,
      "ahraga": 827,
      "alika": 828,
      "ung,": 829,
      "▁sampek": 830,
      "▁pin": 831,
      "ebu": 832,
      "omong": 833,
      "▁ses": 834,
      "un,": 835,
      "▁Indonesia": 836,
      "▁sad": 837,
      "▁cara": 838,
      "ayang": 839,
      "▁mring": 840,
      "ne": 841,
      "awi": 842,
      "▁delok": 843,
      "▁babagan": 844,
      "▁jam": 845,
      "▁v": 846,
      "▁ked": 847,
      "gi": 848,
      "en.": 849,
      "ast": 850,
      "▁prap": 851,
      "jo": 852,
      "▁tekan": 853,
      "▁nul": 854,
      "▁Ing": 855,
      "▁sej": 856,
      "emu": 857,
      "▁Pak": 858,
      "apak": 859,
      "▁koyo": 860,
      "al.": 861,
      "▁F": 862,
      "atur": 863,
      "mas": 864,
      "▁pit": 865,
      "ra,": 866,
      "▁kem": 867,
      "▁kanthi": 868,
      "▁end": 869,
      "▁bed": 870,
      "▁ni": 871,
      "▁kan": 872,
      "oto": 873,
      "▁mangan": 874,
      "▁sel": 875,
      "oku": 876,
      "ya,": 877,
      "ath": 878,
      "imp": 879,
      "▁Salah": 880,
      "▁dic": 881,
      "-l": 882,
      "▁ke": 883,
      "ami": 884,
      "▁wa": 885,
      "▁mac": 886,
      "▁jer": 887,
      "▁dipun": 888,
      "▁sal": 889,
      "as.": 890,
      "▁podo": 891,
      "▁tin": 892,
      "▁dhateng": 893,
      "▁maeng.": 894,
      "▁pet": 895,
      "▁in": 896,
      "▁kom": 897,
      "▁rad": 898,
      "urut": 899,
      "aan": 900,
      "▁tuku": 901,
      "▁tah": 902,
      "▁olahraga": 903,
      "unan": 904,
      "?\"": 905,
      "opo": 906,
      "▁iki,": 907,
      "▁ae": 908,
      "▁Kam": 909,
      "▁ay": 910,
      "ala": 911,
      "aning": 912,
      "▁wer": 913,
      "eks": 914,
      "angka": 915,
      "asil": 916,
      "▁meneh": 917,
      "▁ka": 918,
      "▁sekolah": 919,
      "▁sed": 920,
      "aring": 921,
      "▁sag": 922,
      "▁ger": 923,
      "▁kui.": 924,
      "▁jaman": 925,
      "▁mur": 926,
      "▁Am": 927,
      "▁set": 928,
      "▁mus": 929,
      "al,": 930,
      "▁lap": 931,
      "▁lum": 932,
      "ar.": 933,
      "▁ngelakoni": 934,
      "▁sum": 935,
      "▁kur": 936,
      "▁pad": 937,
      "▁banget.": 938,
      "ung.": 939,
      "oro,": 940,
      "angsul": 941,
      "▁melu": 942,
      "▁Raden": 943,
      "▁Prabu": 944,
      "▁jen": 945,
      "▁luwe": 946,
      "▁kin": 947,
      "ajan": 948,
      "▁marai": 949,
      "▁beb": 950,
      "ati,": 951,
      "en,": 952,
      "▁mant": 953,
      "ian": 954,
      "▁kew": 955,
      "isan": 956,
      "▁kek": 957,
      "▁bener": 958,
      "▁sosi": 959,
      "uju": 960,
      "▁kot": 961,
      "ura": 962,
      "▁sat": 963,
      "ma": 964,
      "▁lajeng": 965,
      "is.": 966,
      "ilm": 967,
      "embang": 968,
      "acara": 969,
      "▁pengen": 970,
      "▁kak": 971,
      "▁malah": 972,
      "▁Ian": 973,
      "in,": 974,
      "owe": 975,
      "▁20": 976,
      "▁teng": 977,
      "▁So": 978,
      "▁uwong": 979,
      "'e": 980,
      "art": 981,
      "▁ngomong": 982,
      "ise": 983,
      "ina": 984,
      "▁liyane.": 985,
      "▁lag": 986,
      "▁tur": 987,
      "rat": 988,
      "▁panc": 989,
      "▁dij": 990,
      "▁des": 991,
      "itik": 992,
      "▁ul": 993,
      "▁dal": 994,
      "ehi": 995,
      "epet": 996,
      "-t": 997,
      "▁ged": 998,
      "aga": 999,
      "inter": 1000,
      "▁suwe": 1001,
      "uy": 1002,
      "ener": 1003,
      "ha": 1004,
      "line": 1005,
      "▁res": 1006,
      "ur,": 1007,
      "asio": 1008,
      "▁akhire": 1009,
      "▁cilik": 1010,
      "▁de": 1011,
      "▁ram": 1012,
      "▁ngr": 1013,
      "ar,": 1014,
      "urit": 1015,
      "▁dhewe.": 1016,
      "▁negoro": 1017,
      "▁polahe": 1018,
      "▁mulai": 1019,
      "▁4": 1020,
      "▁diw": 1021,
      "▁kula": 1022,
      "as,": 1023,
      "emen": 1024,
      "ampung": 1025,
      "▁dilakoni": 1026,
      "▁pak": 1027,
      "▁ngad": 1028,
      "sun": 1029,
      "▁gun": 1030,
      "▁tangg": 1031,
      "▁ngew": 1032,
      "▁bareng": 1033,
      "ur.": 1034,
      "▁supaya": 1035,
      "ipun,": 1036,
      "▁kag": 1037,
      "arah": 1038,
      "gih": 1039,
      "▁gar": 1040,
      "▁golek": 1041,
      "▁tr": 1042,
      "▁pert": 1043,
      "▁dod": 1044,
      "▁ngand": 1045,
      "ampah": 1046,
      "▁kanca": 1047,
      "▁Dheweke": 1048,
      "▁mis": 1049,
      "ilan": 1050,
      "angsa": 1051,
      "▁sik": 1052,
      "enal": 1053,
      "▁bentuk": 1054,
      "uri": 1055,
      "▁el": 1056,
      "iwit": 1057,
      "disi": 1058,
      "▁usah": 1059,
      "▁ant": 1060,
      "lam": 1061,
      "▁ndelok": 1062,
      "▁marakno": 1063,
      "▁konco": 1064,
      "▁banyu": 1065,
      "▁semb": 1066,
      "▁kenek": 1067,
      "▁sosial": 1068,
      "▁ten": 1069,
      "▁way": 1070,
      "▁dir": 1071,
      "▁gelem": 1072,
      "jeng": 1073,
      "arta": 1074,
      "ic": 1075,
      "et.": 1076,
      "aja": 1077,
      "ing.": 1078,
      "uk,": 1079,
      "▁negara": 1080,
      "▁nar": 1081,
      "▁Ag": 1082,
      "man": 1083,
      "▁Mas": 1084,
      "▁ngend": 1085,
      "▁ent": 1086,
      "▁sw": 1087,
      "▁mun": 1088,
      "odh": 1089,
      "▁Sek": 1090,
      "masuk": 1091,
      "▁sr": 1092,
      "uan": 1093,
      "fa": 1094,
      "▁kok": 1095,
      "enc": 1096,
      "▁taun": 1097,
      "▁bel": 1098,
      "▁iku,": 1099,
      "▁termasuk": 1100,
      "▁nggawe": 1101,
      "ingan": 1102,
      "▁rasane": 1103,
      "▁angel": 1104,
      "ikan": 1105,
      "onal": 1106,
      "▁jal": 1107,
      "imbang": 1108,
      "akt": 1109,
      "ust": 1110,
      "▁rak": 1111,
      "▁Mangk": 1112,
      "▁mau.": 1113,
      "ei": 1114,
      "ram": 1115,
      "endh": 1116,
      "▁Per": 1117,
      "▁5": 1118,
      "▁gum": 1119,
      "okno": 1120,
      "▁jar": 1121,
      "▁nalika": 1122,
      "▁wedi": 1123,
      "ure": 1124,
      "▁Is": 1125,
      "di": 1126,
      "▁pl": 1127,
      "▁rasa": 1128,
      "olog": 1129,
      "iji,": 1130,
      "yi": 1131,
      "▁film": 1132,
      "angkung": 1133,
      "▁Ora": 1134,
      "▁du": 1135,
      "▁aja": 1136,
      "ongk": 1137,
      "▁sap": 1138,
      "uk.": 1139,
      "▁kowe": 1140,
      "on.": 1141,
      "▁dene": 1142,
      "in.": 1143,
      "usan": 1144,
      "▁milih": 1145,
      "▁bl": 1146,
      "▁tra": 1147,
      "▁[": 1148,
      "awuh": 1149,
      "▁menyang": 1150,
      "▁seb": 1151,
      "▁Sur": 1152,
      "ora": 1153,
      "elas": 1154,
      "▁ngl": 1155,
      "▁loro": 1156,
      "adah": 1157,
      "ekake": 1158,
      "▁koncoku": 1159,
      "AM": 1160,
      "egi": 1161,
      "-g": 1162,
      "uwun": 1163,
      "nya": 1164,
      "▁pam": 1165,
      "▁pancen": 1166,
      "6.": 1167,
      "▁[U": 1168,
      "▁kec": 1169,
      "er.": 1170,
      "▁nget": 1171,
      "▁Sa": 1172,
      "▁pat": 1173,
      "▁Sen": 1174,
      "-bocah": 1175,
      "arn": 1176,
      "ara,": 1177,
      "▁dina": 1178,
      "onc": 1179,
      "▁awake": 1180,
      "▁gedhe": 1181,
      "▁biyen": 1182,
      "▁jenis": 1183,
      "!\"": 1184,
      "ine.": 1185,
      "iye": 1186,
      "▁dhuw": 1187,
      "upuk": 1188,
      "areng": 1189,
      "▁min": 1190,
      "iyan": 1191,
      "▁wekt": 1192,
      "anan": 1193,
      "▁masalah": 1194,
      "agian": 1195,
      "yarak": 1196,
      "ek.": 1197,
      "▁bat": 1198,
      "adyan": 1199,
      "▁sinau": 1200,
      "▁rum": 1201,
      "▁Mbah": 1202,
      "▁pend": 1203,
      "on,": 1204,
      "▁mek": 1205,
      "▁pikir": 1206,
      "▁cepet": 1207,
      "▁saik": 1208,
      "▁Patih": 1209,
      "▁kadang": 1210,
      "▁Indonesi": 1211,
      "ena": 1212,
      "erint": 1213,
      "usti": 1214,
      "▁carane": 1215,
      "▁pasti": 1216,
      "▁ob": 1217,
      "▁mlebu": 1218,
      "7.": 1219,
      "▁st": 1220,
      "▁mir": 1221,
      "ining": 1222,
      "▁putra": 1223,
      "ongan": 1224,
      "anggep": 1225,
      "▁perc": 1226,
      "ulan": 1227,
      "▁mest": 1228,
      "yo": 1229,
      "▁ngaj": 1230,
      "it.": 1231,
      "▁seg": 1232,
      "▁kab": 1233,
      "lah": 1234,
      "eri": 1235,
      "▁Kang": 1236,
      "▁un": 1237,
      "▁Mer": 1238,
      "▁masyarak": 1239,
      "▁tahun": 1240,
      "▁agama": 1241,
      "lik": 1242,
      "▁reg": 1243,
      "anira": 1244,
      "8.": 1245,
      "ingin": 1246,
      "▁iku.": 1247,
      "angun": 1248,
      "▁gur": 1249,
      "▁kena": 1250,
      "▁kud": 1251,
      "▁durunge": 1252,
      "uh,": 1253,
      "▁liya": 1254,
      "▁win": 1255,
      "eka": 1256,
      "ukum": 1257,
      "ana,": 1258,
      "▁pand": 1259,
      "iti": 1260,
      "elu,": 1261,
      "▁Nag": 1262,
      "angka,": 1263,
      "▁maneh.": 1264,
      "▁metu": 1265,
      "▁ngal": 1266,
      "▁kuwi,": 1267,
      "ila": 1268,
      "▁anyar": 1269,
      "9.": 1270,
      "ok.": 1271,
      "onton": 1272,
      "▁ngarep": 1273,
      "▁adh": 1274,
      "amel": 1275,
      "▁perl": 1276,
      "▁kurang": 1277,
      "▁nump": 1278,
      "mi": 1279,
      "▁sir": 1280,
      "▁Bu": 1281,
      "▁\"K": 1282,
      "▁tul": 1283,
      "eng.": 1284,
      "us,": 1285,
      "ambi": 1286,
      "ake.": 1287,
      "▁kac": 1288,
      "ih.": 1289,
      "enehi": 1290,
      "...": 1291,
      "esi": 1292,
      "abi": 1293,
      "▁kene": 1294,
      "▁meg": 1295,
      "ro": 1296,
      "▁kath": 1297,
      "▁pirang": 1298,
      "-d": 1299,
      "▁ir": 1300,
      "awang": 1301,
      "▁hal": 1302,
      "▁enak": 1303,
      "▁At": 1304,
      "▁dino": 1305,
      "ide": 1306,
      "▁sun": 1307,
      "▁and": 1308,
      "eran": 1309,
      "▁inggih": 1310,
      "-c": 1311,
      "era": 1312,
      "eki": 1313,
      "oning": 1314,
      "ER": 1315,
      "▁la": 1316,
      "▁lawan": 1317,
      "ele": 1318,
      "riya": 1319,
      "ingi": 1320,
      "eth": 1321,
      "ira,": 1322,
      "▁endi": 1323,
      "ikno": 1324,
      "▁nge": 1325,
      "▁ngur": 1326,
      "ukur": 1327,
      "▁adat": 1328,
      "uang": 1329,
      "▁lak": 1330,
      "▁lem": 1331,
      "oni": 1332,
      "▁As": 1333,
      "▁Akeh": 1334,
      "▁kun": 1335,
      "▁pes": 1336,
      "▁asline": 1337,
      "▁str": 1338,
      "▁bud": 1339,
      "▁pemerint": 1340,
      "▁kota": 1341,
      "▁wad": 1342,
      "ore": 1343,
      "▁Jak": 1344,
      "▁alam": 1345,
      "▁adoh": 1346,
      "▁mod": 1347,
      "▁prapt": 1348,
      "▁saj": 1349,
      "aks": 1350,
      "▁butuh": 1351,
      "it,": 1352,
      "us.": 1353,
      "▁ngunu": 1354,
      "▁dew": 1355,
      "ism": 1356,
      "▁Kabeh": 1357,
      "▁up": 1358,
      "jid": 1359,
      "▁Kamangka,": 1360,
      "▁Mangkane": 1361,
      "ki": 1362,
      "▁garai": 1363,
      "ukan": 1364,
      "▁tut": 1365,
      "▁Men": 1366,
      "▁Sem": 1367,
      "▁mang": 1368,
      "▁nganti": 1369,
      "▁Banjur": 1370,
      "obot": 1371,
      "▁Nanging,": 1372,
      "▁dadekno": 1373,
      "2.": 1374,
      "▁mungg": 1375,
      "▁dening": 1376,
      "▁sikil": 1377,
      "ase": 1378,
      "imbah": 1379,
      "▁Soale": 1380,
      "▁de'e": 1381,
      "▁Dr": 1382,
      "▁media": 1383,
      "akhir": 1384,
      "uweni": 1385,
      "irang": 1386,
      "▁matur": 1387,
      "▁bay": 1388,
      "▁pengg": 1389,
      "▁tanpa": 1390,
      "▁bocah-bocah": 1391,
      "▁meng": 1392,
      "ebut": 1393,
      "▁kalih": 1394,
      "ite": 1395,
      "▁umum": 1396,
      "▁tep": 1397,
      "▁kum": 1398,
      "ito": 1399,
      "▁omahe": 1400,
      "▁mesthi": 1401,
      "rah": 1402,
      "▁ped": 1403,
      "ike": 1404,
      "orm": 1405,
      "00": 1406,
      "ukup": 1407,
      "oduk": 1408,
      "▁menungs": 1409,
      "▁panggonan": 1410,
      "▁macem": 1411,
      "AME": 1412,
      "SER": 1413,
      "▁Sup": 1414,
      "▁Kap": 1415,
      "dha": 1416,
      "▁[USER": 1417,
      "▁[USERN": 1418,
      "-r": 1419,
      "▁lah": 1420,
      "ond": 1421,
      "▁cont": 1422,
      "▁lagu": 1423,
      "▁[USERNAME": 1424,
      "1.": 1425,
      "▁bing": 1426,
      "▁nata": 1427,
      "▁tib": 1428,
      "▁Ning": 1429,
      "▁kerep": 1430,
      "▁[USERNAME]": 1431,
      "st": 1432,
      "▁mati": 1433,
      "▁ratu": 1434,
      "iri": 1435,
      "▁sur": 1436,
      "asar": 1437,
      "▁yoiku": 1438,
      "▁ngeroso": 1439,
      "▁punika": 1440,
      "▁em": 1441,
      "inan": 1442,
      "▁Ang": 1443,
      "ologi": 1444,
      "ika,": 1445,
      "▁Put": 1446,
      "▁Neng": 1447,
      "▁terk": 1448,
      "engi": 1449,
      "▁kepeng": 1450,
      "▁alat": 1451,
      "▁prabu": 1452,
      "▁biasa": 1453,
      "ange": 1454,
      "▁bah": 1455,
      "ungu": 1456,
      "▁ibu": 1457,
      "▁sit": 1458,
      "▁dalan": 1459,
      "▁budh": 1460,
      "▁suw": 1461,
      "▁kend": 1462,
      "▁deke": 1463,
      "▁sisan": 1464,
      "▁duk": 1465,
      "▁Raja": 1466,
      "sah": 1467,
      "▁boten": 1468,
      "▁saged": 1469,
      "▁kelu": 1470,
      "▁sekit": 1471,
      "▁kelas": 1472,
      "▁pah": 1473,
      "▁wit": 1474,
      "oleh": 1475,
      "▁mlaku": 1476,
      "▁su": 1477,
      "una": 1478,
      "3.": 1479,
      "▁er": 1480,
      "▁kuli": 1481,
      "▁ngono,": 1482,
      "▁dudu": 1483,
      "▁rong": 1484,
      "▁Ana": 1485,
      "▁Nga": 1486,
      "▁acara": 1487,
      "▁dun": 1488,
      "▁nem": 1489,
      "▁lali": 1490,
      "yat": 1491,
      "▁(": 1492,
      "▁ngen": 1493,
      "▁Bag": 1494,
      "▁Jay": 1495,
      "▁tekn": 1496,
      "▁kaliyan": 1497,
      "▁bu": 1498,
      "▁tand": 1499,
      "▁kons": 1500,
      "▁Kal": 1501,
      "▁\"A": 1502,
      "▁wektu": 1503,
      "▁say": 1504,
      "▁kadh": 1505,
      "▁kanc": 1506,
      "arm": 1507,
      "▁wiwit": 1508,
      "engan": 1509,
      "4.": 1510,
      "▁mok": 1511,
      "5.": 1512,
      "▁lingk": 1513,
      "▁isek": 1514,
      "0.": 1515,
      "▁bagian": 1516,
      "▁akeh.": 1517,
      "li": 1518,
      "▁or": 1519,
      "▁Ad": 1520,
      "▁coc": 1521,
      "▁manfa": 1522,
      "▁bedo": 1523,
      "▁engg": 1524,
      "▁wau": 1525,
      "ut.": 1526,
      "▁katon": 1527,
      "▁enom": 1528,
      "▁numpak": 1529,
      "▁kor": 1530,
      "▁ud": 1531,
      "aya,": 1532,
      "▁dolanan": 1533,
      "ekan": 1534,
      "▁Sar": 1535,
      "▁Pr": 1536,
      "▁Yo": 1537,
      "▁komp": 1538,
      "▁Saiki": 1539,
      "onan": 1540,
      "ulu": 1541,
      "▁se": 1542,
      "▁ingsun": 1543,
      "▁kerja": 1544,
      "▁dar": 1545,
      "▁lung": 1546,
      "ujud": 1547,
      "▁apik.": 1548,
      "▁wae.": 1549,
      "ale,": 1550,
      "ara.": 1551,
      "ogo": 1552,
      "▁praj": 1553,
      "top": 1554,
      "▁ment": 1555,
      "▁mikir": 1556,
      "acem": 1557,
      "▁sering": 1558,
      "▁elek": 1559,
      "▁entuk": 1560,
      "ist": 1561,
      "olah": 1562,
      "tif": 1563,
      "▁ketok": 1564,
      "engko": 1565,
      "▁jero": 1566,
      "▁bum": 1567,
      "▁bahan": 1568,
      "▁cr": 1569,
      "▁mboten": 1570,
      "▁kedaden": 1571,
      "▁sejarah": 1572,
      "ui": 1573,
      "▁pap": 1574,
      "▁lir": 1575,
      "▁Bi": 1576,
      "▁dodolan": 1577,
      "yai": 1578,
      "▁kados": 1579,
      "amu": 1580,
      "eng,": 1581,
      "okake": 1582,
      "▁Mul": 1583,
      "▁hub": 1584,
      "er,": 1585,
      "▁wangsul": 1586,
      "etna": 1587,
      "uma": 1588,
      "▁Dew": 1589,
      "▁kudune": 1590,
      "▁kej": 1591,
      "ino": 1592,
      "omp": 1593,
      "▁ati": 1594,
      "ata,": 1595,
      "ambut": 1596,
      "▁Bar": 1597,
      "▁Dan": 1598,
      "ekel": 1599,
      "inggir": 1600,
      "▁masyarakat": 1601,
      "uhan": 1602,
      "▁perlu": 1603,
      "▁buk": 1604,
      "ajaran": 1605,
      "ku,": 1606,
      "▁gamb": 1607,
      "▁pirang-p": 1608,
      "ruk": 1609,
      "▁lampah": 1610,
      "▁wisata": 1611,
      "▁atur": 1612,
      "▁i": 1613,
      "▁mi": 1614,
      "▁badh": 1615,
      "isik": 1616,
      "ok,": 1617,
      "▁Indonesia.": 1618,
      "usi": 1619,
      "▁ren": 1620,
      "▁jum": 1621,
      "▁Bapak": 1622,
      "▁Lah": 1623,
      "▁produk": 1624,
      "▁ndek": 1625,
      "▁penyak": 1626,
      "▁kewan": 1627,
      "uli": 1628,
      "▁Gusti": 1629,
      "▁tradisi": 1630,
      "oj": 1631,
      "aki": 1632,
      "unj": 1633,
      "epi": 1634,
      "iyang": 1635,
      "▁dados": 1636,
      "▁seh": 1637,
      "ada": 1638,
      "▁awit": 1639,
      "akoke": 1640,
      "tai": 1641,
      "▁omah.": 1642,
      "▁khas": 1643,
      "▁es": 1644,
      "▁anj": 1645,
      "▁menika": 1646,
      "anak": 1647,
      "▁Ibu": 1648,
      "▁ij": 1649,
      "▁ndh": 1650,
      "ugi": 1651,
      "▁malih": 1652,
      "▁wayah": 1653,
      "▁pemerintah": 1654,
      "yah": 1655,
      "▁pemb": 1656,
      "▁wan": 1657,
      "iturut": 1658,
      "▁mungk": 1659,
      "▁kate": 1660,
      "unggal": 1661,
      "▁bin": 1662,
      "istr": 1663,
      "uci": 1664,
      "▁sus": 1665,
      "▁rah": 1666,
      "▁jaj": 1667,
      "ku.": 1668,
      "▁Loro,": 1669,
      "▁mari": 1670,
      "▁masio": 1671,
      "uta": 1672,
      "▁roso": 1673,
      "▁TV": 1674,
      "▁kanca-k": 1675,
      "▁kathah": 1676,
      "one.": 1677,
      "▁uj": 1678,
      "arti": 1679,
      "▁datan": 1680,
      "▁pant": 1681,
      "▁timbang": 1682,
      "ati.": 1683,
      "otel": 1684,
      "▁pos": 1685,
      "▁liw": 1686,
      "▁ngent": 1687,
      "ini": 1688,
      "-ng": 1689,
      "▁nora": 1690,
      "▁Siji,": 1691,
      "anggih": 1692,
      "-macem": 1693,
      "▁mut": 1694,
      "amun": 1695,
      "▁On": 1696,
      "▁uripe": 1697,
      "▁laptop": 1698,
      "▁kit": 1699,
      "angan.": 1700,
      "▁peg": 1701,
      "or.": 1702,
      "endra": 1703,
      "▁dewe.": 1704,
      "▁gunung": 1705,
      "ahas": 1706,
      "aluk": 1707,
      "▁Ib": 1708,
      "▁nggolek": 1709,
      "▁ngis": 1710,
      "ult": 1711,
      "angge": 1712,
      "▁Ngast": 1713,
      "likasi": 1714,
      "ans": 1715,
      "▁paw": 1716,
      "▁rat": 1717,
      "▁lanang": 1718,
      "a.\"": 1719,
      "▁saben": 1720,
      "▁tengah": 1721,
      "▁bapak": 1722,
      "▁law": 1723,
      "▁cukup": 1724,
      "▁peny": 1725,
      "▁desa": 1726,
      "▁Kaping": 1727,
      "aten": 1728,
      "▁re": 1729,
      "▁rus": 1730,
      "ir,": 1731,
      "▁nduweni": 1732,
      "▁sarta": 1733,
      "undang": 1734,
      "▁cocok": 1735,
      "▁rame": 1736,
      "▁kamp": 1737,
      "uni": 1738,
      "et,": 1739,
      "▁Iki": 1740,
      "wi": 1741,
      "▁don": 1742,
      "▁nonton": 1743,
      "▁takon": 1744,
      "▁wat": 1745,
      "ut,": 1746,
      "ine,": 1747,
      "▁angl": 1748,
      "▁sesu": 1749,
      "▁Amarga": 1750,
      "alih": 1751,
      "▁jaw": 1752,
      "▁Kur": 1753,
      "▁HP": 1754,
      "▁tim": 1755,
      "▁ngeb": 1756,
      "ya.": 1757,
      "ong.": 1758,
      "▁Kar": 1759,
      "oba": 1760,
      "▁kono.": 1761,
      "arg": 1762,
      "▁wedh": 1763,
      "▁Saw": 1764,
      "▁Nang": 1765,
      "▁iw": 1766,
      "▁ind": 1767,
      "▁ding": 1768,
      "▁ae.": 1769,
      "-n": 1770,
      "▁pej": 1771,
      "▁pinter": 1772,
      "▁arek": 1773,
      "▁gelek": 1774,
      "▁rem": 1775,
      "angkat": 1776,
      "▁tokoh": 1777,
      "▁prapta": 1778,
      "▁dag": 1779,
      "▁macem-macem": 1780,
      "▁pirang-pirang": 1781,
      "▁Jawa": 1782,
      "▁ngewenehi": 1783,
      "unge": 1784,
      "▁kut": 1785,
      "▁SM": 1786,
      "▁Telu,": 1787,
      "▁ketemu": 1788,
      "▁resik": 1789,
      "isme": 1790,
      "hol": 1791,
      "▁kay": 1792,
      "ungi": 1793,
      "iro": 1794,
      "▁Pandh": 1795,
      "▁masak": 1796,
      "▁putr": 1797,
      "▁kandh": 1798,
      "angane": 1799,
      "enan": 1800,
      "▁ner": 1801,
      "es.": 1802,
      "▁Kanggo": 1803,
      "▁Mak": 1804,
      "▁kuwi.": 1805,
      "▁teka": 1806,
      "▁patih": 1807,
      "▁nom": 1808,
      "▁ot": 1809,
      "ayan": 1810,
      "▁Ngab": 1811,
      "▁prajurit": 1812,
      "ni": 1813,
      "▁lim": 1814,
      "angga": 1815,
      "edi": 1816,
      "ebet": 1817,
      "▁Jaka": 1818,
      "▁ate": 1819,
      "▁disik": 1820,
      "-opo": 1821,
      "arani": 1822,
      "ulur": 1823,
      "▁Mergo": 1824,
      "bah": 1825,
      "▁eks": 1826,
      "ong,": 1827,
      "▁cin": 1828,
      "▁berk": 1829,
      "▁tuwin": 1830,
      "▁kawula": 1831,
      "▁gede": 1832,
      "▁badhe": 1833,
      "▁suk": 1834,
      "asi.": 1835,
      "enge": 1836,
      "el.": 1837,
      "il,": 1838,
      "▁Jog": 1839,
      "▁terkenal": 1840,
      "▁Onok": 1841,
      "angu": 1842,
      "▁pilih": 1843,
      "▁dianggep": 1844,
      "jian": 1845,
      "▁mesin": 1846,
      "▁sekitar": 1847,
      "▁ne": 1848,
      "ek,": 1849,
      "uke": 1850,
      "▁dim": 1851,
      "▁Pap": 1852,
      "▁Nabi": 1853,
      "ebul": 1854,
      "▁ngandika": 1855,
      "▁Biasane": 1856,
      "NG": 1857,
      "▁temp": 1858,
      "▁waj": 1859,
      "▁jag": 1860,
      "▁opo-opo": 1861,
      "▁bant": 1862,
      "▁warga": 1863,
      "awa,": 1864,
      "esan": 1865,
      "ewan": 1866,
      "▁iya": 1867,
      "ars": 1868,
      "▁buku": 1869,
      "▁gr": 1870,
      "eta": 1871,
      "▁rup": 1872,
      "▁Para": 1873,
      "ipun.": 1874,
      "adhah": 1875,
      "▁art": 1876,
      "▁saiki,": 1877,
      "▁samb": 1878,
      "▁pis": 1879,
      "ampur": 1880,
      "▁ngerasa": 1881,
      "▁kono,": 1882,
      "▁partai": 1883,
      "▁kamar": 1884,
      "egiatan": 1885,
      "▁meh": 1886,
      "▁listr": 1887,
      "▁godh": 1888,
      "▁kerjo": 1889,
      "▁supoyo": 1890,
      "▁sawij": 1891,
      "▁ngil": 1892,
      "▁gen": 1893,
      "etan": 1894,
      "▁komun": 1895,
      "▁Drus": 1896,
      "▁Sab": 1897,
      "use": 1898,
      "▁aneng": 1899,
      "▁\"S": 1900,
      "▁raja": 1901,
      "▁raden": 1902,
      "▁liwat": 1903,
      "▁sapa": 1904,
      "▁Sunan": 1905,
      "ute": 1906,
      "uh.": 1907,
      "▁In": 1908,
      "▁samya": 1909,
      "▁duwur": 1910,
      "▁sas": 1911,
      "▁seng": 1912,
      "▁nut": 1913,
      "amane": 1914,
      "ungane": 1915,
      "il.": 1916,
      "▁mbok": 1917,
      "inggu": 1918,
      "▁mlayu": 1919,
      "▁bang": 1920,
      "▁tug": 1921,
      "▁nulya": 1922,
      "▁maj": 1923,
      "alaman": 1924,
      "em.": 1925,
      "udi": 1926,
      "ucap": 1927,
      "kan": 1928,
      "arep": 1929,
      "ikane": 1930,
      "enggo": 1931,
      "▁Pen": 1932,
      "▁cek": 1933,
      "▁pinggir": 1934,
      "un.": 1935,
      "▁Sel": 1936,
      "utan": 1937,
      "▁isine": 1938,
      "▁kerj": 1939,
      "▁keseh": 1940,
      "▁penyakit": 1941,
      "▁inter": 1942,
      "▁kand": 1943,
      "angan,": 1944,
      "edhak": 1945,
      "▁kantor": 1946,
      "▁br": 1947,
      "▁bol": 1948,
      "alem": 1949,
      "▁Pan": 1950,
      "erapa": 1951,
      "▁rod": 1952,
      "ir.": 1953,
      "▁pros": 1954,
      "▁anggone": 1955,
      "▁pelajaran": 1956,
      "▁mungkin": 1957,
      "▁larang": 1958,
      "anth": 1959,
      "▁aplikasi": 1960,
      "▁Opo": 1961,
      "▁gag": 1962,
      "inggal": 1963,
      "▁cerito": 1964,
      "▁menungso": 1965,
      "▁ew": 1966,
      "ereng": 1967,
      "alu": 1968,
      "▁nged": 1969,
      "eman": 1970,
      "iyos": 1971,
      "ade": 1972,
      "▁geg": 1973,
      "▁Sal": 1974,
      "uki": 1975,
      "inten": 1976,
      "▁Dewi": 1977,
      "ert": 1978,
      "okter": 1979,
      "▁maks": 1980,
      "▁vide": 1981,
      "a-": 1982,
      "▁mam": 1983,
      "▁Kad": 1984,
      "iau": 1985,
      "▁mil": 1986,
      "ern": 1987,
      "ogyak": 1988,
      "▁sisan.": 1989,
      "▁maleh": 1990,
      "▁beberapa": 1991,
      "▁kakang": 1992,
      "▁Sri": 1993,
      "iran": 1994,
      "▁bingung": 1995,
      "▁pur": 1996,
      "idul": 1997,
      "▁Akhire": 1998,
      "▁gere": 1999,
      "▁pol.": 2000,
      "▁dah": 2001,
      "anda": 2002,
      "▁ngelakoke": 2003,
      "▁kebutuh": 2004,
      "ban": 2005,
      "▁sah": 2006,
      "▁mu": 2007,
      "▁ngatur": 2008,
      "▁Mari": 2009,
      "▁politik": 2010,
      "ain": 2011,
      "▁kegiatan": 2012,
      "alang": 2013,
      "ame": 2014,
      "▁temen": 2015,
      "▁car": 2016,
      "andika": 2017,
      "▁nyer": 2018,
      "▁nyel": 2019,
      "-konc": 2020,
      "ov": 2021,
      "▁mend": 2022,
      "ere": 2023,
      "▁to": 2024,
      "▁langkung": 2025,
      "eda": 2026,
      "ajah": 2027,
      "▁njer": 2028,
      "▁sadaya": 2029,
      "▁usaha": 2030,
      "▁it": 2031,
      "▁mob": 2032,
      "▁nambah": 2033,
      "▁arsa": 2034,
      "▁omb": 2035,
      "ari,": 2036,
      "▁ngant": 2037,
      "akhir,": 2038,
      "▁bedh": 2039,
      "ilaw": 2040,
      "▁Pit": 2041,
      "▁Padah": 2042,
      "oco": 2043,
      "▁19": 2044,
      "▁ngunuku": 2045,
      "-al": 2046,
      "▁papan": 2047,
      "▁tiyang": 2048,
      "enira": 2049,
      "▁V": 2050,
      "▁dol": 2051,
      "▁mot": 2052,
      "▁pep": 2053,
      "▁leg": 2054,
      "▁lay": 2055,
      "▁ayo": 2056,
      "▁ojo": 2057,
      "▁robot": 2058,
      "▁andh": 2059,
      "▁\"I": 2060,
      "atif": 2061,
      "▁warna": 2062,
      "rek": 2063,
      "▁pul": 2064,
      "▁bec": 2065,
      "▁tik": 2066,
      "▁temb": 2067,
      "▁wil": 2068,
      "ungsa": 2069,
      "▁Sangk": 2070,
      "▁Tek": 2071,
      "▁rada": 2072,
      "ongkon": 2073,
      "▁keluarga": 2074,
      "-j": 2075,
      "unung": 2076,
      "el,": 2077,
      "▁Kr": 2078,
      "▁dhew": 2079,
      "anira,": 2080,
      "▁Drusilaw": 2081,
      "af": 2082,
      "▁wonge": 2083,
      "▁perj": 2084,
      "▁Islam": 2085,
      "▁kuliah": 2086,
      "▁dinggo": 2087,
      "arno": 2088,
      "▁lel": 2089,
      "undh": 2090,
      "adi,": 2091,
      "▁gor": 2092,
      "▁Sam": 2093,
      "▁Tan": 2094,
      "▁konco-konc": 2095,
      "da": 2096,
      "▁bag": 2097,
      "alik": 2098,
      "▁tuk": 2099,
      "ima": 2100,
      "andur": 2101,
      "▁hasil": 2102,
      "-liy": 2103,
      "▁megilan": 2104,
      "arik": 2105,
      "▁piye": 2106,
      "▁Mis": 2107,
      "idang": 2108,
      "▁sist": 2109,
      "ua": 2110,
      "▁sumb": 2111,
      "aras": 2112,
      "▁dur": 2113,
      "▁nasi": 2114,
      "▁lomb": 2115,
      "▁gin": 2116,
      "apno": 2117,
      "ulya": 2118,
      "▁sig": 2119,
      "▁keloro,": 2120,
      "▁intern": 2121,
      "▁sp": 2122,
      "rab": 2123,
      "▁anake": 2124,
      "▁Om": 2125,
      "▁didol": 2126,
      "▁klambi": 2127,
      "▁eroh": 2128,
      "▁iwak": 2129,
      "▁dek": 2130,
      "uwus": 2131,
      "▁jelas": 2132,
      "▁any": 2133,
      "▁atek": 2134,
      "▁tent": 2135,
      "▁lu": 2136,
      "▁lib": 2137,
      "▁didelok": 2138,
      "▁sistem": 2139,
      "▁tangan": 2140,
      "▁was": 2141,
      "▁guru": 2142,
      "em,": 2143,
      "▁Pang": 2144,
      "oran": 2145,
      "▁Ben": 2146,
      "▁perusah": 2147,
      "▁Arya": 2148,
      "▁ngalami": 2149,
      "▁mont": 2150,
      "ama,": 2151,
      "▁lamp": 2152,
      "ori": 2153,
      "▁Jar": 2154,
      "▁apik,": 2155,
      "▁teknologi": 2156,
      "▁keg": 2157,
      "▁lara": 2158,
      "▁hotel": 2159,
      "▁kondisi": 2160,
      "▁njupuk": 2161,
      "ultan": 2162,
      "▁sec": 2163,
      "▁wani": 2164,
      "uti": 2165,
      "ilai": 2166,
      "ort": 2167,
      "▁piranti": 2168,
      "ken": 2169,
      "▁sant": 2170,
      "akeh": 2171,
      "▁pisan": 2172,
      "▁nik": 2173,
      "ina,": 2174,
      "▁gl": 2175,
      "▁ndi": 2176,
      "▁masjid": 2177,
      "▁jawab": 2178,
      "▁rodok": 2179,
      "ring": 2180,
      "▁ki": 2181,
      "akone": 2182,
      "▁mand": 2183,
      "▁tata": 2184,
      "uning": 2185,
      "▁gat": 2186,
      "▁menawa": 2187,
      "▁penggawe": 2188,
      "▁lingkungan": 2189,
      "of": 2190,
      "roning": 2191,
      "▁ugi": 2192,
      "▁hukum": 2193,
      "▁ngeras": 2194,
      "▁pengin": 2195,
      "▁musik": 2196,
      "▁Agung": 2197,
      "Dh": 2198,
      "rol": 2199,
      "▁nemb": 2200,
      "▁ty": 2201,
      "▁jemp": 2202,
      "▁Wis": 2203,
      "▁dum": 2204,
      "▁pac": 2205,
      "▁buka": 2206,
      "▁Sin": 2207,
      "iring": 2208,
      "▁Bah": 2209,
      "▁merg": 2210,
      "▁Ono": 2211,
      "anipun,": 2212,
      "▁kaget": 2213,
      "▁dana": 2214,
      "▁bali": 2215,
      "eleh": 2216,
      "▁dienggo": 2217,
      "▁Dar": 2218,
      "▁Wus": 2219,
      "▁pengalaman": 2220,
      "enggah": 2221,
      "▁abot": 2222,
      "▁bentuke": 2223,
      "rang": 2224,
      "▁sih": 2225,
      "arake": 2226,
      "eki,": 2227,
      "apake": 2228,
      "▁Yogyak": 2229,
      "▁sagung": 2230,
      "▁jarene": 2231,
      "gan": 2232,
      "▁angk": 2233,
      "▁tari": 2234,
      "▁wayang": 2235,
      "▁ngej": 2236,
      "▁diarani": 2237,
      "epe": 2238,
      "▁Ab": 2239,
      "▁liyan": 2240,
      "▁ilang": 2241,
      "▁dodol": 2242,
      "▁manfaat": 2243,
      "rik": 2244,
      "▁sri": 2245,
      "ari.": 2246,
      "▁miturut": 2247,
      "▁boc": 2248,
      "asa,": 2249,
      "iswa": 2250,
      "▁gul": 2251,
      "▁Bel": 2252,
      "ampun": 2253,
      "▁liyo": 2254,
      "▁foto": 2255,
      "▁Cara": 2256,
      "▁njaluk": 2257,
      "▁satriya": 2258,
      "▁godhong": 2259,
      "na,": 2260,
      "▁kangge": 2261,
      "▁bek": 2262,
      "▁Simbah": 2263,
      "▁kond": 2264,
      "▁njaga": 2265,
      "▁weruh": 2266,
      "encana": 2267,
      "▁stres": 2268,
      ",\"": 2269,
      "▁teg": 2270,
      "▁tuju": 2271,
      "▁rampung": 2272,
      "▁retna": 2273,
      "▁Mad": 2274,
      "▁tradisional": 2275,
      "▁Papat,": 2276,
      "-end": 2277,
      "▁e.": 2278,
      "ebab": 2279,
      "▁ujian": 2280,
      "aya.": 2281,
      "▁maring": 2282,
      "▁sareng": 2283,
      "▁kanca-kanc": 2284,
      "ana.": 2285,
      "ahi": 2286,
      "▁lin": 2287,
      "eling": 2288,
      "irim": 2289,
      "▁Pam": 2290,
      "araan": 2291,
      "▁Allah": 2292,
      "▁khus": 2293,
      "▁werno": 2294,
      "▁paham": 2295,
      "huk": 2296,
      "▁masa": 2297,
      "▁pus": 2298,
      "▁band": 2299,
      "▁gal": 2300,
      "ipt": 2301,
      "▁Terakhir,": 2302,
      "▁ilmu": 2303,
      "▁sembarang": 2304,
      "e-": 2305,
      "eku": 2306,
      "itan": 2307,
      "▁201": 2308,
      "▁Mulai": 2309,
      "mp": 2310,
      "argi": 2311,
      "▁pec": 2312,
      "iru": 2313,
      "▁Brat": 2314,
      "▁maeng,": 2315,
      "pati": 2316,
      "ening": 2317,
      "asa.": 2318,
      "awa.": 2319,
      "▁Apa": 2320,
      "▁isa": 2321,
      "ayah": 2322,
      "▁nyeneng": 2323,
      "▁tok,": 2324,
      "▁toko": 2325,
      "▁kamera": 2326,
      "▁Surak": 2327,
      "▁video": 2328,
      "Aku": 2329,
      "▁pag": 2330,
      "ampil": 2331,
      "eja": 2332,
      "▁tansah": 2333,
      "▁upacara": 2334,
      "oti": 2335,
      "▁aneh": 2336,
      "▁kol": 2337,
      "▁kiw": 2338,
      "▁pandh": 2339,
      "une.": 2340,
      "▁Mal": 2341,
      "▁kars": 2342,
      "iyen": 2343,
      "arta.": 2344,
      "arna": 2345,
      "▁beng": 2346,
      "ers": 2347,
      "▁tong": 2348,
      "▁wingi": 2349,
      "▁get": 2350,
      "enth": 2351,
      "▁kali": 2352,
      "intang": 2353,
      "impen": 2354,
      "▁saiki.": 2355,
      "rak": 2356,
      "▁sul": 2357,
      "angat": 2358,
      "▁turu": 2359,
      "ambu": 2360,
      "▁cel": 2361,
      "▁Wes": 2362,
      "▁cilik.": 2363,
      "lim": 2364,
      "ti,": 2365,
      "▁shol": 2366,
      "erh": 2367,
      "▁tab": 2368,
      "awat": 2369,
      "ul,": 2370,
      "▁Nalika": 2371,
      "▁kulit": 2372,
      "▁wadya": 2373,
      "\".": 2374,
      "uangan": 2375,
      "▁adi": 2376,
      "▁...": 2377,
      "▁sanget": 2378,
      "▁sug": 2379,
      "asih": 2380,
      "▁jemb": 2381,
      "iling": 2382,
      "▁mereka": 2383,
      "▁aturan": 2384,
      "-bener": 2385,
      "▁putri": 2386,
      "resna": 2387,
      "▁ngendi": 2388,
      "▁crita": 2389,
      "AN": 2390,
      "▁kaj": 2391,
      "▁mad": 2392,
      "▁mem": 2393,
      "aton": 2394,
      "▁wakt": 2395,
      "aba": 2396,
      "▁kabeh.": 2397,
      "▁swara": 2398,
      "▁munggah": 2399,
      "▁kepengen": 2400,
      "▁hubungan": 2401,
      "yana": 2402,
      "▁unt": 2403,
      "angno": 2404,
      "▁senajan": 2405,
      "raw": 2406,
      "▁sew": 2407,
      "▁bub": 2408,
      "▁lemb": 2409,
      "▁ngomb": 2410,
      "rap": 2411,
      "▁gya": 2412,
      "▁kup": 2413,
      "itih": 2414,
      "i.\"": 2415,
      "▁10": 2416,
      "▁pikiran": 2417,
      "▁Ngabei": 2418,
      "▁meneng": 2419,
      "▁mengko": 2420,
      "▁ler": 2421,
      "ondh": 2422,
      "apa,": 2423,
      "▁Ap": 2424,
      "ikiran": 2425,
      "▁pertama": 2426,
      "▁melok": 2427,
      "▁mangsul": 2428,
      "alitas": 2429,
      "ekti": 2430,
      "▁ngin": 2431,
      "▁fungs": 2432,
      "unten": 2433,
      "▁sesuai": 2434,
      "ega": 2435,
      "eksa": 2436,
      "ask": 2437,
      "▁Ket": 2438,
      "▁wae,": 2439,
      "▁misale": 2440,
      "yaw": 2441,
      "▁san": 2442,
      "▁bos": 2443,
      "atar": 2444,
      "▁we": 2445,
      "▁ngene": 2446,
      "▁jajan": 2447,
      "▁Jaman": 2448,
      "▁hp": 2449,
      "▁mungs": 2450,
      "iwah": 2451,
      "▁tok.": 2452,
      "▁sawah": 2453,
      "▁enggal": 2454,
      "▁us": 2455,
      "inipun": 2456,
      "▁Sultan": 2457,
      "▁diri": 2458,
      "ulung": 2459,
      "▁Pet": 2460,
      "ebih": 2461,
      "▁benc": 2462,
      "▁Hal": 2463,
      "▁kenal": 2464,
      "▁kesiji,": 2465,
      "▁murid": 2466,
      "▁emp": 2467,
      "enipun": 2468,
      "▁wet": 2469,
      "antung": 2470,
      "▁Hadi": 2471,
      "▁rakyat": 2472,
      "▁endi-end": 2473,
      "luk": 2474,
      "wit": 2475,
      "▁engk": 2476,
      "▁kalah": 2477,
      "▁pa": 2478,
      "ungsi": 2479,
      "ukung": 2480,
      "ul.": 2481,
      "ungguh": 2482,
      "▁Sekar": 2483,
      "▁Sawise": 2484,
      "▁mobil": 2485,
      "▁dhewek": 2486,
      "▁kop": 2487,
      "▁moco": 2488,
      "ergi": 2489,
      "▁bisn": 2490,
      "obi": 2491,
      "▁kalebu": 2492,
      "▁Kamangka": 2493,
      "▁kebutuhan": 2494,
      "mb": 2495,
      "arap": 2496,
      "▁nab": 2497,
      "▁nuwun": 2498,
      "▁op": 2499,
      "itane": 2500,
      "▁diad": 2501,
      "▁prab": 2502,
      "▁penj": 2503,
      "▁wedok": 2504,
      "▁bener-bener": 2505,
      "▁budaya": 2506,
      "▁kitab": 2507,
      "▁secara": 2508,
      "hik": 2509,
      "lok": 2510,
      "akaken": 2511,
      "▁nam": 2512,
      "▁diaj": 2513,
      "▁akeh,": 2514,
      "▁alon": 2515,
      "▁rab": 2516,
      "▁ae,": 2517,
      "▁listrik": 2518,
      "iz": 2519,
      "▁moro": 2520,
      "▁rama": 2521,
      "▁Kyai": 2522,
      "▁krungu": 2523,
      "▁pitakone": 2524,
      "▁id": 2525,
      "am.": 2526,
      "▁ngec": 2527,
      "▁oj": 2528,
      "▁Kui": 2529,
      "▁cah": 2530,
      "▁isin": 2531,
      "ebo": 2532,
      "▁putih": 2533,
      "▁dikenal": 2534,
      "▁ngadepi": 2535,
      "▁contone": 2536,
      "▁liyan-liy": 2537,
      "form": 2538,
      "▁6": 2539,
      "▁ek": 2540,
      "▁kampung": 2541,
      "inge": 2542,
      "erc": 2543,
      "▁tamb": 2544,
      "engah": 2545,
      "▁pasar": 2546,
      "▁rayi": 2547,
      "▁penc": 2548,
      "▁gambar": 2549,
      "rih": 2550,
      "▁saya": 2551,
      "▁ko": 2552,
      "▁kayu": 2553,
      "arya": 2554,
      "▁ti": 2555,
      "▁tem": 2556,
      "atane": 2557,
      "▁ngucap": 2558,
      "ule": 2559,
      "▁sif": 2560,
      "angke": 2561,
      "▁\"M": 2562,
      "▁keris": 2563,
      "▁panas": 2564,
      "▁kadya": 2565,
      "▁ngars": 2566,
      "▁perusahaan": 2567,
      "aos": 2568,
      "▁bung": 2569,
      "usak": 2570,
      "▁ring": 2571,
      "▁pengh": 2572,
      "▁asal": 2573,
      "▁cerak": 2574,
      "▁murah": 2575,
      "▁Senajan": 2576,
      "▁percoyo": 2577,
      "▁contoh": 2578,
      "▁Putri": 2579,
      "▁proses": 2580,
      "▁dokter": 2581,
      "asi,": 2582,
      "awis": 2583,
      "ipati": 2584,
      "▁karya": 2585,
      "upati": 2586,
      "▁tert": 2587,
      "▁bers": 2588,
      "▁2.": 2589,
      "▁lunga": 2590,
      "▁njero": 2591,
      "▁fungsine": 2592,
      "le": 2593,
      "▁,": 2594,
      "▁piy": 2595,
      "▁top": 2596,
      "▁lul": 2597,
      "▁SD": 2598,
      "agai": 2599,
      "▁rin": 2600,
      "▁dhawuh": 2601,
      "▁bala": 2602,
      "▁5.": 2603,
      "▁pendid": 2604,
      "▁tar": 2605,
      "atno": 2606,
      "ados": 2607,
      "▁cuci": 2608,
      "▁amung": 2609,
      "▁\"W": 2610,
      "▁balik": 2611,
      "▁nulis": 2612,
      "▁sreng": 2613,
      "▁montor": 2614,
      "ias": 2615,
      "ak-": 2616,
      "▁dengan": 2617,
      "▁isi": 2618,
      "▁Man": 2619,
      "▁Iku": 2620,
      "▁Gunung": 2621,
      "▁maneh,": 2622,
      "▁3.": 2623,
      "impin": 2624,
      "▁pertand": 2625,
      "▁beliau": 2626,
      "▁ngurangi": 2627,
      "Ng": 2628,
      "lat": 2629,
      "let": 2630,
      "yane": 2631,
      "▁kos": 2632,
      "▁dereng": 2633,
      "▁bes": 2634,
      "▁gim": 2635,
      "anggon": 2636,
      "▁jur": 2637,
      "▁jog": 2638,
      "▁Mar": 2639,
      "▁akehe": 2640,
      "atian": 2641,
      "ahanan": 2642,
      "▁telu": 2643,
      "▁laut": 2644,
      "▁Jarene": 2645,
      "ba": 2646,
      "gal": 2647,
      "iji": 2648,
      "▁pe": 2649,
      "uripun": 2650,
      "oke.": 2651,
      "▁Kep": 2652,
      "▁ist": 2653,
      "▁Tik": 2654,
      "dhang": 2655,
      "aca": 2656,
      "▁sarwi": 2657,
      "▁mangkel": 2658,
      "▁sekolah.": 2659,
      "▁tanggal": 2660,
      "▁Seko": 2661,
      "▁ngajak": 2662,
      "▁waktu": 2663,
      "mu.": 2664,
      "aris": 2665,
      "iksa": 2666,
      "▁ngob": 2667,
      "eti": 2668,
      "▁Bocah": 2669,
      "▁siap": 2670,
      "▁pers": 2671,
      "▁diter": 2672,
      "▁males": 2673,
      "▁meneh.": 2674,
      "▁sumber": 2675,
      "▁sedh": 2676,
      "▁lang": 2677,
      "usun": 2678,
      "▁Kak": 2679,
      "▁karoan": 2680,
      "▁Reg": 2681,
      "▁\"P": 2682,
      "▁\"Y": 2683,
      "▁raj": 2684,
      "▁kump": 2685,
      "I.": 2686,
      "▁kont": 2687,
      "iki,": 2688,
      "▁nah": 2689,
      "▁tingk": 2690,
      "▁gaw": 2691,
      "▁kuc": 2692,
      "▁rek": 2693,
      "umi": 2694,
      "▁Maj": 2695,
      "▁Bal": 2696,
      "▁\"H": 2697,
      "▁\"L": 2698,
      "▁kepingin": 2699,
      "▁mulih": 2700,
      "▁umat": 2701,
      "▁Mbak": 2702,
      "▁Soale,": 2703,
      "▁Ageng": 2704,
      "ran": 2705,
      "▁pungg": 2706,
      "am,": 2707,
      "atan.": 2708,
      "▁Ban": 2709,
      "no.": 2710,
      "ayaan": 2711,
      "enengi": 2712,
      "▁\"B": 2713,
      "▁pre": 2714,
      "▁prib": 2715,
      "▁umur": 2716,
      "▁radi": 2717,
      "-dh": 2718,
      "re": 2719,
      "tu": 2720,
      "▁est": 2721,
      "▁kadi": 2722,
      "eni.": 2723,
      "▁bidang": 2724,
      "▁tam": 2725,
      "▁ganti": 2726,
      "ita,": 2727,
      "▁Kas": 2728,
      "▁Kanc": 2729,
      "ogram": 2730,
      "▁Ya": 2731,
      "▁duweni": 2732,
      "▁4.": 2733,
      "arsa": 2734,
      "▁tind": 2735,
      "emi": 2736,
      "▁Set": 2737,
      "imo": 2738,
      "▁atine": 2739,
      "▁En": 2740,
      "▁regane": 2741,
      "▁kadhang": 2742,
      "▁SMA": 2743,
      "▁nasional": 2744,
      "las": 2745,
      "ata.": 2746,
      "▁ngas": 2747,
      "▁gener": 2748,
      "▁ok": 2749,
      "▁Ker": 2750,
      "▁dhewe,": 2751,
      "uduh": 2752,
      "asaan": 2753,
      "▁dalem": 2754,
      "urit,": 2755,
      "▁tanduran": 2756,
      "▁mahas": 2757,
      "▁pek": 2758,
      "ika.": 2759,
      "▁bad": 2760,
      "▁bet": 2761,
      "ahar": 2762,
      "▁kuat": 2763,
      "▁Med": 2764,
      "▁fasil": 2765,
      "urunge": 2766,
      "▁ajaran": 2767,
      "▁sadar": 2768,
      "▁mirip": 2769,
      "witter": 2770,
      "RL": 2771,
      "he": 2772,
      "rip": 2773,
      "▁6.": 2774,
      "▁sud": 2775,
      "ingal": 2776,
      "▁nak": 2777,
      "ons": 2778,
      "▁ngul": 2779,
      "▁dih": 2780,
      "agram": 2781,
      "▁jin": 2782,
      "ot.": 2783,
      "e.\"": 2784,
      "▁nyuwun": 2785,
      "umpul": 2786,
      "▁kaping": 2787,
      "▁kamangka": 2788,
      "▁ngewangi": 2789,
      "▁buah": 2790,
      "▁Makane": 2791,
      "▁#": 2792,
      "▁'": 2793,
      "▁7": 2794,
      "▁:": 2795,
      "arak": 2796,
      "▁ba": 2797,
      "▁lal": 2798,
      "eh,": 2799,
      "▁utawi": 2800,
      "▁sigra": 2801,
      "laku": 2802,
      "ses": 2803,
      "yan,": 2804,
      "▁7.": 2805,
      "▁sok": 2806,
      "▁koc": 2807,
      "▁kembang": 2808,
      "▁panj": 2809,
      "▁lur": 2810,
      "▁lamun": 2811,
      "▁nganggep": 2812,
      "▁gadhah": 2813,
      "ela": 2814,
      "▁Tim": 2815,
      "▁prang": 2816,
      "▁alas": 2817,
      "▁nggawa": 2818,
      "▁tuwa": 2819,
      "▁nuli": 2820,
      "▁maca": 2821,
      "si.": 2822,
      "▁Z": 2823,
      "▁myang": 2824,
      "▁nandur": 2825,
      "erti": 2826,
      "ekta": 2827,
      "▁ngop": 2828,
      "ewat": 2829,
      "epan": 2830,
      "epas": 2831,
      "▁Mungk": 2832,
      "anten": 2833,
      "▁online": 2834,
      "▁apike": 2835,
      "▁sopo": 2836,
      "▁siswa": 2837,
      "▁cilik,": 2838,
      "▁angger": 2839,
      "▁202": 2840,
      "uyu": 2841,
      "stagram": 2842,
      "▁wajib": 2843,
      "▁sawijining": 2844,
      "ri,": 2845,
      "▁ah": 2846,
      "▁uk": 2847,
      "ama.": 2848,
      "elan": 2849,
      "anes": 2850,
      "ap,": 2851,
      "▁Ac": 2852,
      "ga,": 2853,
      "olong": 2854,
      "▁cedhak": 2855,
      "tiv": 2856,
      "ake,": 2857,
      "uhi": 2858,
      "▁terj": 2859,
      "▁aman": 2860,
      "▁asale": 2861,
      "▁ancen": 2862,
      "▁dewek": 2863,
      "▁sholat": 2864,
      "gr": 2865,
      "ho": 2866,
      "mu,": 2867,
      "▁pu": 2868,
      "▁pingin": 2869,
      "▁basa": 2870,
      "▁ngup": 2871,
      "elu": 2872,
      "esane": 2873,
      "utup": 2874,
      "aji": 2875,
      "▁nyi": 2876,
      "▁sampah": 2877,
      "▁mangkane": 2878,
      "▁gedhe.": 2879,
      "▁trans": 2880,
      "▁Masjid": 2881,
      "▁rumah": 2882,
      "▁ngombe": 2883,
      "▁z": 2884,
      "arab": 2885,
      "▁bus": 2886,
      "▁wujud": 2887,
      "ra.": 2888,
      "▁rawuh": 2889,
      "▁cac": 2890,
      "▁nyambut": 2891,
      "▁Angg": 2892,
      "▁darur": 2893,
      "▁artine": 2894,
      "▁kesehatan": 2895,
      "▁sor": 2896,
      "▁sine": 2897,
      "▁dong": 2898,
      "▁muk": 2899,
      "▁miy": 2900,
      "▁manj": 2901,
      "▁pab": 2902,
      "▁namp": 2903,
      "eral": 2904,
      "isasi": 2905,
      "▁ngap": 2906,
      "▁nggo": 2907,
      "itur": 2908,
      "um,": 2909,
      "▁Pem": 2910,
      "egah": 2911,
      "▁nyep": 2912,
      "ode": 2913,
      "▁liyo.": 2914,
      "▁Um": 2915,
      "▁pantes": 2916,
      "▁daging": 2917,
      "vasi": 2918,
      "▁keh": 2919,
      "erek": 2920,
      "▁lenggah": 2921,
      "enging": 2922,
      "▁jeng": 2923,
      "▁Kama": 2924,
      "ihak": 2925,
      "omo": 2926,
      "▁pasangan": 2927,
      "▁ditem": 2928,
      "▁Arj": 2929,
      "▁sehat": 2930,
      "▁Teko": 2931,
      "▁.": 2932,
      "erl": 2933,
      "awin": 2934,
      "▁gowo": 2935,
      "agu": 2936,
      "ilah": 2937,
      "▁karek": 2938,
      "▁10.": 2939,
      "▁koncone": 2940,
      "▁melbu": 2941,
      "▁duwit": 2942,
      "▁lapo": 2943,
      "▁kutha": 2944,
      "na.": 2945,
      "▁semp": 2946,
      "▁dulur": 2947,
      "▁denira": 2948,
      "▁boso": 2949,
      "amin": 2950,
      "▁tump": 2951,
      "▁ras": 2952,
      "▁Pad": 2953,
      "▁Masio": 2954,
      "▁amargi": 2955,
      "▁1.": 2956,
      "▁baris": 2957,
      "▁warung": 2958,
      "▁Indonesia,": 2959,
      "▁prapteng": 2960,
      "▁Supoyo": 2961,
      "▁kepengin": 2962,
      "▁luar": 2963,
      "▁generasi": 2964,
      "▁emb": 2965,
      "▁simbah": 2966,
      "▁mund": 2967,
      "▁pind": 2968,
      "▁lengk": 2969,
      "eh.": 2970,
      "▁Keb": 2971,
      "▁And": 2972,
      "antu": 2973,
      "▁aku.": 2974,
      "▁Ratu": 2975,
      "▁ono.": 2976,
      "▁menungsa": 2977,
      "anjeng": 2978,
      "▁penel": 2979,
      "▁maju": 2980,
      "▁khusus": 2981,
      "jang": 2982,
      "lek": 2983,
      "ru": 2984,
      "ual": 2985,
      "▁9.": 2986,
      "▁pok": 2987,
      "▁nya": 2988,
      "ala,": 2989,
      "▁ling": 2990,
      "anggu": 2991,
      "▁awak.": 2992,
      "▁Dad": 2993,
      "▁Rang": 2994,
      "▁prof": 2995,
      "▁pemand": 2996,
      "▁misal": 2997,
      "▁budhal": 2998,
      "▁Ngastina,": 2999,
      "▁bencana": 3000,
      "jata": 3001,
      "▁sayang": 3002,
      "▁dem": 3003,
      "▁mum": 3004,
      "▁mata": 3005,
      "▁manca": 3006,
      "isa": 3007,
      "▁ngay": 3008,
      "▁jan": 3009,
      "an.\"": 3010,
      "▁yayi": 3011,
      "▁prakt": 3012,
      "ubah": 3013,
      "▁rap": 3014,
      "▁energi": 3015,
      "▁tyas": 3016,
      "▁engkok": 3017,
      "▁8.": 3018,
      "▁mag": 3019,
      "▁mud": 3020,
      "▁net": 3021,
      "▁nemu": 3022,
      "ahing": 3023,
      "▁tu": 3024,
      "one,": 3025,
      "▁jej": 3026,
      "▁jebul": 3027,
      "ire": 3028,
      "▁Nyi": 3029,
      "▁isuk": 3030,
      "▁Bur": 3031,
      "▁Jum": 3032,
      "▁12.": 3033,
      "▁13.": 3034,
      "▁15.": 3035,
      "▁ketelu,": 3036,
      "▁Mbari": 3037,
      "▁kedade": 3038,
      "▁megil": 3039,
      "ka": 3040,
      "▁anggo": 3041,
      "▁sow": 3042,
      "▁ping": 3043,
      "▁ngem": 3044,
      "▁gusti": 3045,
      "▁rodo": 3046,
      "▁ruang": 3047,
      "uwur": 3048,
      "▁Pand": 3049,
      "ambung": 3050,
      "▁disik.": 3051,
      "▁dadya": 3052,
      "▁mangke": 3053,
      "▁suka": 3054,
      "▁mila": 3055,
      "asari": 3056,
      "▁wana": 3057,
      "▁rut": 3058,
      "▁Pur": 3059,
      "ajar": 3060,
      "iman": 3061,
      "▁perang": 3062,
      "▁menang": 3063,
      "▁ngerung": 3064,
      "▁14.": 3065,
      "▁dipangan": 3066,
      "▁Cont": 3067,
      "▁ibadah": 3068,
      "▁iling": 3069,
      "▁dhuwit": 3070,
      "▁liya.": 3071,
      "▁kendaraan": 3072,
      "jing": 3073,
      "ke.": 3074,
      "yu": 3075,
      "▁sangg": 3076,
      "▁kati": 3077,
      "▁wing": 3078,
      "▁woh": 3079,
      "indh": 3080,
      "▁rer": 3081,
      "▁rest": 3082,
      "▁raka": 3083,
      "ireng": 3084,
      "imo,": 3085,
      "▁nyekel": 3086,
      "▁yaopo": 3087,
      "uduk": 3088,
      "▁agl": 3089,
      "▁pertandingan": 3090,
      "-ap": 3091,
      "▁ayu": 3092,
      "▁bath": 3093,
      "▁bengi": 3094,
      "atekake": 3095,
      "iyane": 3096,
      "ota": 3097,
      "▁16.": 3098,
      "▁Hyang": 3099,
      "▁kepiye": 3100,
      "▁mangkat": 3101,
      "▁ngarsa": 3102,
      "utuhake": 3103,
      "▁setuju": 3104,
      "▁Jakarta": 3105,
      "▁susu": 3106,
      "▁kampus": 3107,
      "▁Padahal": 3108,
      "▁ojok": 3109,
      "▁fasilitas": 3110,
      "AR": 3111,
      "port": 3112,
      "atri": 3113,
      "asana": 3114,
      "uruh": 3115,
      "▁aran": 3116,
      "▁kabeh,": 3117,
      "▁atlet": 3118,
      "▁semangat": 3119,
      "▁Aturipun": 3120,
      "▁ngenteni": 3121,
      "▁tugas": 3122,
      "Nanging": 3123,
      "▁nes": 3124,
      "▁ngaw": 3125,
      "ink": 3126,
      "▁kus": 3127,
      "▁juru": 3128,
      "ep.": 3129,
      "▁cal": 3130,
      "▁Tari": 3131,
      "▁mau,": 3132,
      "▁18.": 3133,
      "▁anak-": 3134,
      "▁ngendikane": 3135,
      "▁organ": 3136,
      "iv": 3137,
      "lawan": 3138,
      "▁dyan": 3139,
      "▁mangs": 3140,
      "▁nama": 3141,
      "▁lewat": 3142,
      "▁nagari": 3143,
      "acebo": 3144,
      "▁fisik": 3145,
      "ubung": 3146,
      "▁ditambah": 3147,
      "▁punapa": 3148,
      "▁liyane,": 3149,
      "tern": 3150,
      "▁narendra": 3151,
      "▁minangka": 3152,
      "▁manfaate": 3153,
      "▁bumbu": 3154,
      "▁wangsulane": 3155,
      "▁pejah": 3156,
      "▁nomer": 3157,
      "▁Omah": 3158,
      "▁penggawean": 3159,
      "aku.": 3160,
      "▁dos": 3161,
      "▁damel": 3162,
      "enang": 3163,
      "ete": 3164,
      "▁jij": 3165,
      "▁Band": 3166,
      "▁Bayu": 3167,
      "dud": 3168,
      "▁Gak": 3169,
      "▁alias": 3170,
      "▁fok": 3171,
      "▁merga": 3172,
      "▁bert": 3173,
      "▁aji": 3174,
      "▁dadine": 3175,
      "atihan": 3176,
      "▁khewan": 3177,
      "▁percaya": 3178,
      "▁dunyo": 3179,
      "▁bangunan": 3180,
      "▁lomba": 3181,
      "▁bocahe": 3182,
      "▁mungsuh": 3183,
      "▁mandh": 3184,
      "▁pati": 3185,
      "iku,": 3186,
      "▁tang": 3187,
      "▁loro,": 3188,
      "▁ngek": 3189,
      "▁islam": 3190,
      "▁Twitter": 3191,
      "ote": 3192,
      "▁nyeb": 3193,
      "▁kangjeng": 3194,
      "ender": 3195,
      "▁program": 3196,
      "▁17.": 3197,
      "▁Carane": 3198,
      "▁warn": 3199,
      "▁ef": 3200,
      "▁biyasane": 3201,
      "▁abang": 3202,
      "▁dijak": 3203,
      "▁obat": 3204,
      "▁ngisor": 3205,
      "jana": 3206,
      "kul": 3207,
      "▁sanes": 3208,
      "▁miwah": 3209,
      "ikasi": 3210,
      "▁lungguh": 3211,
      "▁gamel": 3212,
      "ese": 3213,
      "ol.": 3214,
      "uhu": 3215,
      "▁Dyan": 3216,
      "▁Jep": 3217,
      "▁banget,": 3218,
      "▁asli": 3219,
      "▁marake": 3220,
      "▁urum": 3221,
      "▁enake": 3222,
      "-moro": 3223,
      "▁korban": 3224,
      "▁Jogja": 3225,
      "▁motor": 3226,
      "mpun": 3227,
      "▁Petruk": 3228,
      "▁kil": 3229,
      "▁manc": 3230,
      "▁pay": 3231,
      "atah": 3232,
      "▁jogo": 3233,
      "▁akhir": 3234,
      "ene,": 3235,
      "▁Lan": 3236,
      "angsal": 3237,
      "▁Ol": 3238,
      "▁sisih": 3239,
      "▁krim": 3240,
      "▁antara": 3241,
      "▁Senadyan": 3242,
      "▁Bagas": 3243,
      "▁konser": 3244,
      "▁kayata": 3245,
      "▁ekono": 3246,
      "▁mahasiswa": 3247,
      "-ati": 3248,
      "▁mudh": 3249,
      "▁nata,": 3250,
      "▁bangun": 3251,
      "inc": 3252,
      "▁Kore": 3253,
      "▁Par": 3254,
      "▁Dene": 3255,
      "u.\"": 3256,
      "ijaya": 3257,
      "ira.": 3258,
      "▁ibune": 3259,
      "▁jajal": 3260,
      "▁Ngastina": 3261,
      "▁kandungan": 3262,
      "Ing": 3263,
      "Ora": 3264,
      "ee": 3265,
      "▁tinggal": 3266,
      "▁kualitas": 3267,
      "okoh": 3268,
      "esa": 3269,
      "usake": 3270,
      "ambang": 3271,
      "▁cep": 3272,
      "enenge": 3273,
      "▁hadi": 3274,
      "▁ari": 3275,
      "▁nagri": 3276,
      "▁11.": 3277,
      "▁mrip": 3278,
      "enere": 3279,
      "▁Jakasari": 3280,
      "▁bumi": 3281,
      "▁ratu,": 3282,
      "▁bedha": 3283,
      "dul": 3284,
      "ojo": 3285,
      "▁dangu": 3286,
      "▁mangsa": 3287,
      "▁pari": 3288,
      "▁tumb": 3289,
      "▁langk": 3290,
      "▁wulu": 3291,
      "ukul": 3292,
      "▁jro": 3293,
      "▁Pal": 3294,
      "▁ceth": 3295,
      "ipta": 3296,
      "▁Gom": 3297,
      "▁19.": 3298,
      "▁kapan": 3299,
      "▁siji,": 3300,
      "▁Wong-wong": 3301,
      "▁Inggr": 3302,
      "▁lumayan": 3303,
      "▁20.": 3304,
      "▁lagek": 3305,
      "▁diwenehi": 3306,
      "▁lawas": 3307,
      "▁tentang": 3308,
      "Dheweke": 3309,
      "▁Bratawin": 3310,
      "▁Surakarti": 3311,
      "▁bisnis": 3312,
      "rib": 3313,
      "yam": 3314,
      "▁kip": 3315,
      "▁wew": 3316,
      "▁ngam": 3317,
      "▁ngab": 3318,
      "raf": 3319,
      "urun": 3320,
      "anem": 3321,
      "▁Kul": 3322,
      "▁lanc": 3323,
      "▁Parang": 3324,
      "▁karepe": 3325,
      "iyatan": 3326,
      "▁heh": 3327,
      "▁berh": 3328,
      "▁senjata": 3329,
      "▁cerita": 3330,
      "▁Ingkang": 3331,
      "▁dhuwur": 3332,
      "▁seger": 3333,
      "▁budhaya": 3334,
      "▁keluarg": 3335,
      "▁goreng": 3336,
      "▁mangsuli": 3337,
      "formasi": 3338,
      "▁pendidikan": 3339,
      "ri.": 3340,
      "enuh": 3341,
      "okan": 3342,
      "es,": 3343,
      "▁Sad": 3344,
      "▁Peng": 3345,
      "▁akun": 3346,
      "▁cok": 3347,
      "▁Nom": 3348,
      "▁Dim": 3349,
      "▁nyedi": 3350,
      "iwa": 3351,
      "▁pundi": 3352,
      "▁anggenipun": 3353,
      "▁medal": 3354,
      "oto-r": 3355,
      "▁tangga": 3356,
      "▁entok": 3357,
      "▁panda": 3358,
      "▁hubungane": 3359,
      "▁dekne": 3360,
      "▁ngejak": 3361,
      "eyan": 3362,
      "mati": 3363,
      "quran": 3364,
      "so": 3365,
      "ani,": 3366,
      "ard": 3367,
      "▁nuw": 3368,
      "erak": 3369,
      "aturan": 3370,
      "▁gant": 3371,
      "▁Sura": 3372,
      "▁Bud": 3373,
      "▁aku,": 3374,
      "▁Gawe": 3375,
      "▁bakul": 3376,
      "▁senenge": 3377,
      "-bed": 3378,
      "andhak": 3379,
      "▁Awale": 3380,
      "▁paring": 3381,
      "▁mangkono": 3382,
      "▁telung": 3383,
      "▁Anin": 3384,
      "▁kinen": 3385,
      "▁deso": 3386,
      "▁sreg": 3387,
      "▁sebagai": 3388,
      "▁Jogj": 3389,
      "-oleh": 3390,
      "nt": 3391,
      "▁ac": 3392,
      "ang-": 3393,
      "▁pod": 3394,
      "▁bangk": 3395,
      "erm": 3396,
      "▁teh": 3397,
      "▁rep": 3398,
      "uwih": 3399,
      "▁jalan": 3400,
      "▁Kel": 3401,
      "▁ambune": 3402,
      "▁terb": 3403,
      "▁hak": 3404,
      "embangan": 3405,
      "▁ngeres": 3406,
      "▁Limo,": 3407,
      "▁mesem": 3408,
      "▁wilayah": 3409,
      "▁8": 3410,
      "▁pihak": 3411,
      "▁lar": 3412,
      "▁dimas": 3413,
      "▁Best": 3414,
      "ipik": 3415,
      "▁Dino": 3416,
      "anta": 3417,
      "▁nyam": 3418,
      "▁Jan": 3419,
      "▁kuwat": 3420,
      "▁omah,": 3421,
      "▁angr": 3422,
      "▁kemamp": 3423,
      "▁paduka": 3424,
      "▁negara.": 3425,
      "▁plast": 3426,
      "▁Kangjeng": 3427,
      "▁otot": 3428,
      "▁daharan": 3429,
      "udu": 3430,
      "▁anget": 3431,
      "▁mamp": 3432,
      "▁watu": 3433,
      "▁gad": 3434,
      "▁Nar": 3435,
      "▁wong.": 3436,
      "▁Rum": 3437,
      "▁rajeng": 3438,
      "▁digit": 3439,
      "▁disenengi": 3440,
      "▁bal-b": 3441,
      "▁barang.": 3442,
      "▁ibuku": 3443,
      "▁Facebo": 3444,
      "▁selama": 3445,
      "▁dalu": 3446,
      "▁kandhane": 3447,
      "▁Saben": 3448,
      "▁Drusilawati": 3449,
      "RL]": 3450,
      "hluk": 3451,
      "ruh": 3452,
      "▁sol": 3453,
      "aha": 3454,
      "▁tungg": 3455,
      "asine": 3456,
      "isah": 3457,
      "▁wah": 3458,
      "ema": 3459,
      "▁Seb": 3460,
      "▁Njeng": 3461,
      "▁awal": 3462,
      "▁\"E": 3463,
      "▁aris": 3464,
      "▁mboh": 3465,
      "▁kelomp": 3466,
      "▁21.": 3467,
      "▁seneng.": 3468,
      "▁dikongkon": 3469,
      "▁sampeyan": 3470,
      "▁sejar": 3471,
      "▁mundh": 3472,
      "▁kendel": 3473,
      "▁Adipati": 3474,
      "\",": 3475,
      "-f": 3476,
      "▁dak": 3477,
      "▁marga": 3478,
      "▁tes": 3479,
      "unuh": 3480,
      "utra": 3481,
      "▁Konc": 3482,
      "ihat": 3483,
      "▁coba": 3484,
      "▁12": 3485,
      "▁22.": 3486,
      "anjurno": 3487,
      "▁sekolah,": 3488,
      "▁garw": 3489,
      "▁wayahe": 3490,
      "▁ujare": 3491,
      "▁donyo": 3492,
      "portasi": 3493,
      "wang": 3494,
      "▁suci": 3495,
      "▁maw": 3496,
      "▁pup": 3497,
      "▁th": 3498,
      "▁leng": 3499,
      "awah": 3500,
      "rag": 3501,
      "▁gol": 3502,
      "ill": 3503,
      "▁cem": 3504,
      "adian": 3505,
      "▁meny": 3506,
      "▁bakale": 3507,
      "▁kering": 3508,
      "▁sanga": 3509,
      "▁sepeda": 3510,
      "▁makin": 3511,
      "▁telu,": 3512,
      "▁nyerit": 3513,
      "▁dolen": 3514,
      "▁Rangdha": 3515,
      "oto-roto": 3516,
      "reng": 3517,
      "▁und": 3518,
      "▁sand": 3519,
      "▁sitik": 3520,
      "ahal": 3521,
      "▁lam": 3522,
      "▁wul": 3523,
      "▁gung": 3524,
      "▁gaya": 3525,
      "▁gendh": 3526,
      "elah": 3527,
      "▁St": 3528,
      "ewa": 3529,
      "▁ruk": 3530,
      "▁Kl": 3531,
      "▁ningk": 3532,
      "▁Wonten": 3533,
      "▁ya,": 3534,
      "▁terus.": 3535,
      "▁sepur": 3536,
      "▁bener.": 3537,
      "▁tempe": 3538,
      ").": 3539,
      "▁arang": 3540,
      "▁suku": 3541,
      "▁lok": 3542,
      "isine": 3543,
      "▁gula": 3544,
      "▁garing": 3545,
      "▁guy": 3546,
      "▁nangis": 3547,
      "ebat": 3548,
      "▁oleh-oleh": 3549,
      "▁dibangun": 3550,
      "▁uwis": 3551,
      "▁ulang": 3552,
      "▁garwa": 3553,
      "▁Surob": 3554,
      "▁[URL]": 3555,
      "▁pilihan": 3556,
      "▁ngantos": 3557,
      "▁jemparing": 3558,
      "▁lengkap": 3559,
      "u-": 3560,
      "yel": 3561,
      "▁im": 3562,
      "▁nungg": 3563,
      "erd": 3564,
      "▁tip": 3565,
      "▁wal": 3566,
      "onal.": 3567,
      "unc": 3568,
      "uran.": 3569,
      "▁Sep": 3570,
      "uth": 3571,
      "ulis": 3572,
      "▁Kup": 3573,
      "irane": 3574,
      "ola": 3575,
      "▁Mula": 3576,
      "▁karsa": 3577,
      "tim": 3578,
      "▁Ti": 3579,
      "eg.": 3580,
      "anding": 3581,
      "anganan": 3582,
      "▁terl": 3583,
      "asiun": 3584,
      "▁dipati": 3585,
      "▁tandh": 3586,
      "▁23.": 3587,
      "ujana": 3588,
      "▁biaya": 3589,
      "▁ageng": 3590,
      "▁Ngarab": 3591,
      "usaha": 3592,
      "▁tuwo": 3593,
      "▁pindh": 3594,
      "▁pamit": 3595,
      "▁renang": 3596,
      "▁mergane": 3597,
      "-akeh": 3598,
      "jane": 3599,
      "▁sil": 3600,
      "▁kemb": 3601,
      "angake": 3602,
      "eni,": 3603,
      "▁tamp": 3604,
      "▁timb": 3605,
      "▁wic": 3606,
      "une,": 3607,
      "▁Sum": 3608,
      "ambak": 3609,
      "▁Malah": 3610,
      "▁yak": 3611,
      "▁utamane": 3612,
      "▁mbah": 3613,
      "▁keno": 3614,
      "▁kawul": 3615,
      "▁seje": 3616,
      "▁informasi": 3617,
      "▁tahu": 3618,
      "▁narp": 3619,
      "▁entek": 3620,
      "▁Purw": 3621,
      "▁kenging": 3622,
      "▁nilai": 3623,
      "amm": 3624,
      "▁tamu": 3625,
      "▁lingg": 3626,
      "usu": 3627,
      "▁roti": 3628,
      "▁jare": 3629,
      "▁Kresna": 3630,
      "or,": 3631,
      "▁Mes": 3632,
      "uhe": 3633,
      "▁ngerusak": 3634,
      "udang": 3635,
      "▁arane": 3636,
      "▁ndad": 3637,
      "iden": 3638,
      "▁dipr": 3639,
      "▁manah": 3640,
      "▁Us": 3641,
      "▁Eng": 3642,
      "▁makhluk": 3643,
      "▁klamb": 3644,
      "▁kemaw": 3645,
      "▁pikirane": 3646,
      "▁stat": 3647,
      "▁Instagram": 3648,
      "▁tujuane": 3649,
      "men": 3650,
      "▁amp": 3651,
      "▁ungg": 3652,
      "▁kahanan": 3653,
      "araw": 3654,
      "▁ngep": 3655,
      "▁gand": 3656,
      "▁game": 3657,
      "ungan.": 3658,
      "uka,": 3659,
      "utama": 3660,
      "▁jroning": 3661,
      "▁Kat": 3662,
      "▁anane": 3663,
      "▁ch": 3664,
      "ayane": 3665,
      "▁Retna": 3666,
      "▁Wrek": 3667,
      "uda": 3668,
      "▁fot": 3669,
      "araning": 3670,
      "▁kebak": 3671,
      "-suwe": 3672,
      "▁Pakdh": 3673,
      "▁ini": 3674,
      "▁pada": 3675,
      "▁bebas": 3676,
      "▁surat": 3677,
      "▁jumlah": 3678,
      "▁rusak": 3679,
      "▁SMP": 3680,
      "▁profesi": 3681,
      "▁fokus": 3682,
      "▁Nomer": 3683,
      "rit": 3684,
      "yog": 3685,
      "▁X": 3686,
      "▁slam": 3687,
      "aku,": 3688,
      "▁bej": 3689,
      "▁ngasil": 3690,
      "▁ngumpul": 3691,
      "oko": 3692,
      "ukt": 3693,
      "▁Kum": 3694,
      "▁Kali": 3695,
      "ile": 3696,
      "▁alit": 3697,
      "▁omong": 3698,
      "▁berarti": 3699,
      "ujug": 3700,
      "-bareng": 3701,
      "▁manuk": 3702,
      "▁Ut": 3703,
      "▁sepiro": 3704,
      "▁gampang.": 3705,
      "▁petug": 3706,
      "▁kanca-kanca": 3707,
      "▁konco-konco": 3708,
      "▁Hadiw": 3709,
      "▁ngopeni": 3710,
      "▁ahli": 3711,
      "▁Gomok": 3712,
      "▁Bratawinata": 3713,
      "sih": 3714,
      "▁simb": 3715,
      "▁kata": 3716,
      "aka,": 3717,
      "▁bib": 3718,
      "▁ngat": 3719,
      "irah": 3720,
      "▁ced": 3721,
      "andani": 3722,
      "▁ninggal": 3723,
      "ancan": 3724,
      "▁15": 3725,
      "▁fitur": 3726,
      "▁luweh": 3727,
      "▁sami,": 3728,
      "-barang": 3729,
      "▁Ant": 3730,
      "▁Amb": 3731,
      "arta,": 3732,
      "▁jalur": 3733,
      "▁lemah": 3734,
      "▁mental": 3735,
      "▁sawijine": 3736,
      "▁becik": 3737,
      "▁suluki": 3738,
      "▁darurat": 3739,
      "▁megilan.": 3740,
      "h,": 3741,
      "ene.": 3742,
      "▁minggu": 3743,
      "▁boj": 3744,
      "ering": 3745,
      "▁tat": 3746,
      "▁Sampun": 3747,
      "▁dires": 3748,
      "▁remb": 3749,
      "uwarga": 3750,
      "▁ju": 3751,
      "▁coro": 3752,
      "▁Bet": 3753,
      "▁kari": 3754,
      "ti.": 3755,
      "egan": 3756,
      "▁nyany": 3757,
      "▁pres": 3758,
      "▁berj": 3759,
      "▁werna": 3760,
      "▁jaluk": 3761,
      "▁Semar": 3762,
      "▁ngene.": 3763,
      "▁Pamadi": 3764,
      "▁tonggo": 3765,
      "▁endi-endi": 3766,
      "▁Arjuna": 3767,
      "▁sowan": 3768,
      "▁efek": 3769,
      "▁sregep": 3770,
      "aun": 3771,
      "ha,": 3772,
      "▁ian": 3773,
      "akna": 3774,
      "▁memb": 3775,
      "▁mawi": 3776,
      "▁bur": 3777,
      "▁teb": 3778,
      "indu": 3779,
      "aneman": 3780,
      "apat": 3781,
      "uwus,": 3782,
      "▁Nd": 3783,
      "akean": 3784,
      "▁Dum": 3785,
      "▁Jam": 3786,
      "▁menc": 3787,
      "anci": 3788,
      "▁pol,": 3789,
      "▁pemil": 3790,
      "▁mangkana": 3791,
      "▁ngono.": 3792,
      "▁biyen.": 3793,
      "▁banyu.": 3794,
      "▁beda": 3795,
      "▁olahraga.": 3796,
      "▁bareng-bareng": 3797,
      "▁model": 3798,
      "ondo": 3799,
      "▁ijo": 3800,
      "▁saha": 3801,
      "▁adipati": 3802,
      "▁moro-moro": 3803,
      "▁liyan-liyane.": 3804,
      "▁pribadi": 3805,
      "▁pindah": 3806,
      "AK": 3807,
      "ea": 3808,
      "if": 3809,
      "sik": 3810,
      "▁!": 3811,
      "▁dr": 3812,
      "▁mengk": 3813,
      "▁pot": 3814,
      "▁log": 3815,
      "▁ngag": 3816,
      "unakake": 3817,
      "anet": 3818,
      "▁Kanjeng": 3819,
      "▁Dina": 3820,
      "upi": 3821,
      "oyok": 3822,
      "▁prom": 3823,
      "ohe": 3824,
      "▁digawa": 3825,
      "▁25.": 3826,
      "▁angin": 3827,
      "▁kenc": 3828,
      "▁baru": 3829,
      "▁Film": 3830,
      "▁padahal": 3831,
      "iwiti": 3832,
      "▁Pert": 3833,
      "▁bayar": 3834,
      "▁timbangane": 3835,
      "▁posisi": 3836,
      "▁Sangkuni": 3837,
      "▁radio": 3838,
      "▁estri": 3839,
      "▁Mungkin": 3840,
      "▁manjing": 3841,
      "-h": 3842,
      "yek": 3843,
      "▁ec": 3844,
      "anya": 3845,
      "▁pedh": 3846,
      "erep": 3847,
      "erasi": 3848,
      "atake": 3849,
      "▁ngadh": 3850,
      "uni,": 3851,
      "▁gup": 3852,
      "▁rambut": 3853,
      "▁Biyen": 3854,
      "▁Tr": 3855,
      "antai": 3856,
      "▁past": 3857,
      "▁arya": 3858,
      "▁kalawan": 3859,
      "▁bakalan": 3860,
      "▁berl": 3861,
      "▁tanah": 3862,
      "▁Up": 3863,
      "▁dilakon": 3864,
      "▁kapal": 3865,
      "▁dennya": 3866,
      "▁kasus": 3867,
      "▁muse": 3868,
      "▁tanggung": 3869,
      "▁ireng": 3870,
      "▁bayi": 3871,
      "▁tepung": 3872,
      "unggale.": 3873,
      "▁Pandhawa": 3874,
      "▁Padahal,": 3875,
      "▁perjalan": 3876,
      "▁kedadean": 3877,
      "AD": 3878,
      "▁9": 3879,
      "▁ide": 3880,
      "▁sasi": 3881,
      "▁dyah": 3882,
      "▁na": 3883,
      "▁tit": 3884,
      "▁tol": 3885,
      "▁tub": 3886,
      "▁Samp": 3887,
      "▁Ked": 3888,
      "▁cangk": 3889,
      "▁ambu": 3890,
      "▁nyawang": 3891,
      "▁akeh-akeh": 3892,
      "▁Rasane": 3893,
      "▁seks": 3894,
      "▁mbutuhake": 3895,
      "▁katur": 3896,
      "▁26.": 3897,
      "▁dikon": 3898,
      "ester": 3899,
      "▁Prab": 3900,
      "impi": 3901,
      "▁gerakan": 3902,
      "▁dalam": 3903,
      "▁bedo-bed": 3904,
      "▁Yogyakarta": 3905,
      "▁jurusan": 3906,
      "▁rutin": 3907,
      "gih,": 3908,
      "kop": 3909,
      "lan": 3910,
      "▁undang": 3911,
      "arke": 3912,
      "▁mangg": 3913,
      "▁mej": 3914,
      "▁tangi": 3915,
      "▁ngeh": 3916,
      "▁nganc": 3917,
      "▁Suk": 3918,
      "▁ramp": 3919,
      "▁ruangan": 3920,
      "uwang": 3921,
      "▁ora.": 3922,
      "▁Kencana": 3923,
      "eden": 3924,
      "edya": 3925,
      "▁Aja": 3926,
      "abat": 3927,
      "▁cet": 3928,
      "▁Ma": 3929,
      "os.": 3930,
      "▁Gangsa": 3931,
      "▁digolek": 3932,
      "▁24.": 3933,
      "▁mati.": 3934,
      "aken,": 3935,
      "▁suwe,": 3936,
      "▁ngadeg": 3937,
      "▁sembah": 3938,
      "▁Jayad": 3939,
      "▁ekskul": 3940,
      "▁ewu": 3941,
      "▁mami,": 3942,
      "▁Misale": 3943,
      "▁hukuman": 3944,
      "▁Abim": 3945,
      "▁gamelan": 3946,
      "▁museum": 3947,
      "ev": 3948,
      "min": 3949,
      "aran.": 3950,
      "▁data": 3951,
      "▁mij": 3952,
      "▁puc": 3953,
      "▁banj": 3954,
      "amat": 3955,
      "amet": 3956,
      "atine": 3957,
      "▁lad": 3958,
      "▁latihan": 3959,
      "eksi": 3960,
      "uri,": 3961,
      "▁gust": 3962,
      "▁gajah": 3963,
      "eleng": 3964,
      "usno": 3965,
      "▁cuc": 3966,
      "▁Mus": 3967,
      "ewe.": 3968,
      "▁nyet": 3969,
      "▁terakhir": 3970,
      "▁\"N": 3971,
      "▁ndukung": 3972,
      "▁fungsi": 3973,
      "umbah": 3974,
      "▁saban": 3975,
      "▁muslim": 3976,
      "▁pating": 3977,
      "▁sego": 3978,
      "▁kacang": 3979,
      "▁tibake": 3980,
      "▁wedhok": 3981,
      "▁ombenan": 3982,
      "▁durjana": 3983,
      "▁lulus": 3984,
      "▁Tikt": 3985,
      "tivitas": 3986,
      "ko": 3987,
      "é.": 3988,
      "▁eng": 3989,
      "▁kent": 3990,
      "▁mB": 3991,
      "▁mab": 3992,
      "▁ban": 3993,
      "▁but": 3994,
      "▁bangsa": 3995,
      "▁biru": 3996,
      "adaan": 3997,
      "emat": 3998,
      "ith": 3999,
      "▁Seh": 4000,
      "uter": 4001,
      "▁Pun": 4002,
      "▁Peman": 4003,
      "orsi": 4004,
      "uhur": 4005,
      "▁nyaman": 4006,
      "▁gawean": 4007,
      "▁wesi": 4008,
      "▁alesan": 4009,
      "▁konconan": 4010,
      "▁malih,": 4011,
      "▁barang-barang": 4012,
      "▁All": 4013,
      "▁Alquran": 4014,
      "▁senadyan": 4015,
      "astra": 4016,
      "▁dicampur": 4017,
      "▁ayam": 4018,
      "▁mantri": 4019,
      "arnasi": 4020,
      "▁lakoke.": 4021,
      "▁Jayaw": 4022,
      "▁mending": 4023,
      "▁Maduk": 4024,
      "▁pemandangan": 4025,
      "be": 4026,
      "rata": 4027,
      "èk": 4028,
      "▁-": 4029,
      "▁ukur": 4030,
      "▁dowo": 4031,
      "enak": 4032,
      "▁pi": 4033,
      "▁pura": 4034,
      "▁bae": 4035,
      "▁bask": 4036,
      "esuk": 4037,
      "▁Aj": 4038,
      "▁Muh": 4039,
      "▁Bak": 4040,
      "▁awan": 4041,
      "ajib": 4042,
      "▁yang": 4043,
      "▁Tekan": 4044,
      "egani": 4045,
      "odong": 4046,
      "▁ngert": 4047,
      "▁nggarai": 4048,
      "andhang": 4049,
      "inggalan": 4050,
      "▁kesalah": 4051,
      "▁kesemp": 4052,
      "▁manawa": 4053,
      "▁pemain": 4054,
      "▁wedang": 4055,
      "▁gedhe,": 4056,
      "▁dijupuk": 4057,
      "▁bareng.": 4058,
      "▁sajroning": 4059,
      "▁tutuk": 4060,
      "▁mlaku-m": 4061,
      "▁Piter": 4062,
      "▁kondur": 4063,
      "▁namung": 4064,
      "▁hadiah": 4065,
      "ling": 4066,
      "yeng": 4067,
      "▁kidul": 4068,
      "ings": 4069,
      "▁paran": 4070,
      "▁nabi": 4071,
      "erk": 4072,
      "erno": 4073,
      "▁te": 4074,
      "▁tas": 4075,
      "▁luc": 4076,
      "▁ngu": 4077,
      "▁ngembang": 4078,
      "▁ngongkon": 4079,
      "▁gangsa": 4080,
      "▁Saka": 4081,
      "▁dial": 4082,
      "uman": 4083,
      "▁ca": 4084,
      "▁camp": 4085,
      "uwei": 4086,
      "▁arah": 4087,
      "▁praw": 4088,
      "▁kondhang": 4089,
      "▁biasa.": 4090,
      "▁kulite": 4091,
      "▁kesel": 4092,
      "▁sina": 4093,
      "▁mlay": 4094,
      "▁urip.": 4095,
      "▁salat": 4096,
      "▁wern": 4097,
      "▁pesen": 4098,
      "▁pahlawan": 4099,
      "▁internet": 4100,
      "▁contohne": 4101,
      "▁Regena": 4102,
      "▁pabrik": 4103,
      "▁Olahraga": 4104,
      "▁sk": 4105,
      "ena,": 4106,
      "▁mig": 4107,
      "▁nimb": 4108,
      "adyan,": 4109,
      "▁geng": 4110,
      "itung": 4111,
      "uwan": 4112,
      "um.": 4113,
      "▁Kud": 4114,
      "▁Parta": 4115,
      "oli": 4116,
      "▁Bog": 4117,
      "▁Dur": 4118,
      "▁nyoba": 4119,
      "▁War": 4120,
      "obat": 4121,
      "▁berita": 4122,
      "akaan": 4123,
      "▁swarane": 4124,
      "▁patang": 4125,
      "▁anyar.": 4126,
      "▁sajane": 4127,
      "▁sikile": 4128,
      "▁Bagus": 4129,
      "▁Jayeng": 4130,
      "▁udan": 4131,
      "▁ati-ati": 4132,
      "▁limang": 4133,
      "▁banter": 4134,
      "▁rupane": 4135,
      "▁genti": 4136,
      "▁kegiyatan": 4137,
      "▁nembah": 4138,
      "▁Bahkan": 4139,
      "▁kanca-kancane": 4140,
      "▁jajanan": 4141,
      "▁Kancil": 4142,
      "▁anggota": 4143,
      "▁kemampuan": 4144,
      "▁Facebook": 4145,
      "▁Wrekod": 4146,
      "-si": 4147,
      "AT": 4148,
      "do": 4149,
      "▁iy": 4150,
      "▁sara": 4151,
      "▁dep": 4152,
      "▁mit": 4153,
      "▁mambu": 4154,
      "▁nemp": 4155,
      "▁nurut": 4156,
      "▁ngan": 4157,
      "▁nguwei": 4158,
      "▁gab": 4159,
      "▁Pengg": 4160,
      "oreng": 4161,
      "orone": 4162,
      "▁Mila": 4163,
      "▁Bor": 4164,
      "ege": 4165,
      "imu": 4166,
      "up.": 4167,
      "omat": 4168,
      "oyo.": 4169,
      "▁senengane": 4170,
      "▁sarana": 4171,
      "▁mrono": 4172,
      "▁kloning": 4173,
      "▁lapangan": 4174,
      "uyud": 4175,
      "▁dee": 4176,
      "itif": 4177,
      "▁rahaden": 4178,
      "▁rusak.": 4179,
      "▁Darma": 4180,
      "▁ukuran": 4181,
      "▁ngekeki": 4182,
      "KI": 4183,
      "juk": 4184,
      "ning": 4185,
      "nak": 4186,
      "▁sore": 4187,
      "arat": 4188,
      "aran,": 4189,
      "▁daya": 4190,
      "▁tig": 4191,
      "▁latian": 4192,
      "▁ngandh": 4193,
      "ap.": 4194,
      "▁jurit,": 4195,
      "▁Kor": 4196,
      "▁Pel": 4197,
      "▁ciri": 4198,
      "▁Mek": 4199,
      "▁Bul": 4200,
      "▁Bali": 4201,
      "enda": 4202,
      "▁Gum": 4203,
      "▁kert": 4204,
      "ekei": 4205,
      "▁berp": 4206,
      "ujuk": 4207,
      "indak": 4208,
      "indari": 4209,
      "▁didad": 4210,
      "▁daer": 4211,
      "▁sabar": 4212,
      "▁biyen,": 4213,
      "▁vir": 4214,
      "▁kinarya": 4215,
      "▁tulisan": 4216,
      "▁modern": 4217,
      "▁dewi": 4218,
      "▁liberal": 4219,
      "▁transportasi": 4220,
      "▁Muhamm": 4221,
      "ia.": 4222,
      "▁bap": 4223,
      "eri,": 4224,
      "▁til": 4225,
      "▁taneman": 4226,
      "▁len": 4227,
      "▁waw": 4228,
      "▁wali": 4229,
      "iner": 4230,
      "urane": 4231,
      "▁ges": 4232,
      "▁Sh": 4233,
      "usul": 4234,
      "ewangi": 4235,
      "▁Kyana": 4236,
      "ga.": 4237,
      "andar": 4238,
      "▁utama": 4239,
      "▁hobi": 4240,
      "adha": 4241,
      "▁Lajeng": 4242,
      "▁punika,": 4243,
      "▁dileb": 4244,
      "▁agung": 4245,
      "▁Mbok": 4246,
      "umbul": 4247,
      "▁Empun": 4248,
      "▁seri": 4249,
      "▁ngarani": 4250,
      "▁munggeng": 4251,
      "▁kancane": 4252,
      "▁lampah:": 4253,
      "▁Pandhita": 4254,
      "▁leren": 4255,
      "▁Meday": 4256,
      "▁Inggris": 4257,
      "Ana": 4258,
      "wis": 4259,
      "▁kana": 4260,
      "aket": 4261,
      "ariyos": 4262,
      "▁memp": 4263,
      "▁moleh": 4264,
      "▁norm": 4265,
      "▁nitih": 4266,
      "ahan,": 4267,
      "▁lo": 4268,
      "▁lng": 4269,
      "▁leb": 4270,
      "▁ngung": 4271,
      "uku.": 4272,
      "▁Kula": 4273,
      "▁Pir": 4274,
      "▁ana.": 4275,
      "abang": 4276,
      "os,": 4277,
      "imal": 4278,
      "anthi": 4279,
      "▁pasangg": 4280,
      "▁prihat": 4281,
      "edha": 4282,
      "▁alus": 4283,
      "obo": 4284,
      "▁enak.": 4285,
      "anyu": 4286,
      "umpuk": 4287,
      "▁pemikiran": 4288,
      "▁duwek": 4289,
      "▁Saking": 4290,
      "▁banyune": 4291,
      "▁setengah": 4292,
      "▁masyarakat.": 4293,
      "▁tepak": 4294,
      "▁korup": 4295,
      "▁pantai": 4296,
      "▁dheweke.": 4297,
      "▁rabi": 4298,
      "▁sifate": 4299,
      "▁restoran": 4300,
      "Nanging,": 4301,
      "▁ukum": 4302,
      "ani.": 4303,
      "▁seni": 4304,
      "▁kakean": 4305,
      "▁mara": 4306,
      "▁may": 4307,
      "▁pungk": 4308,
      "ikan.": 4309,
      "▁bas": 4310,
      "▁bunuh": 4311,
      "ahun": 4312,
      "asang": 4313,
      "awane": 4314,
      "▁gaj": 4315,
      "itian": 4316,
      "▁ris": 4317,
      "▁roto-roto": 4318,
      "▁jarang": 4319,
      "ihan": 4320,
      "▁campur": 4321,
      "upati,": 4322,
      "▁Jare": 4323,
      "▁Jebul": 4324,
      "ancang": 4325,
      "▁dewe,": 4326,
      "▁dadakno": 4327,
      "▁wedi.": 4328,
      "▁Awakmu": 4329,
      "▁duit": 4330,
      "arni": 4331,
      "▁\"Kula": 4332,
      "▁Semut": 4333,
      "▁Supa": 4334,
      "▁ngeneki": 4335,
      "▁toya": 4336,
      "▁Kris": 4337,
      "▁mergone": 4338,
      "▁ngobrol": 4339,
      "▁Burudang": 4340,
      "▁Dimas": 4341,
      "▁undang-": 4342,
      "▁mlaku-mlaku": 4343,
      "ood": 4344,
      "rahan": 4345,
      "▁sadh": 4346,
      "▁konten": 4347,
      "▁darah": 4348,
      "▁nen": 4349,
      "▁nuju": 4350,
      "erb": 4351,
      "▁ngenal": 4352,
      "awan,": 4353,
      "uri.": 4354,
      "ape": 4355,
      "▁Sas": 4356,
      "▁diolah": 4357,
      "▁rek.": 4358,
      "uwi": 4359,
      "▁Panc": 4360,
      "▁Arab": 4361,
      "▁dhusun": 4362,
      "uhun": 4363,
      "andi": 4364,
      "▁Jem": 4365,
      "adhang": 4366,
      "▁\"D": 4367,
      "▁18": 4368,
      "▁pengar": 4369,
      "▁berb": 4370,
      "andha": 4371,
      "▁manis": 4372,
      "▁kebi": 4373,
      "▁sepuh": 4374,
      "▁Mbasio": 4375,
      "▁sira,": 4376,
      "▁medeni": 4377,
      "▁sederh": 4378,
      "▁kekancan": 4379,
      "▁satunggal": 4380,
      "▁tengen": 4381,
      "▁munc": 4382,
      "▁tulis": 4383,
      "▁Sarim": 4384,
      "▁temenan": 4385,
      "▁spesi": 4386,
      "▁mundur": 4387,
      "Bocah": 4388,
      "idh": 4389,
      "▁e,": 4390,
      "▁das": 4391,
      "▁ded": 4392,
      "▁dasar": 4393,
      "▁bent": 4394,
      "▁wij": 4395,
      "▁ngir": 4396,
      "▁giz": 4397,
      "▁diomong": 4398,
      "▁ora,": 4399,
      "▁Kaya": 4400,
      "i,\"": 4401,
      "▁isun": 4402,
      "▁Teg": 4403,
      "▁dhewe-dh": 4404,
      "▁Wir": 4405,
      "▁menu": 4406,
      "▁kelas.": 4407,
      "▁27.": 4408,
      "▁krasa": 4409,
      "▁pelangg": 4410,
      "▁air": 4411,
      "▁jeruk": 4412,
      "▁tinimbang": 4413,
      "▁pakuw": 4414,
      "▁sembayang": 4415,
      "▁prapti,": 4416,
      "▁Menyaw": 4417,
      "▁peduli": 4418,
      "▁Dananj": 4419,
      "▁Drusilawati,": 4420,
      "▁kopi": 4421,
      "▁ident": 4422,
      "▁punggawa": 4423,
      "▁nesu": 4424,
      "▁jijik": 4425,
      "▁kelompok": 4426,
      "aur": 4427,
      "ey": 4428,
      "ret": 4429,
      "wang,": 4430,
      "èn": 4431,
      "▁sump": 4432,
      "arj": 4433,
      "▁damp": 4434,
      "▁bunt": 4435,
      "▁rugi": 4436,
      "uwak": 4437,
      "▁jupuk": 4438,
      "▁Kh": 4439,
      "▁Panganan": 4440,
      "▁aktif": 4441,
      "▁Bl": 4442,
      "ajak": 4443,
      "ajal": 4444,
      "dhog": 4445,
      "uhake": 4446,
      "▁nyal": 4447,
      "▁nyimpen": 4448,
      "▁perb": 4449,
      "▁Rah": 4450,
      "▁Wit": 4451,
      "▁Gajah": 4452,
      "▁prei": 4453,
      "oh.": 4454,
      "▁kalir": 4455,
      "▁disebut": 4456,
      "ujur": 4457,
      "▁kasebut": 4458,
      "▁30": 4459,
      "▁penting.": 4460,
      "▁uning": 4461,
      "▁ngarepe": 4462,
      "▁ekstr": 4463,
      "▁sifat": 4464,
      "▁kumpul": 4465,
      "▁Korea": 4466,
      "ANG": 4467,
      "Saw": 4468,
      "s.": 4469,
      "anas": 4470,
      "▁kirim": 4471,
      "aru": 4472,
      "en-": 4473,
      "▁nol": 4474,
      "▁bund": 4475,
      "▁bulu": 4476,
      "engku": 4477,
      "▁ngekei": 4478,
      "ita.": 4479,
      "angga,": 4480,
      "▁Bentuk": 4481,
      "▁Budi": 4482,
      "▁awet": 4483,
      "▁kary": 4484,
      "▁Tuju": 4485,
      "▁amba": 4486,
      "▁menurut": 4487,
      "angsaya": 4488,
      "ograf": 4489,
      "▁disek": 4490,
      "▁apik-ap": 4491,
      "▁kepr": 4492,
      "▁enti": 4493,
      "▁agama.": 4494,
      "▁mateng": 4495,
      "▁wau,": 4496,
      "▁ins": 4497,
      "▁kaki": 4498,
      "ustri": 4499,
      "▁Perk": 4500,
      "▁rumangsa": 4501,
      "▁kuning": 4502,
      "▁lahir": 4503,
      "▁tiba": 4504,
      "isten": 4505,
      "▁renyel": 4506,
      "▁reink": 4507,
      "▁ngedol": 4508,
      "▁dimasak": 4509,
      "▁Koncoku": 4510,
      "-ib": 4511,
      "lak": 4512,
      "eny": 4513,
      "▁miyos": 4514,
      "▁naw": 4515,
      "▁niku": 4516,
      "▁tangane": 4517,
      "atm": 4518,
      "▁wulan": 4519,
      "▁ngajeng": 4520,
      "▁gap": 4521,
      "▁jedh": 4522,
      "▁jema": 4523,
      "▁Kac": 4524,
      "▁Pul": 4525,
      "▁Miturut": 4526,
      "ayar": 4527,
      "uput": 4528,
      "omi": 4529,
      "▁prak": 4530,
      "iburan": 4531,
      "anjut": 4532,
      "▁mburi": 4533,
      "▁11": 4534,
      "▁rag": 4535,
      "▁raos": 4536,
      "▁kelingan": 4537,
      "▁koncok": 4538,
      "▁perkara": 4539,
      "▁materi": 4540,
      "▁ilang.": 4541,
      "▁pitakon": 4542,
      "ekso": 4543,
      "▁kekur": 4544,
      "▁sru": 4545,
      "▁kecel": 4546,
      "▁rego": 4547,
      "▁pisan,": 4548,
      "▁maksih": 4549,
      "▁Yogyakarta.": 4550,
      "▁nyiapno": 4551,
      "▁nyediakake": 4552,
      "-1": 4553,
      "Ar": 4554,
      "pon": 4555,
      "yuk": 4556,
      "▁ara": 4557,
      "▁ira": 4558,
      "angi.": 4559,
      "aksi": 4560,
      "▁tangk": 4561,
      "unipun": 4562,
      "▁Si": 4563,
      "▁Sun": 4564,
      "▁Sud": 4565,
      "▁Suyud": 4566,
      "umen": 4567,
      "▁Kus": 4568,
      "▁dhis": 4569,
      "▁Bat": 4570,
      "▁Tur": 4571,
      "upa": 4572,
      "▁terutama": 4573,
      "▁Jedh": 4574,
      "▁Ras": 4575,
      "▁pras": 4576,
      "▁17": 4577,
      "▁ngelawan": 4578,
      "▁onone": 4579,
      "▁manut": 4580,
      "▁dina,": 4581,
      "▁taksih": 4582,
      "▁siji.": 4583,
      "▁Alesane": 4584,
      "emuan": 4585,
      "▁kain": 4586,
      "▁200": 4587,
      "▁diras": 4588,
      "▁sirah": 4589,
      "▁tulung": 4590,
      "▁menungso.": 4591,
      "▁opo-opo.": 4592,
      "▁bola": 4593,
      "▁tiket": 4594,
      "▁liburan": 4595,
      "▁ngerasake": 4596,
      "▁tongg": 4597,
      "▁bungah": 4598,
      "▁ekonomi": 4599,
      "▁kesempatan": 4600,
      "nah": 4601,
      "sa,": 4602,
      "sine": 4603,
      "sun,": 4604,
      "▁send": 4605,
      "▁sapan": 4606,
      "▁kim": 4607,
      "▁dawa": 4608,
      "▁mub": 4609,
      "▁bot": 4610,
      "erit": 4611,
      "▁lawang": 4612,
      "▁wol": 4613,
      "▁wira": 4614,
      "una,": 4615,
      "ell": 4616,
      "uwa": 4617,
      "▁Kaw": 4618,
      "▁aktivitas": 4619,
      "▁dhasar": 4620,
      "▁Neg": 4621,
      "▁Mur": 4622,
      "▁Bab": 4623,
      "ots": 4624,
      "angku": 4625,
      "▁Jawa.": 4626,
      "▁\"l": 4627,
      "▁Yu": 4628,
      "▁ngelatih": 4629,
      "▁Hindu": 4630,
      "▁sinambi": 4631,
      "▁End": 4632,
      "▁duwur.": 4633,
      "▁sesuk": 4634,
      "▁kedah": 4635,
      "aringan": 4636,
      "▁tenan": 4637,
      "▁mireng": 4638,
      "▁elektr": 4639,
      "▁mie": 4640,
      "▁carit": 4641,
      "▁tukang": 4642,
      "▁tarian": 4643,
      "▁tujuan": 4644,
      "▁preian": 4645,
      "▁bal-balan": 4646,
      "▁mBok": 4647,
      "lung": 4648,
      "akim": 4649,
      "▁der": 4650,
      "eneh": 4651,
      "▁mingg": 4652,
      "▁nemen": 4653,
      "▁bapa": 4654,
      "▁buru": 4655,
      "▁bobot": 4656,
      "▁gu": 4657,
      "etik": 4658,
      "▁Sari": 4659,
      "▁reh": 4660,
      "▁rend": 4661,
      "▁Kab": 4662,
      "▁Pok": 4663,
      "▁dhahar": 4664,
      "▁yata": 4665,
      "oskop": 4666,
      "ot,": 4667,
      "▁Wangsul": 4668,
      "▁hing": 4669,
      "uda,": 4670,
      "▁Laras": 4671,
      "▁Lagu": 4672,
      "riya,": 4673,
      "obaan": 4674,
      "▁keroso": 4675,
      "▁28.": 4676,
      "▁ditinggal": 4677,
      "▁kepikiran": 4678,
      "▁keperc": 4679,
      "▁panggone": 4680,
      "▁enak,": 4681,
      "otensi": 4682,
      "▁meneh,": 4683,
      "▁suwe-suwe": 4684,
      "▁ngandika,": 4685,
      "▁muni": 4686,
      "▁donya": 4687,
      "▁itu": 4688,
      "▁pusat": 4689,
      "▁topeng": 4690,
      "▁Majapa": 4691,
      "▁calon": 4692,
      "ternatif": 4693,
      "▁podo.": 4694,
      "line.": 4695,
      "si,": 4696,
      "▁susah": 4697,
      "aké": 4698,
      "arw": 4699,
      "▁mengg": 4700,
      "▁nel": 4701,
      "▁bir": 4702,
      "▁bapake": 4703,
      "ahan.": 4704,
      "alan.": 4705,
      "▁lh": 4706,
      "▁lab": 4707,
      "▁lakoni": 4708,
      "▁wek": 4709,
      "▁ngut": 4710,
      "▁gemb": 4711,
      "▁gug": 4712,
      "▁Sareng": 4713,
      "ehan": 4714,
      "▁ros": 4715,
      "▁Kan": 4716,
      "ili": 4717,
      "▁Bang": 4718,
      "▁Th": 4719,
      "otbah": 4720,
      "▁nyaran": 4721,
      "▁persi": 4722,
      "entah": 4723,
      "▁Rat": 4724,
      "▁menawi": 4725,
      "▁mbari": 4726,
      "▁diganti": 4727,
      "▁kene.": 4728,
      "▁kepenting": 4729,
      "▁panggih": 4730,
      "▁dilak": 4731,
      "▁panggonane": 4732,
      "▁matur,": 4733,
      "esthi": 4734,
      "▁dibutuh": 4735,
      "▁Er": 4736,
      "▁Prap": 4737,
      "▁semut": 4738,
      "▁tumuju": 4739,
      "▁bedo.": 4740,
      "▁Amer": 4741,
      "▁kursi": 4742,
      "▁keku": 4743,
      "▁dalan.": 4744,
      "▁gedene": 4745,
      "manfa": 4746,
      "▁anjuran": 4747,
      "▁bagus": 4748,
      "▁sugih": 4749,
      "▁tingkat": 4750,
      "▁mumet": 4751,
      "▁anak-anak": 4752,
      "▁Hadiwijaya": 4753,
      "▁campuran": 4754,
      "BT": 4755,
      "ch": 4756,
      "pad": 4757,
      "tar": 4758,
      "▁kow": 4759,
      "akane": 4760,
      "akter": 4761,
      "▁mo": 4762,
      "▁mimpin": 4763,
      "▁beg": 4764,
      "▁bupati": 4765,
      "▁ngundang": 4766,
      "▁gil": 4767,
      "▁kuk": 4768,
      "iting": 4769,
      "▁Sul": 4770,
      "▁Semb": 4771,
      "▁Sira": 4772,
      "▁ri": 4773,
      "▁dha": 4774,
      "▁Mung": 4775,
      "▁De": 4776,
      "osok": 4777,
      "▁nyukur": 4778,
      "▁Jeng": 4779,
      "u,\"": 4780,
      "▁\"O": 4781,
      "angsang": 4782,
      "arian": 4783,
      "▁mbiy": 4784,
      "▁ngguyu": 4785,
      "▁salah.": 4786,
      "▁puniku": 4787,
      "▁sawise": 4788,
      "▁ples": 4789,
      "▁blas": 4790,
      "unjung": 4791,
      "▁otomat": 4792,
      "▁dumugi": 4793,
      "▁Beliau": 4794,
      "▁organisasi": 4795,
      "▁petugas": 4796,
      "'o": 4797,
      "-is": 4798,
      "rasi": 4799,
      "▁ed": 4800,
      "▁..": 4801,
      "▁sapi": 4802,
      "▁pop": 4803,
      "▁bul": 4804,
      "▁bawang": 4805,
      "▁tomb": 4806,
      "▁lamb": 4807,
      "eke.": 4808,
      "▁ga": 4809,
      "▁gend": 4810,
      "emah": 4811,
      "etah": 4812,
      "ongan.": 4813,
      "anggone": 4814,
      "▁jad": 4815,
      "▁jaran": 4816,
      "▁Ka": 4817,
      "▁Kem": 4818,
      "▁Pat": 4819,
      "▁Pantai": 4820,
      "▁AS": 4821,
      "▁akal": 4822,
      "aju": 4823,
      "aji,": 4824,
      "▁uc": 4825,
      "▁main": 4826,
      "▁Rara": 4827,
      "▁amis": 4828,
      "▁Le": 4829,
      "▁pring": 4830,
      "▁saos": 4831,
      "▁mbak": 4832,
      "▁mbasio": 4833,
      "▁Yudh": 4834,
      "▁nggamb": 4835,
      "▁berd": 4836,
      "▁ati.": 4837,
      "▁asm": 4838,
      "▁asing": 4839,
      "▁penak": 4840,
      "▁29.": 4841,
      "▁kenopo": 4842,
      "▁polit": 4843,
      "▁mula": 4844,
      "▁kebon": 4845,
      "▁kebij": 4846,
      "estar": 4847,
      "▁sepi": 4848,
      "▁supados": 4849,
      "▁seminggu": 4850,
      "▁inst": 4851,
      "▁setan": 4852,
      "▁padal": 4853,
      "▁antuk": 4854,
      "▁sebenere": 4855,
      "▁obah": 4856,
      "▁unik": 4857,
      "▁Atm": 4858,
      "▁dunia": 4859,
      "▁Kurawa": 4860,
      "▁alon-al": 4861,
      "▁zat": 4862,
      "▁penelitian": 4863,
      "▁nuwun,": 4864,
      "▁Bestak": 4865,
      "▁plastik": 4866,
      "▁digital": 4867,
      "▁golongan": 4868,
      "av": 4869,
      "ne.": 4870,
      "te": 4871,
      "th": 4872,
      "yo.": 4873,
      "èh": 4874,
      "▁ane": 4875,
      "▁kong": 4876,
      "▁be": 4877,
      "▁bintang": 4878,
      "▁tal": 4879,
      "▁tresna": 4880,
      "▁gig": 4881,
      "▁Sw": 4882,
      "▁diatur": 4883,
      "▁rencana": 4884,
      "▁jant": 4885,
      "▁jaga": 4886,
      "umu": 4887,
      "▁Kya": 4888,
      "▁Pl": 4889,
      "▁Ay": 4890,
      "▁Bay": 4891,
      "▁nangk": 4892,
      "▁awale": 4893,
      "oto.": 4894,
      "▁Jenenge": 4895,
      "▁apan": 4896,
      "▁apa,": 4897,
      "▁LG": 4898,
      "▁dipilih": 4899,
      "▁digatekake": 4900,
      "▁ature": 4901,
      "▁Cit": 4902,
      "▁marg": 4903,
      "▁manungsa": 4904,
      "▁perkembangan": 4905,
      "▁umatur": 4906,
      "untung": 4907,
      "▁semu": 4908,
      "▁30.": 4909,
      "▁gedhang": 4910,
      "▁pangand": 4911,
      "ekti,": 4912,
      "athah": 4913,
      "▁loro.": 4914,
      "▁Jakarta.": 4915,
      "▁prapta,": 4916,
      "▁pedi": 4917,
      "▁enom.": 4918,
      "▁bukti": 4919,
      "▁berkembang": 4920,
      "▁sambel": 4921,
      "▁pinggire": 4922,
      "▁Kakung": 4923,
      "▁kucing": 4924,
      "▁ngeresiki": 4925,
      "▁Usar": 4926,
      "▁status": 4927,
      "▁Kumala": 4928,
      "▁Betal": 4929,
      "▁Muhammad": 4930,
      "mat": 4931,
      "▁del": 4932,
      "▁bagi": 4933,
      "erna": 4934,
      "▁wanci": 4935,
      "insi": 4936,
      "adakan": 4937,
      "▁ganj": 4938,
      "▁Sed": 4939,
      "▁Sej": 4940,
      "▁jangk": 4941,
      "▁lanj": 4942,
      "▁Pro": 4943,
      "▁Adh": 4944,
      "▁dhisik": 4945,
      "▁Nus": 4946,
      "▁Min": 4947,
      "▁Matar": 4948,
      "▁Br": 4949,
      "▁Bant": 4950,
      "▁Tug": 4951,
      "eget": 4952,
      "▁Dipun": 4953,
      "▁Desa": 4954,
      "▁ndang": 4955,
      "▁Cak": 4956,
      "▁marine": 4957,
      "▁umure": 4958,
      "▁makaten": 4959,
      "▁kemerd": 4960,
      "▁Sury": 4961,
      "▁ngurusi": 4962,
      "aksud": 4963,
      "000": 4964,
      "▁papat": 4965,
      "▁industri": 4966,
      "▁srengenge": 4967,
      "▁tindakan": 4968,
      "▁ndadekake": 4969,
      "▁ngasilake": 4970,
      "ci": 4971,
      "wah": 4972,
      "wal": 4973,
      "▁sod": 4974,
      "▁sub": 4975,
      "▁kite": 4976,
      "akke": 4977,
      "enis": 4978,
      "▁pip": 4979,
      "▁pukul": 4980,
      "ikake": 4981,
      "erangan": 4982,
      "amar": 4983,
      "▁ta,": 4984,
      "▁li": 4985,
      "▁let": 4986,
      "▁lakon": 4987,
      "▁legi": 4988,
      "onik": 4989,
      "awan.": 4990,
      "inar": 4991,
      "raos": 4992,
      "eter": 4993,
      "▁Sat": 4994,
      "▁jawa": 4995,
      "▁cum": 4996,
      "▁Minggu": 4997,
      "▁Budh": 4998,
      "▁Tak": 4999,
      "▁IP": 5000,
      "enengan": 5001,
      "endra,": 5002,
      "▁sekirane": 5003,
      "▁Gr": 5004,
      "▁Guru": 5005,
      "▁Genuh": 5006,
      "ohno": 5007,
      "▁alternatif": 5008,
      "▁disk": 5009,
      "▁keth": 5010,
      "▁Umi": 5011,
      "▁age": 5012,
      "▁sampun,": 5013,
      "▁kre": 5014,
      "▁pirsa": 5015,
      "▁resep": 5016,
      "▁kagyat": 5017,
      "▁sosialisme": 5018,
      "▁wayang.": 5019,
      "unjuk": 5020,
      "▁ndhog": 5021,
      "▁pegel": 5022,
      "▁pisah": 5023,
      "▁gagal": 5024,
      "▁prabu,": 5025,
      "▁liyan-liyane": 5026,
      "▁okeh": 5027,
      "▁ngupaya": 5028,
      "▁mudhun": 5029,
      "-ar": 5030,
      "ras": 5031,
      "tane": 5032,
      "wan": 5033,
      "▁kedh": 5034,
      "▁dul": 5035,
      "▁manggih": 5036,
      "▁nuk": 5037,
      "▁bilih": 5038,
      "▁lepas": 5039,
      "▁wuwus": 5040,
      "ona": 5041,
      "▁ngik": 5042,
      "raj": 5043,
      "eli": 5044,
      "▁Sap": 5045,
      "▁dient": 5046,
      "age": 5047,
      "uluh": 5048,
      "epung": 5049,
      "abuh": 5050,
      "▁canth": 5051,
      "▁Berh": 5052,
      "ebl": 5053,
      "osan": 5054,
      "▁perg": 5055,
      "▁Ram": 5056,
      "▁wise": 5057,
      "▁gawe.": 5058,
      "▁Gres": 5059,
      "▁pram": 5060,
      "ohan": 5061,
      "▁fis": 5062,
      "▁nggih": 5063,
      "▁gelar": 5064,
      "▁mati,": 5065,
      "▁parek": 5066,
      "▁piring": 5067,
      "▁lumampah": 5068,
      "▁lumrah": 5069,
      "▁gede.": 5070,
      "▁garek": 5071,
      "▁elek.": 5072,
      "▁tenanan": 5073,
      "▁dukung": 5074,
      "▁\"Aku": 5075,
      "isth": 5076,
      "▁Kurupati": 5077,
      "▁Kadang": 5078,
      "▁Sangkuni,": 5079,
      "▁internet.": 5080,
      "▁kiwo": 5081,
      "▁konservasi": 5082,
      "▁Rumah": 5083,
      "▁Upacara": 5084,
      "▁Boriksa": 5085,
      "▁LGBT": 5086,
      "-ad": 5087,
      "iew": 5088,
      "tine": 5089,
      "èw": 5090,
      "▁sl": 5091,
      "angen": 5092,
      "akang": 5093,
      "▁majeng": 5094,
      "▁bo": 5095,
      "eri.": 5096,
      "atekno": 5097,
      "▁lor": 5098,
      "▁wruh": 5099,
      "engga": 5100,
      "▁gawa": 5101,
      "apan.": 5102,
      "▁Sujana": 5103,
      "▁diop": 5104,
      "▁Kenc": 5105,
      "▁Ari": 5106,
      "▁cu": 5107,
      "▁Nata": 5108,
      "▁Ber": 5109,
      "no,": 5110,
      "▁Darm": 5111,
      "▁nyes": 5112,
      "▁aris,": 5113,
      "▁ati,": 5114,
      "▁asih": 5115,
      "▁Hotel": 5116,
      "▁Cah": 5117,
      "▁mart": 5118,
      "-mur": 5119,
      "▁dilakoke": 5120,
      "▁ngerti.": 5121,
      "▁Ngaw": 5122,
      "untik": 5123,
      "anipun.": 5124,
      "▁pitung": 5125,
      "▁menehi": 5126,
      "▁garis": 5127,
      "ustad": 5128,
      "▁dhuwung": 5129,
      "anira.": 5130,
      "-cepet": 5131,
      "▁modal": 5132,
      "▁Putra": 5133,
      "▁teknik": 5134,
      "▁jagung": 5135,
      "▁kiwa": 5136,
      "▁daleme": 5137,
      "▁narpati,": 5138,
      "▁dilakoni.": 5139,
      "▁Sarimulya": 5140,
      "Sawise": 5141,
      "▁Berhubung": 5142,
      "AL": 5143,
      "EN": 5144,
      "Kabeh": 5145,
      "Pak": 5146,
      "bud": 5147,
      "ien": 5148,
      "lo": 5149,
      "mur": 5150,
      "yal": 5151,
      "yukur": 5152,
      "▁sh": 5153,
      "enj": 5154,
      "▁pane": 5155,
      "amah": 5156,
      "ami,": 5157,
      "▁tiw": 5158,
      "▁luk": 5159,
      "awas": 5160,
      "▁griya": 5161,
      "aga.": 5162,
      "▁remen": 5163,
      "anggar": 5164,
      "anggung": 5165,
      "umsi": 5166,
      "▁Bis": 5167,
      "ajari": 5168,
      "ayat": 5169,
      "up,": 5170,
      "▁ningali": 5171,
      "▁prat": 5172,
      "▁mbal": 5173,
      "▁nggaw": 5174,
      "▁mleb": 5175,
      "▁dikembang": 5176,
      "▁didamel": 5177,
      "▁vit": 5178,
      "▁kanan": 5179,
      "▁murah.": 5180,
      "▁garap": 5181,
      "▁ngandani": 5182,
      "▁Senadyan,": 5183,
      "▁kuliah.": 5184,
      "▁bapakku": 5185,
      "▁sesuatu": 5186,
      "▁maksud": 5187,
      "▁lampahe": 5188,
      "▁bekas": 5189,
      "ersitas": 5190,
      "▁nginiki": 5191,
      "▁Padal": 5192,
      "▁mripat": 5193,
      "▁Tiongk": 5194,
      "▁efektif": 5195,
      "▁perjalanan": 5196,
      "▁undang-undang": 5197,
      "▁caritakaken": 5198,
      "▁Yudhisth": 5199,
      "jek": 5200,
      "pir": 5201,
      "rem": 5202,
      "sal": 5203,
      "tor": 5204,
      "arone": 5205,
      "▁poso": 5206,
      "ikan,": 5207,
      "▁buta": 5208,
      "erja": 5209,
      "▁tatan": 5210,
      "▁tingg": 5211,
      "isan,": 5212,
      "uran,": 5213,
      "iter": 5214,
      "ongg": 5215,
      "▁Ses": 5216,
      "▁remp": 5217,
      "▁Krat": 5218,
      "iri,": 5219,
      "ilad": 5220,
      "▁Pol": 5221,
      "▁Mel": 5222,
      "▁Mut": 5223,
      "ebar": 5224,
      "▁terg": 5225,
      "▁pasang": 5226,
      "▁Was": 5227,
      "▁Wulan": 5228,
      "▁har": 5229,
      "▁seka": 5230,
      "embah": 5231,
      "▁area": 5232,
      "▁nagari,": 5233,
      "ibat": 5234,
      "▁ala": 5235,
      "▁diperc": 5236,
      "▁masuk": 5237,
      "▁ketem": 5238,
      "▁margi": 5239,
      "ira-k": 5240,
      "▁kantun": 5241,
      "▁Al-": 5242,
      "▁banyu,": 5243,
      "ektu": 5244,
      "▁jaler": 5245,
      "▁lakoke": 5246,
      "▁Menurut": 5247,
      "▁situs": 5248,
      "▁kancaku": 5249,
      "▁Ibu.": 5250,
      "▁wedhus": 5251,
      "▁istirah": 5252,
      "▁sempet": 5253,
      "▁payo": 5254,
      "▁kesalahan": 5255,
      "-aneh": 5256,
      "i-": 5257,
      "nik": 5258,
      "su": 5259,
      "sa.": 5260,
      "▁ustad": 5261,
      "▁sama": 5262,
      "akan,": 5263,
      "ak'e": 5264,
      "ikat": 5265,
      "▁nap": 5266,
      "▁lintang": 5267,
      "eku,": 5268,
      "▁nging": 5269,
      "urip": 5270,
      "▁gem": 5271,
      "▁guduk": 5272,
      "▁Sig": 5273,
      "ehe": 5274,
      "▁rn": 5275,
      "▁rant": 5276,
      "▁rebut": 5277,
      "▁jus": 5278,
      "▁Kun": 5279,
      "▁Kota": 5280,
      "▁Bub": 5281,
      "▁Bumi": 5282,
      "▁sakd": 5283,
      "upaten": 5284,
      "▁perh": 5285,
      "▁perasaan": 5286,
      "▁pasir": 5287,
      "▁hid": 5288,
      "ontrol": 5289,
      "▁liyo,": 5290,
      "▁olah": 5291,
      "▁kendh": 5292,
      "enggung": 5293,
      "▁mulo": 5294,
      "▁langsung.": 5295,
      "▁sadaya,": 5296,
      "▁kemungk": 5297,
      "▁turu.": 5298,
      "▁blas.": 5299,
      "▁ngetut": 5300,
      "▁cepet-cepet": 5301,
      "▁gurih": 5302,
      "▁pandemi": 5303,
      "▁adoh.": 5304,
      "▁emosi": 5305,
      "▁jagad": 5306,
      "▁busana": 5307,
      "▁nampa": 5308,
      "▁mandheg": 5309,
      "▁warnane": 5310,
      "▁Jogja.": 5311,
      "▁yakin": 5312,
      "▁pemilu": 5313,
      "▁Allah.": 5314,
      "▁dialami": 5315,
      "▁reinkarnasi": 5316,
      "RI": 5317,
      "ia,": 5318,
      "les": 5319,
      "ry": 5320,
      "▁sari": 5321,
      "ark": 5322,
      "▁potensi": 5323,
      "iko": 5324,
      "▁baya": 5325,
      "ahter": 5326,
      "▁lemp": 5327,
      "▁layang": 5328,
      "▁wir": 5329,
      "▁nguw": 5330,
      "▁ngolah": 5331,
      "▁ge": 5332,
      "▁gandh": 5333,
      "▁galih": 5334,
      "▁godong": 5335,
      "unga": 5336,
      "▁San": 5337,
      "▁jasa": 5338,
      "▁Kres": 5339,
      "abet": 5340,
      "abil": 5341,
      "▁cuma": 5342,
      "▁Nulya": 5343,
      "▁Bed": 5344,
      "▁Taman": 5345,
      "▁Dem": 5346,
      "▁Wij": 5347,
      "▁Gareng": 5348,
      "▁priya": 5349,
      "▁sae": 5350,
      "▁mbiyen": 5351,
      "▁ngguy": 5352,
      "iwati": 5353,
      "▁digowo": 5354,
      "▁angandika": 5355,
      "amanan": 5356,
      "▁biji": 5357,
      "▁enem": 5358,
      "▁dinilai": 5359,
      "indungi": 5360,
      "▁mateni": 5361,
      "▁balapan": 5362,
      "▁panganan.": 5363,
      "▁kamer": 5364,
      "▁khotbah": 5365,
      "▁Anc": 5366,
      "▁sens": 5367,
      "▁sadurunge": 5368,
      "▁dicekel": 5369,
      "▁saling": 5370,
      "▁mantuk": 5371,
      "▁lagya": 5372,
      "▁resik.": 5373,
      "▁gunung,": 5374,
      "▁narik": 5375,
      "▁planet": 5376,
      "▁trauma": 5377,
      "▁wadon": 5378,
      "aksan": 5379,
      "▁bahkan": 5380,
      "▁mien": 5381,
      "▁sengojo": 5382,
      "▁layar": 5383,
      "▁nginep": 5384,
      "▁weteng": 5385,
      "▁operasi": 5386,
      "▁tiga": 5387,
      "▁\"Yen": 5388,
      "▁Enem,": 5389,
      "▁presiden": 5390,
      "▁caritakaken:": 5391,
      "Mb": 5392,
      "PR": 5393,
      "np": 5394,
      "▁engko": 5395,
      "▁kanti": 5396,
      "▁kyai": 5397,
      "▁dus": 5398,
      "▁mah": 5399,
      "▁paman": 5400,
      "▁pira": 5401,
      "▁nand": 5402,
      "▁nate": 5403,
      "▁bumb": 5404,
      "ali,": 5405,
      "▁wid": 5406,
      "▁gangg": 5407,
      "elang": 5408,
      "itab": 5409,
      "itasi": 5410,
      "▁Sapa": 5411,
      "uku,": 5412,
      "utusan": 5413,
      "ume": 5414,
      "epak": 5415,
      "ilet": 5416,
      "▁akses": 5417,
      "▁Bap": 5418,
      "ajang": 5419,
      "upan": 5420,
      "andalem": 5421,
      "▁nyambung": 5422,
      "▁Gal": 5423,
      "▁diper": 5424,
      "▁kalebet": 5425,
      "▁raga": 5426,
      "▁masang": 5427,
      "▁asam": 5428,
      "▁katingal": 5429,
      "▁tandha": 5430,
      "▁pemimpin": 5431,
      "▁kapur": 5432,
      "yarat": 5433,
      "▁Alat": 5434,
      "▁seru": 5435,
      "▁metode": 5436,
      "▁cerit": 5437,
      "▁ayat": 5438,
      "▁ngadakake": 5439,
      "▁ngendika": 5440,
      "nya.": 5441,
      "▁batik": 5442,
      "▁cepet.": 5443,
      "▁guruku": 5444,
      "-cil": 5445,
      "▁pawon": 5446,
      "▁macem-macem.": 5447,
      "arsa,": 5448,
      "useum": 5449,
      "▁purun": 5450,
      "▁tembung": 5451,
      "▁hasile": 5452,
      "▁Misale,": 5453,
      "▁nikah": 5454,
      "▁aneh-aneh": 5455,
      "▁tertent": 5456,
      "▁piyambak": 5457,
      "▁Surab": 5458,
      "▁Suroboyo": 5459,
      "▁tandhing": 5460,
      "▁promosi": 5461,
      "▁mijil": 5462,
      "▁Tiktok": 5463,
      "▁karyawan": 5464,
      "-uw": 5465,
      "Sab": 5466,
      "bi": 5467,
      "ck": 5468,
      "da,": 5469,
      "ean": 5470,
      "▁angsal": 5471,
      "▁saran": 5472,
      "▁mid": 5473,
      "▁pamb": 5474,
      "▁nal": 5475,
      "▁nuduh": 5476,
      "▁beta": 5477,
      "alan,": 5478,
      "▁tapa": 5479,
      "atan,": 5480,
      "engok": 5481,
      "▁nganjurno": 5482,
      "unan,": 5483,
      "▁grat": 5484,
      "itis": 5485,
      "▁rej": 5486,
      "▁renc": 5487,
      "▁jed": 5488,
      "▁jantung": 5489,
      "edeg": 5490,
      "▁Ayo": 5491,
      "▁anulya": 5492,
      "ol,": 5493,
      "▁Mah": 5494,
      "▁karakter": 5495,
      "▁Tar": 5496,
      "▁Tub": 5497,
      "egal": 5498,
      "▁awakku": 5499,
      "▁uji": 5500,
      "▁sakit": 5501,
      "otong": 5502,
      "angkul": 5503,
      "▁nyemp": 5504,
      "▁Rasa": 5505,
      "▁Rajeng": 5506,
      "▁nenggih": 5507,
      "▁ono,": 5508,
      "▁wisat": 5509,
      "▁menj": 5510,
      "▁Lam": 5511,
      "▁mbangun": 5512,
      "▁alami": 5513,
      "▁kala": 5514,
      "▁kelangan": 5515,
      "▁biasa,": 5516,
      "▁adil": 5517,
      "▁kesah": 5518,
      "▁Unt": 5519,
      "▁dina.": 5520,
      "▁dewe-d": 5521,
      "▁panunggale.": 5522,
      "▁negeri": 5523,
      "▁dibanding": 5524,
      "▁petek": 5525,
      "▁sedih": 5526,
      "▁keweden": 5527,
      "▁kakung": 5528,
      "▁raket": 5529,
      "▁ngaji": 5530,
      "▁ngajari": 5531,
      "▁Atas": 5532,
      "▁strat": 5533,
      "▁suara": 5534,
      "▁lingkungan.": 5535,
      "▁darbe": 5536,
      "▁Mula,": 5537,
      "▁jumeneng": 5538,
      "▁pegawe": 5539,
      "▁penyebab": 5540,
      "▁pejah,": 5541,
      "▁Pangeran": 5542,
      "▁nyenengake": 5543,
      "▁sewu": 5544,
      "▁tambahan": 5545,
      "▁Kepala": 5546,
      "▁lurah": 5547,
      "▁keluargane": 5548,
      "▁mampir": 5549,
      "▁Muslim": 5550,
      "▁Pemanahan": 5551,
      "▁tigang": 5552,
      "▁kertas": 5553,
      "),": 5554,
      "-ter": 5555,
      "Ki": 5556,
      "SI": 5557,
      "di,": 5558,
      "sani": 5559,
      "▁et": 5560,
      "▁sangsaya": 5561,
      "▁kis": 5562,
      "ingali": 5563,
      "arangan": 5564,
      "▁dang": 5565,
      "▁mapan": 5566,
      "eru": 5567,
      "atang": 5568,
      "eki.": 5569,
      "▁wadah": 5570,
      "▁wengi": 5571,
      "▁ngus": 5572,
      "▁kue": 5573,
      "apur": 5574,
      "▁rata": 5575,
      "▁jab": 5576,
      "▁Kowe": 5577,
      "▁Kart": 5578,
      "iris": 5579,
      "▁anak,": 5580,
      "▁Nal": 5581,
      "ajaan": 5582,
      "ipi": 5583,
      "▁Gur": 5584,
      "▁mungel": 5585,
      "▁disimpen": 5586,
      "▁Ok": 5587,
      "▁panggung": 5588,
      "▁putih,": 5589,
      "unggah": 5590,
      "▁Ngam": 5591,
      "▁mateng.": 5592,
      "▁park": 5593,
      "▁seped": 5594,
      "▁kase": 5595,
      "urit.": 5596,
      "▁objek": 5597,
      "▁adhi": 5598,
      "▁dewa": 5599,
      "▁sayur": 5600,
      "▁sega": 5601,
      "▁sehat.": 5602,
      "▁sukses": 5603,
      "▁dahar": 5604,
      "▁gatekno": 5605,
      "ampunipun": 5606,
      "▁\"Heh": 5607,
      "▁janji": 5608,
      "▁wingi,": 5609,
      "▁Paling": 5610,
      "▁ngamuk": 5611,
      "▁lancar": 5612,
      "▁ukurane": 5613,
      "▁sederhana": 5614,
      "▁Kacariyos": 5615,
      "▁Wangsulanipun": 5616,
      "AH": 5617,
      "II.": 5618,
      "Sa": 5619,
      "Yen": 5620,
      "dalem": 5621,
      "idu": 5622,
      "tin": 5623,
      "▁siy": 5624,
      "▁sandh": 5625,
      "▁sandika": 5626,
      "aking": 5627,
      "aro": 5628,
      "▁mui": 5629,
      "ali.": 5630,
      "▁tahan": 5631,
      "▁tali": 5632,
      "▁les": 5633,
      "▁wang": 5634,
      "▁won": 5635,
      "▁weng": 5636,
      "▁nguk": 5637,
      "▁ngom": 5638,
      "inasi": 5639,
      "un-al": 5640,
      "ada,": 5641,
      "elen": 5642,
      "oka": 5643,
      "apo": 5644,
      "▁Sol": 5645,
      "utur": 5646,
      "utub": 5647,
      "▁ret": 5648,
      "ulang": 5649,
      "▁jel": 5650,
      "▁Kom": 5651,
      "▁Ny": 5652,
      "▁wong,": 5653,
      "a,\"": 5654,
      "▁Tet": 5655,
      "▁aprang": 5656,
      "▁ya.": 5657,
      "▁ngerti,": 5658,
      "▁La": 5659,
      "og.": 5660,
      "▁mesen": 5661,
      "▁kalih,": 5662,
      "▁nggon": 5663,
      "▁merd": 5664,
      "▁terus,": 5665,
      "ijine": 5666,
      "▁ketur": 5667,
      "▁Cuma": 5668,
      "▁seneng,": 5669,
      "anjure": 5670,
      "▁opo.": 5671,
      "▁enjing": 5672,
      "▁sinung": 5673,
      "▁manawi": 5674,
      "▁Uga": 5675,
      "▁panik": 5676,
      "▁peman": 5677,
      "▁dikei": 5678,
      "▁omahe.": 5679,
      "▁olehe": 5680,
      "▁ngunu,": 5681,
      "▁makan": 5682,
      "▁Akhir": 5683,
      "▁tumindak": 5684,
      "▁niat": 5685,
      "▁salam": 5686,
      "▁manthuk": 5687,
      "▁Sekolah": 5688,
      "▁Menur": 5689,
      "▁bingung.": 5690,
      "▁geger": 5691,
      "▁tuku.": 5692,
      "▁lampu": 5693,
      "▁coklat": 5694,
      "▁gantya": 5695,
      "▁Jayadrata": 5696,
      "▁lucu": 5697,
      "▁Korawa": 5698,
      "▁Jemur": 5699,
      "▁kebiasaan": 5700,
      "▁muncul": 5701,
      "-ibu": 5702,
      "▁persiapan": 5703,
      "ira-kira": 5704,
      "'e.": 5705,
      "A.": 5706,
      "Ibu": 5707,
      "WT": 5708,
      "aa": 5709,
      "per": 5710,
      "yo,": 5711,
      "▁int": 5712,
      "▁sim": 5713,
      "ing-": 5714,
      "arine": 5715,
      "▁dok": 5716,
      "▁path": 5717,
      "▁psik": 5718,
      "iku.": 5719,
      "▁bil": 5720,
      "▁baj": 5721,
      "ahu": 5722,
      "alam": 5723,
      "▁langg": 5724,
      "▁lint": 5725,
      "asta": 5726,
      "isir": 5727,
      "▁wang,": 5728,
      "oni.": 5729,
      "▁gong": 5730,
      "▁kub": 5731,
      "apag": 5732,
      "▁Ser": 5733,
      "▁SWT": 5734,
      "utha": 5735,
      "▁diul": 5736,
      "▁Koyo": 5737,
      "▁Pek": 5738,
      "ord": 5739,
      "▁Matur": 5740,
      "▁yeksa": 5741,
      "▁Tum": 5742,
      "▁perang.": 5743,
      "▁peraturan": 5744,
      "▁utang": 5745,
      "▁Jag": 5746,
      "▁sekar": 5747,
      "▁menit": 5748,
      "▁mendh": 5749,
      "▁nagara": 5750,
      "▁kalangkung": 5751,
      "▁masakan": 5752,
      "ug,": 5753,
      "▁disi": 5754,
      "▁penump": 5755,
      "ujeng": 5756,
      "▁pola": 5757,
      "▁adek": 5758,
      "▁adem": 5759,
      "▁manungs": 5760,
      "▁perkembang": 5761,
      "estu": 5762,
      "▁warisan": 5763,
      "▁sawat": 5764,
      "▁diduweni": 5765,
      "▁pentinge": 5766,
      "▁Anak": 5767,
      "▁beban": 5768,
      "▁paket": 5769,
      "▁gunung.": 5770,
      "▁sikil.": 5771,
      "▁resiko": 5772,
      "▁sambil": 5773,
      "ebabake": 5774,
      "▁bosen": 5775,
      "▁diajak": 5776,
      "▁2022": 5777,
      "▁miyarsa": 5778,
      "▁Umarm": 5779,
      "atria": 5780,
      "▁Jepang": 5781,
      "▁Purwak": 5782,
      "▁pengaruh": 5783,
      "▁dampak": 5784,
      "▁kekurangan": 5785,
      "▁kepercayaan": 5786,
      "Nalika": 5787,
      "sin": 5788,
      "wat": 5789,
      "wa.": 5790,
      "aring,": 5791,
      "▁dand": 5792,
      "▁dinten": 5793,
      "▁mup": 5794,
      "▁mom": 5795,
      "▁manggon": 5796,
      "▁ne.": 5797,
      "▁bok": 5798,
      "▁bend": 5799,
      "▁tedhak": 5800,
      "▁lare": 5801,
      "▁latar": 5802,
      "asan,": 5803,
      "▁ngaku": 5804,
      "▁ngres": 5805,
      "una.": 5806,
      "▁gub": 5807,
      "apt": 5808,
      "apan,": 5809,
      "▁SI": 5810,
      "uta,": 5811,
      "▁ruw": 5812,
      "▁row": 5813,
      "▁riw": 5814,
      "ula,": 5815,
      "▁jah": 5816,
      "▁dhuh": 5817,
      "▁cipt": 5818,
      "▁Mars": 5819,
      "▁Museum": 5820,
      "▁karuan": 5821,
      "▁Tokoh": 5822,
      "▁Di": 5823,
      "angkah": 5824,
      "antara": 5825,
      "anten,": 5826,
      "▁Jer": 5827,
      "owone": 5828,
      "▁Wiwit": 5829,
      "argaan": 5830,
      "▁Ger": 5831,
      "▁mbahas": 5832,
      "▁merek": 5833,
      "▁asru": 5834,
      "▁pendh": 5835,
      "▁opo'o": 5836,
      "▁putih.": 5837,
      "enggol": 5838,
      "▁sarni": 5839,
      "▁kapanggih": 5840,
      "esth": 5841,
      "▁gampang,": 5842,
      "▁duwure": 5843,
      "▁aborsi": 5844,
      "▁tumut": 5845,
      "▁jam.": 5846,
      "▁prapti": 5847,
      "▁tekanan": 5848,
      "▁nulungi": 5849,
      "▁peth": 5850,
      "▁sumerep": 5851,
      "▁antarane": 5852,
      "▁stasiun": 5853,
      "▁percobaan": 5854,
      "▁ngurus": 5855,
      "▁situ": 5856,
      "▁konsep": 5857,
      "▁ujung": 5858,
      "▁nggoleki": 5859,
      "▁putrane": 5860,
      "▁listrik.": 5861,
      "▁komunitas": 5862,
      "▁komunikasi": 5863,
      "▁Bratas": 5864,
      "▁Majal": 5865,
      "▁tindak": 5866,
      "▁Setyak": 5867,
      "▁langkah": 5868,
      "▁sejarahe": 5869,
      "▁ningkatno": 5870,
      "▁terlalu": 5871,
      "▁akeh-akehe": 5872,
      "▁banjir": 5873,
      "▁pakuwon": 5874,
      "▁Rahaden": 5875,
      "▁Tujuane": 5876,
      "▁lanjut": 5877,
      "▁Kraton": 5878,
      "k.": 5879,
      "ue": 5880,
      "ura,": 5881,
      "yah,": 5882,
      "▁sip": 5883,
      "▁driya": 5884,
      "▁mor": 5885,
      "▁pon": 5886,
      "▁nari": 5887,
      "▁nahan": 5888,
      "ales": 5889,
      "amu,": 5890,
      "▁tuhu": 5891,
      "▁lengg": 5892,
      "isti": 5893,
      "▁walik": 5894,
      "onj": 5895,
      "▁ngangg": 5896,
      "▁ngalah": 5897,
      "▁ngisi": 5898,
      "un-": 5899,
      "adene": 5900,
      "urus": 5901,
      "eluk": 5902,
      "apati": 5903,
      "utus": 5904,
      "▁rug": 5905,
      "uli,": 5906,
      "▁anan": 5907,
      "abe": 5908,
      "▁Biy": 5909,
      "▁Durung": 5910,
      "▁sakjane": 5911,
      "▁karoan.": 5912,
      "▁nyud": 5913,
      "▁Rint": 5914,
      "▁tekst": 5915,
      "▁Lawan": 5916,
      "▁digoreng": 5917,
      "▁ditutup": 5918,
      "▁sop": 5919,
      "-bahan": 5920,
      "aliob": 5921,
      "▁dikeki": 5922,
      "-podo": 5923,
      "▁omahku": 5924,
      "▁Pasar": 5925,
      "▁kripik": 5926,
      "▁daf": 5927,
      "ingkat": 5928,
      "▁makane": 5929,
      "▁tuwan": 5930,
      "▁31.": 5931,
      "▁tumunten": 5932,
      "▁endah": 5933,
      "▁jerone": 5934,
      "▁uwong.": 5935,
      "▁cilik-cil": 5936,
      "▁taun.": 5937,
      "▁gumun": 5938,
      "▁jarak": 5939,
      "▁plat": 5940,
      "▁minyak": 5941,
      "▁gurune": 5942,
      "▁bahagi": 5943,
      "▁kadhat": 5944,
      "▁wangsulan": 5945,
      "▁Gusti.": 5946,
      "▁ateis": 5947,
      "▁greget": 5948,
      "ovid": 5949,
      "▁konco-koncoku": 5950,
      "▁ngerasakno": 5951,
      "▁endi-endi.": 5952,
      "▁penghasil": 5953,
      "▁istilah": 5954,
      "▁diresiki": 5955,
      "▁Trans": 5956,
      "▁toleran": 5957,
      "▁Jayawilad": 5958,
      "▁Partai": 5959,
      "▁kepentingan": 5960,
      "▁kebijakan": 5961,
      "èwèk": 5962,
      "-an": 5963,
      "-or": 5964,
      "Bapak": 5965,
      "kat": 5966,
      "mi,": 5967,
      "sur": 5968,
      "sara": 5969,
      "▁sana": 5970,
      "▁kenth": 5971,
      "akune": 5972,
      "erita": 5973,
      "▁tl": 5974,
      "▁tap": 5975,
      "▁tengg": 5976,
      "▁laku": 5977,
      "asan.": 5978,
      "▁ngindari": 5979,
      "inta": 5980,
      "adang": 5981,
      "urang": 5982,
      "▁gent": 5983,
      "ukman": 5984,
      "▁rel": 5985,
      "▁rom": 5986,
      "▁rute": 5987,
      "▁ja": 5988,
      "▁Kos": 5989,
      "ep,": 5990,
      "ireki,": 5991,
      "ede": 5992,
      "ambat": 5993,
      "▁Bira": 5994,
      "▁Banak": 5995,
      "▁karb": 5996,
      "▁karu": 5997,
      "▁karep": 5998,
      "▁Tas": 5999,
      "▁Tib": 6000,
      "▁Tahun": 6001,
      "▁Ir": 6002,
      "▁Wira": 6003,
      "▁hor": 6004,
      "▁\"Ng": 6005,
      "▁Gust": 6006,
      "▁aliran": 6007,
      "obl": 6008,
      "▁kerasa": 6009,
      "▁nggatekake": 6010,
      "▁berangkat": 6011,
      "▁berubah": 6012,
      "▁katong,": 6013,
      "▁Ham": 6014,
      "▁Ch": 6015,
      "▁adonan": 6016,
      "▁umb": 6017,
      "▁denya": 6018,
      "▁sawah.": 6019,
      "▁dibagi": 6020,
      "ungkul": 6021,
      "resn": 6022,
      "▁tumuli": 6023,
      "▁keadaan": 6024,
      "▁kaf": 6025,
      "▁jenise": 6026,
      "▁rasane.": 6027,
      "▁Iso": 6028,
      "▁wektune": 6029,
      "▁standar": 6030,
      "▁pemerintah.": 6031,
      "▁alam.": 6032,
      "▁Menawi": 6033,
      "▁dunya": 6034,
      "▁indones": 6035,
      "▁mamaku": 6036,
      "▁kanca-kancane.": 6037,
      "▁karsane": 6038,
      "▁Narendra": 6039,
      "▁mundhut": 6040,
      "▁nyeritakake": 6041,
      "▁linggih": 6042,
      "▁ninggalake": 6043,
      "▁bunder": 6044,
      "▁De'e": 6045,
      "▁gangguan": 6046,
      "!!": 6047,
      "'an": 6048,
      "AS": 6049,
      "KM": 6050,
      "gane": 6051,
      "kok": 6052,
      "suk": 6053,
      "yata": 6054,
      "za": 6055,
      "▁mamb": 6056,
      "ikul": 6057,
      "iki.": 6058,
      "amen": 6059,
      "amut": 6060,
      "▁titik": 6061,
      "ater": 6062,
      "▁lawuh": 6063,
      "ekne": 6064,
      "▁wig": 6065,
      "▁wana,": 6066,
      "onane": 6067,
      "ins": 6068,
      "inal": 6069,
      "▁gada": 6070,
      "▁ganggu": 6071,
      "esik": 6072,
      "▁Sut": 6073,
      "▁dianjurno": 6074,
      "ewati": 6075,
      "▁romb": 6076,
      "▁jawi": 6077,
      "▁Parm": 6078,
      "abar": 6079,
      "ambil": 6080,
      "▁cumi": 6081,
      "▁Nyai": 6082,
      "▁Marang": 6083,
      "▁awujud": 6084,
      "ampilan": 6085,
      "ayu,": 6086,
      "▁Des": 6087,
      "oth": 6088,
      "▁sida": 6089,
      "▁nyedh": 6090,
      "▁nyegah": 6091,
      "▁terp": 6092,
      "▁Rong": 6093,
      "an,\"": 6094,
      "▁sekali": 6095,
      "oyo,": 6096,
      "▁Lum": 6097,
      "idak": 6098,
      "▁dipikir": 6099,
      "▁nggowo": 6100,
      "aian": 6101,
      "▁bioskop": 6102,
      "▁urusan": 6103,
      "▁njajal": 6104,
      "▁maneka": 6105,
      "▁Ul": 6106,
      "▁agama,": 6107,
      "▁ajrih": 6108,
      "▁sepisan": 6109,
      "ungkus": 6110,
      "resi": 6111,
      "▁Anunten": 6112,
      "▁podo-podo": 6113,
      "▁manteri": 6114,
      "▁kewala,": 6115,
      "▁kekalih": 6116,
      "▁diwei": 6117,
      "▁gumuk": 6118,
      "▁jareku": 6119,
      "▁winarna": 6120,
      "ethuk": 6121,
      "▁suatu": 6122,
      "▁kompor": 6123,
      "▁produksi": 6124,
      "▁kandha": 6125,
      "▁artis": 6126,
      "▁tugase": 6127,
      "▁toilet": 6128,
      "▁foto-f": 6129,
      "▁pecel": 6130,
      "▁diadakno": 6131,
      "▁Bocah-bocah": 6132,
      "▁raja,": 6133,
      "▁peneliti": 6134,
      "▁mudun": 6135,
      "▁Pandan": 6136,
      "▁sanggar": 6137,
      "▁bathik": 6138,
      "▁Burudangin,": 6139,
      "▁Majapait": 6140,
      "-mu": 6141,
      "Sing": 6142,
      "pen": 6143,
      "uga": 6144,
      "▁angka": 6145,
      "▁sangk": 6146,
      "▁kara": 6147,
      "▁kiro": 6148,
      "enah": 6149,
      "▁mono": 6150,
      "erang": 6151,
      "ahir": 6152,
      "▁tebih": 6153,
      "▁wac": 6154,
      "▁wingk": 6155,
      "▁ngati": 6156,
      "▁nguntung": 6157,
      "▁gam": 6158,
      "ukno": 6159,
      "uka.": 6160,
      "agas": 6161,
      "umateng": 6162,
      "iri.": 6163,
      "ilar": 6164,
      "▁Panggon": 6165,
      "▁Ni": 6166,
      "▁Buk": 6167,
      "▁Idul": 6168,
      "▁perm": 6169,
      "arang.": 6170,
      "▁hiburan": 6171,
      "▁bening": 6172,
      "▁Gath": 6173,
      "oh,": 6174,
      "▁beras": 6175,
      "▁terus-ter": 6176,
      "▁olahan": 6177,
      "▁soal": 6178,
      "▁njelas": 6179,
      "▁kadung": 6180,
      "▁durunge.": 6181,
      "estasi": 6182,
      "▁semester": 6183,
      "▁32.": 6184,
      "▁petani": 6185,
      "▁ayem": 6186,
      "▁sosial.": 6187,
      "ura.": 6188,
      "▁ngandel": 6189,
      "▁negara,": 6190,
      "▁enth": 6191,
      "▁angel.": 6192,
      "erintah": 6193,
      "▁kabar": 6194,
      "▁regone": 6195,
      "▁adhiku": 6196,
      "▁Sarwa": 6197,
      "▁kompl": 6198,
      "▁keju": 6199,
      "▁positif": 6200,
      "▁angling": 6201,
      "▁nerusake": 6202,
      "▁rupa": 6203,
      "▁pisan.": 6204,
      "▁komunis": 6205,
      "▁Penangsang": 6206,
      "▁kerjone": 6207,
      "erteni": 6208,
      "▁muga": 6209,
      "▁pepak": 6210,
      "▁Samas": 6211,
      "▁wasp": 6212,
      "▁mandek": 6213,
      "▁tegese": 6214,
      "▁pandhita": 6215,
      "▁bengi.": 6216,
      "▁Dadakno": 6217,
      "▁bertahan": 6218,
      "▁repot": 6219,
      "▁undian": 6220,
      "▁Stasiun": 6221,
      "▁pindho,": 6222,
      "▁kemawon,": 6223,
      "▁gizi": 6224,
      "▁popul": 6225,
      "èwèké": 6226,
      "AW": 6227,
      "GM": 6228,
      "Mbah": 6229,
      "mi.": 6230,
      "nu": 6231,
      "uji": 6232,
      "▁soto": 6233,
      "akat": 6234,
      "ak-b": 6235,
      "▁napa": 6236,
      "eran.": 6237,
      "ersi": 6238,
      "▁ting": 6239,
      "▁taman": 6240,
      "▁lat": 6241,
      "▁lemu": 6242,
      "asaran": 6243,
      "▁wots": 6244,
      "▁ngub": 6245,
      "adan": 6246,
      "adem": 6247,
      "▁geh": 6248,
      "etak": 6249,
      "▁Say": 6250,
      "▁Sind": 6251,
      "epuk": 6252,
      "epake": 6253,
      "▁PR": 6254,
      "▁anama": 6255,
      "▁catur": 6256,
      "▁Bath": 6257,
      "▁aweh": 6258,
      "adi.": 6259,
      "ipe": 6260,
      "▁Taun": 6261,
      "ebeng": 6262,
      "▁awak,": 6263,
      "▁Dit": 6264,
      "▁Dana": 6265,
      "▁Dyah": 6266,
      "▁pasangane": 6267,
      "asia": 6268,
      "e,\"": 6269,
      "▁Langkung": 6270,
      "▁alesane": 6271,
      "obia": 6272,
      "▁dipangg": 6273,
      "▁omongan": 6274,
      "▁fil": 6275,
      "▁keluwarga": 6276,
      "▁disel": 6277,
      "▁prayog": 6278,
      "▁ditulis": 6279,
      "▁senengi": 6280,
      "▁putra,": 6281,
      "▁dikarep": 6282,
      "▁aji,": 6283,
      "▁ngaruh": 6284,
      "▁tuwane": 6285,
      "▁kawarna": 6286,
      "▁Ard": 6287,
      "▁abang,": 6288,
      "▁anakku": 6289,
      "▁saluran": 6290,
      "▁inf": 6291,
      "▁bener,": 6292,
      "mainan": 6293,
      "▁gede,": 6294,
      "▁misale,": 6295,
      "▁tenaga": 6296,
      "▁jalma": 6297,
      "▁liya,": 6298,
      "▁sirn": 6299,
      "▁kuneng": 6300,
      "▁budal": 6301,
      "▁penggun": 6302,
      "▁udara": 6303,
      "▁mentas": 6304,
      "▁juml": 6305,
      "▁muter": 6306,
      "▁ngandika:": 6307,
      "▁larang.": 6308,
      "▁Kadarw": 6309,
      "▁perjuangan": 6310,
      "▁bandara": 6311,
      "▁penghargaan": 6312,
      "▁betah": 6313,
      "▁jinis": 6314,
      "▁anak-an": 6315,
      "▁eca": 6316,
      "▁Prabu,": 6317,
      "▁Krisna": 6318,
      "Al": 6319,
      "En": 6320,
      "PU": 6321,
      "m.": 6322,
      "oan": 6323,
      "rama": 6324,
      "wak": 6325,
      "▁ic": 6326,
      "eneni": 6327,
      "▁muj": 6328,
      "▁nent": 6329,
      "▁nampil": 6330,
      "▁ndud": 6331,
      "▁busan": 6332,
      "▁lek": 6333,
      "▁lil": 6334,
      "▁lara.": 6335,
      "▁wiku": 6336,
      "▁wuri": 6337,
      "▁wetan": 6338,
      "▁wegah": 6339,
      "oni,": 6340,
      "▁Sid": 6341,
      "▁Sopo": 6342,
      "▁diil": 6343,
      "▁diob": 6344,
      "agareng": 6345,
      "▁rare": 6346,
      "▁Kek": 6347,
      "edia": 6348,
      "▁anak.": 6349,
      "▁cabang": 6350,
      "▁Ndh": 6351,
      "▁Narti": 6352,
      "adip": 6353,
      "ampa": 6354,
      "▁kart": 6355,
      "▁Tin": 6356,
      "imat": 6357,
      "entar": 6358,
      "▁kangelan": 6359,
      "▁pasien": 6360,
      "▁apal": 6361,
      "▁he": 6362,
      "▁\"T": 6363,
      "▁Gun": 6364,
      "▁Gand": 6365,
      "▁Lamun": 6366,
      "▁prote": 6367,
      "▁mbuka": 6368,
      "▁14": 6369,
      "▁alun-al": 6370,
      "asai": 6371,
      "iwon": 6372,
      "▁mast": 6373,
      "▁asring": 6374,
      "▁penasar": 6375,
      "▁Cand": 6376,
      "▁keputusan": 6377,
      "▁keseni": 6378,
      "▁dino.": 6379,
      "inda": 6380,
      "▁padhang": 6381,
      "ilihan": 6382,
      "▁eyang": 6383,
      "▁wedi,": 6384,
      "▁seluruh": 6385,
      "▁keyak": 6386,
      "▁gereja": 6387,
      "rata,": 6388,
      "▁dijelas": 6389,
      "▁dhuwur.": 6390,
      "▁pendapat": 6391,
      "▁mengsah": 6392,
      "▁eman": 6393,
      "▁sithik": 6394,
      "▁korb": 6395,
      "▁komputer": 6396,
      "▁Ibuku": 6397,
      "▁rev": 6398,
      "▁ngilangno": 6399,
      "▁\"Iya,": 6400,
      "ondhong": 6401,
      "▁TikT": 6402,
      "▁langit": 6403,
      "▁kocapa": 6404,
      "▁pariwis": 6405,
      "▁Kuparm": 6406,
      "▁Pakdhe": 6407,
      "▁ngatasi": 6408,
      "▁berjuang": 6409,
      "▁ngembangno": 6410,
      "▁iyo": 6411,
      "▁dhewe-dhewe.": 6412,
      "▁Dananjaya": 6413,
      "▁kecelakaan": 6414,
      "▁elektronik": 6415,
      "▁Mutad": 6416,
      "▁tergantung": 6417,
      "▁kemungkinan": 6418,
      "▁Nalagareng": 6419,
      "KN": 6420,
      "dis": 6421,
      "ser": 6422,
      "sem": 6423,
      "▁syarat": 6424,
      "akawan": 6425,
      "▁dari": 6426,
      "▁dri": 6427,
      "▁muwus": 6428,
      "▁nadyan": 6429,
      "▁buj": 6430,
      "▁bekel": 6431,
      "eran,": 6432,
      "alane": 6433,
      "amatan": 6434,
      "isal": 6435,
      "▁wih": 6436,
      "▁welas": 6437,
      "▁ngong": 6438,
      "▁ngirim": 6439,
      "▁ngitung": 6440,
      "ina.": 6441,
      "▁gudh": 6442,
      "▁gath": 6443,
      "aput": 6444,
      "ongs": 6445,
      "▁Saj": 6446,
      "▁Simb": 6447,
      "▁Sumb": 6448,
      "ukak": 6449,
      "▁diet": 6450,
      "agang": 6451,
      "▁jane": 6452,
      "uma,": 6453,
      "▁Kaos": 6454,
      "▁Koyok": 6455,
      "▁Pin": 6456,
      "▁Pend": 6457,
      "edur": 6458,
      "▁cor": 6459,
      "▁cid": 6460,
      "▁cita": 6461,
      "oritas": 6462,
      "▁Nah,": 6463,
      "▁Maliob": 6464,
      "▁Bahan": 6465,
      "eg,": 6466,
      "dhe": 6467,
      "iyah": 6468,
      "uhun,": 6469,
      "▁sakal": 6470,
      "im,": 6471,
      "▁nyat": 6472,
      "▁nyalah": 6473,
      "omu": 6474,
      "▁amit": 6475,
      "▁menit.": 6476,
      "▁priy": 6477,
      "▁prang,": 6478,
      "▁alk": 6479,
      "▁pengetah": 6480,
      "▁dipat": 6481,
      "▁dipasang": 6482,
      "▁keloro": 6483,
      "▁asin": 6484,
      "▁disik,": 6485,
      "▁tanpo": 6486,
      "▁siji-s": 6487,
      "▁Har": 6488,
      "▁penemuan": 6489,
      "▁angucap": 6490,
      "▁kepala": 6491,
      "empa": 6492,
      "▁mark": 6493,
      "▁marek": 6494,
      "▁urang": 6495,
      "▁UGM": 6496,
      "▁sisi": 6497,
      "▁keber": 6498,
      "▁barange": 6499,
      "▁sekolahan": 6500,
      "▁33.": 6501,
      "▁biasane.": 6502,
      "ombang": 6503,
      "▁Arep": 6504,
      "▁jamur": 6505,
      "-lagu": 6506,
      "▁keamanan": 6507,
      "▁sedeh": 6508,
      "▁ulasan": 6509,
      "-tokoh": 6510,
      "▁gunane": 6511,
      "▁goleki": 6512,
      "▁tenang": 6513,
      "▁Ist": 6514,
      "▁ngetokake": 6515,
      "▁lakune": 6516,
      "▁Aswat": 6517,
      "▁Kalij": 6518,
      "▁kitha": 6519,
      "▁Intern": 6520,
      "▁gateke": 6521,
      "▁ngerasakake": 6522,
      "▁pacare": 6523,
      "▁Pamadi,": 6524,
      "▁kolam": 6525,
      "▁nabung": 6526,
      "▁diajari": 6527,
      "erlu": 6528,
      "▁lapooh": 6529,
      "▁rukun": 6530,
      "▁bojone": 6531,
      "▁ngancani": 6532,
      "▁basket": 6533,
      "▁nganut": 6534,
      "▁Mekah": 6535,
      "▁pasanggrahan": 6536,
      "▁identitas": 6537,
      "▁Erop": 6538,
      "▁jadwal": 6539,
      "▁muiane": 6540,
      "▁pemanasan": 6541,
      "An": 6542,
      "Apa": 6543,
      "gen": 6544,
      "ger": 6545,
      "ii": 6546,
      "ruk,": 6547,
      "sir": 6548,
      "▁*": 6549,
      "▁dw": 6550,
      "▁duta": 6551,
      "ensi": 6552,
      "ahake": 6553,
      "▁luh": 6554,
      "asiswa": 6555,
      "▁wangi": 6556,
      "▁ngamp": 6557,
      "awi,": 6558,
      "adya": 6559,
      "urah": 6560,
      "▁gas": 6561,
      "elar": 6562,
      "oki": 6563,
      "esw": 6564,
      "ukuh": 6565,
      "usn": 6566,
      "▁diaw": 6567,
      "▁rit": 6568,
      "▁PKI": 6569,
      "▁aningali": 6570,
      "abak": 6571,
      "▁dhumateng": 6572,
      "▁Mun": 6573,
      "▁Bad": 6574,
      "▁Bany": 6575,
      "▁Tengg": 6576,
      "▁ub": 6577,
      "▁Dipati": 6578,
      "▁DPR": 6579,
      "angkit": 6580,
      "▁ters": 6581,
      "▁Wau": 6582,
      "▁Wingi": 6583,
      "▁Wektu": 6584,
      "▁hang": 6585,
      "asional": 6586,
      "▁yog": 6587,
      "ancane": 6588,
      "▁disedi": 6589,
      "▁praja": 6590,
      "▁pendud": 6591,
      "▁online.": 6592,
      "▁njogo": 6593,
      "▁Uj": 6594,
      "-mas": 6595,
      "▁kebud": 6596,
      "▁serat": 6597,
      "▁pelaku": 6598,
      "▁olahraga,": 6599,
      "▁sumaur": 6600,
      "▁dalane": 6601,
      "▁ngandung": 6602,
      "▁usahane": 6603,
      "▁enteng": 6604,
      "odhong": 6605,
      "▁Merapi": 6606,
      "▁tahun.": 6607,
      "▁pandem": 6608,
      "▁Asm": 6609,
      "▁Asp": 6610,
      "▁suwe.": 6611,
      "▁kuliah,": 6612,
      "▁nemoni": 6613,
      "▁\"Apa": 6614,
      "▁enggon": 6615,
      "▁wanita": 6616,
      "▁Ngabehi": 6617,
      "▁lima": 6618,
      "▁nutr": 6619,
      "▁nutup": 6620,
      "▁Saliyane": 6621,
      "▁pulau": 6622,
      "▁perjuang": 6623,
      "▁Islam.": 6624,
      "▁stress": 6625,
      "▁jembar": 6626,
      "▁mangsuli,": 6627,
      "ebihan": 6628,
      "▁badan": 6629,
      "▁wujude": 6630,
      "▁lapo-l": 6631,
      "▁Contohe": 6632,
      "▁aglis,": 6633,
      "▁tesih": 6634,
      "▁ngerteni": 6635,
      "▁nimbali": 6636,
      "▁Wrekodara": 6637,
      "▁Pirng": 6638,
      "▁Suyudana": 6639,
      "▁Amerika": 6640,
      "▁otomatis": 6641,
      "▁nuduhake": 6642,
      "-aw": 6643,
      "ca": 6644,
      "cak": 6645,
      "com": 6646,
      "ly": 6647,
      "man,": 6648,
      "ral": 6649,
      "uat": 6650,
      "▁suc": 6651,
      "▁kajeng": 6652,
      "▁daring": 6653,
      "▁mump": 6654,
      "▁nangg": 6655,
      "▁bon": 6656,
      "▁belok": 6657,
      "ami.": 6658,
      "▁tot": 6659,
      "▁lep": 6660,
      "▁lah,": 6661,
      "▁lho": 6662,
      "ekaan": 6663,
      "▁wak": 6664,
      "▁wuk": 6665,
      "▁wast": 6666,
      "▁ngapa": 6667,
      "inj": 6668,
      "▁gadh": 6669,
      "▁gob": 6670,
      "▁geni": 6671,
      "elat": 6672,
      "elani": 6673,
      "▁oy": 6674,
      "ess": 6675,
      "▁rot": 6676,
      "uwen": 6677,
      "▁jud": 6678,
      "▁jowo": 6679,
      "umi,": 6680,
      "▁Kin": 6681,
      "ila,": 6682,
      "▁Pah": 6683,
      "▁Paw": 6684,
      "▁cak": 6685,
      "▁Nat": 6686,
      "▁Mring": 6687,
      "▁Bekti": 6688,
      "aja,": 6689,
      "▁Tel": 6690,
      "▁Tambah": 6691,
      "imant": 6692,
      "▁Iya": 6693,
      "▁nyang": 6694,
      "▁Rp": 6695,
      "▁Rek": 6696,
      "▁pasar.": 6697,
      "ember": 6698,
      "▁\"R": 6699,
      "anjang": 6700,
      "eja,": 6701,
      "▁fut": 6702,
      "▁nggarap": 6703,
      "▁ngganggu": 6704,
      "auan": 6705,
      "▁digun": 6706,
      "o.\"": 6707,
      "▁ast": 6708,
      "▁asta": 6709,
      "▁dituku": 6710,
      "▁opo,": 6711,
      "▁puniki": 6712,
      "▁puniku,": 6713,
      "akno.": 6714,
      "▁mlaku.": 6715,
      "indakake": 6716,
      "▁pareng": 6717,
      "▁parekan": 6718,
      "▁meteng": 6719,
      "▁ilm": 6720,
      "▁peteng": 6721,
      "▁sumring": 6722,
      "▁kewajib": 6723,
      "▁satungg": 6724,
      "▁pakar": 6725,
      "▁tenogo": 6726,
      "▁bela": 6727,
      "aktor": 6728,
      "▁Mangkana": 6729,
      "▁ngetokno": 6730,
      "▁masalah.": 6731,
      "▁rumiy": 6732,
      "▁Patih,": 6733,
      "▁reged": 6734,
      "▁numpuk": 6735,
      "▁kacung": 6736,
      "▁lemak": 6737,
      "isme.": 6738,
      "▁mangan.": 6739,
      "▁umume": 6740,
      "▁wit-w": 6741,
      "▁Youtub": 6742,
      "▁lungo": 6743,
      "▁gambare": 6744,
      "▁TV.": 6745,
      "▁komunisme": 6746,
      "▁nyerang": 6747,
      "▁nambahi": 6748,
      "▁perusaha": 6749,
      "▁dodolan.": 6750,
      "▁werno-w": 6751,
      "▁lembaga": 6752,
      "▁pencerna": 6753,
      "▁tertarik": 6754,
      "▁Mungkin,": 6755,
      "▁Acara": 6756,
      "▁donga": 6757,
      "▁Aturipun:": 6758,
      "▁wahana": 6759,
      "▁gendhing": 6760,
      "▁digoleki": 6761,
      "▁Perkoro": 6762,
      "▁jedhing": 6763,
      "▁alon-alon": 6764,
      "▁Mataram": 6765,
      "▁vitamin": 6766,
      "▁strategi": 6767,
      "▁daftar": 6768,
      "UR": 6769,
      "bo": 6770,
      "dan": 6771,
      "jukan": 6772,
      "lang": 6773,
      "▁eg": 6774,
      "▁kae": 6775,
      "▁kidang": 6776,
      "▁kisah": 6777,
      "▁kira-kira": 6778,
      "ingane": 6779,
      "akan.": 6780,
      "▁meja": 6781,
      "▁nr": 6782,
      "▁nat": 6783,
      "aharan": 6784,
      "amuk": 6785,
      "▁tani": 6786,
      "▁ngga": 6787,
      "▁ngangkat": 6788,
      "▁ngubah": 6789,
      "awula": 6790,
      "▁gay": 6791,
      "ele.": 6792,
      "okot": 6793,
      "eme": 6794,
      "ukti": 6795,
      "uluk": 6796,
      "▁jangg": 6797,
      "▁jamb": 6798,
      "umum": 6799,
      "▁Ken": 6800,
      "▁Kadhang": 6801,
      "irik": 6802,
      "▁ingg": 6803,
      "▁cat": 6804,
      "▁Malang": 6805,
      "▁Timbang": 6806,
      "dhi": 6807,
      "ayangke": 6808,
      "anda,": 6809,
      "▁nyipt": 6810,
      "▁perp": 6811,
      "▁Janak": 6812,
      "▁Rini": 6813,
      "▁hob": 6814,
      "▁harta": 6815,
      "▁menarik": 6816,
      "▁\"J": 6817,
      "▁100": 6818,
      "▁pengeran": 6819,
      "▁pengusaha": 6820,
      "▁mesem.": 6821,
      "▁masak,": 6822,
      "asane,": 6823,
      "amaah": 6824,
      "▁ketinggalan": 6825,
      "▁Cr": 6826,
      "▁marani": 6827,
      "▁adiku": 6828,
      "▁puniki,": 6829,
      "▁Uni": 6830,
      "-ml": 6831,
      "-manth": 6832,
      "▁pany": 6833,
      "▁panas.": 6834,
      "▁negatif": 6835,
      "▁mrene": 6836,
      "▁uripe.": 6837,
      "▁kebo": 6838,
      "▁sepatu": 6839,
      "▁kris": 6840,
      "▁krama": 6841,
      "▁barang,": 6842,
      "▁ev": 6843,
      "▁digawe.": 6844,
      "▁anggon": 6845,
      "▁ngunuku.": 6846,
      "▁metu.": 6847,
      "▁methuk": 6848,
      "anca-k": 6849,
      "▁jamu": 6850,
      "▁jamane": 6851,
      "▁pitik": 6852,
      "▁endi.": 6853,
      "▁mangan,": 6854,
      "▁salin": 6855,
      "▁kaitane": 6856,
      "▁satus": 6857,
      "▁ngrung": 6858,
      "▁raky": 6859,
      "▁batang": 6860,
      "▁pesawat": 6861,
      "▁stres.": 6862,
      "▁tibak'e": 6863,
      "▁ibu-ibu": 6864,
      "▁sekitare": 6865,
      "▁nemokno": 6866,
      "▁tanda": 6867,
      "▁wanad": 6868,
      "▁Kurawa,": 6869,
      "▁pejah.": 6870,
      "▁nerimo": 6871,
      "▁puluh": 6872,
      "▁nembe": 6873,
      "▁jemparing,": 6874,
      "▁galih,": 6875,
      "▁nyenengno": 6876,
      "▁getih": 6877,
      "▁tabung": 6878,
      "▁Kasr": 6879,
      "▁Timur": 6880,
      "▁terjun": 6881,
      "▁praktek": 6882,
      "▁aglis": 6883,
      "▁Parangak": 6884,
      "▁Jogja,": 6885,
      "▁Sumat": 6886,
      "▁rambute": 6887,
      "▁lading": 6888,
      "▁lensa": 6889,
      "▁lngkang": 6890,
      "▁tangkis": 6891,
      "▁botol": 6892,
      "▁ngikuti": 6893,
      "Qur": 6894,
      "Sak": 6895,
      "cng": 6896,
      "cal": 6897,
      "de": 6898,
      "ji,": 6899,
      "nya,": 6900,
      "ve": 6901,
      "yan.": 6902,
      "yang,": 6903,
      "▁ine": 6904,
      "anen": 6905,
      "▁sih,": 6906,
      "▁kob": 6907,
      "▁kita": 6908,
      "eno": 6909,
      "▁mane": 6910,
      "▁pangk": 6911,
      "▁bata": 6912,
      "▁batu": 6913,
      "erg": 6914,
      "ahane": 6915,
      "▁turut": 6916,
      "ator": 6917,
      "▁lah.": 6918,
      "ek-": 6919,
      "▁ngopo": 6920,
      "▁ngangge": 6921,
      "▁ngontrol": 6922,
      "uny": 6923,
      "unani": 6924,
      "adeg": 6925,
      "▁gara": 6926,
      "okna": 6927,
      "▁Sag": 6928,
      "▁dif": 6929,
      "▁didh": 6930,
      "▁rangk": 6931,
      "ulan.": 6932,
      "▁Ke": 6933,
      "▁Kons": 6934,
      "▁Kitab": 6935,
      "▁lanang,": 6936,
      "▁Pus": 6937,
      "▁anang": 6938,
      "▁ana,": 6939,
      "▁antr": 6940,
      "▁Mengko": 6941,
      "ampir": 6942,
      "ipl": 6943,
      "▁kartu": 6944,
      "▁Tap": 6945,
      "▁Timb": 6946,
      "ono.": 6947,
      "▁Dw": 6948,
      "imis": 6949,
      "▁nyebut": 6950,
      "▁Ra": 6951,
      "▁Res": 6952,
      "oyak": 6953,
      "▁ngeray": 6954,
      "▁Gya": 6955,
      "▁Lap": 6956,
      "▁Luwih": 6957,
      "▁prov": 6958,
      "▁bakar": 6959,
      "▁mbl": 6960,
      "▁mburi.": 6961,
      "▁16": 6962,
      "▁diparing": 6963,
      "▁konangan": 6964,
      "ubahan": 6965,
      "▁atm": 6966,
      "▁masak.": 6967,
      "▁asem": 6968,
      "▁katut": 6969,
      "▁disaran": 6970,
      "aranipun": 6971,
      "▁Heh": 6972,
      "▁pener": 6973,
      "▁ketua": 6974,
      "▁ditaw": 6975,
      "▁polisi": 6976,
      "▁kepungk": 6977,
      "buat": 6978,
      "ecah": 6979,
      "▁sarwa": 6980,
      "▁sarnp": 6981,
      "untun": 6982,
      "entukno": 6983,
      "▁mangka": 6984,
      "▁ibune.": 6985,
      "▁dibal": 6986,
      "▁dideleh": 6987,
      "▁serba": 6988,
      "▁telu.": 6989,
      "▁Anj": 6990,
      "▁instagram": 6991,
      "▁uwong-uw": 6992,
      "▁ramah": 6993,
      "▁ngadoh": 6994,
      "▁ngurmati": 6995,
      "▁lemah.": 6996,
      "ukupi": 6997,
      "▁bingung,": 6998,
      "▁surak": 6999,
      "▁nemen.": 7000,
      "▁teknolog": 7001,
      "▁sayuran": 7002,
      "▁crito": 7003,
      "▁prajurit,": 7004,
      "adhahi": 7005,
      "▁Selain": 7006,
      "▁layanan": 7007,
      "▁andherek": 7008,
      "▁\"Ing": 7009,
      "▁tikus": 7010,
      "▁bubar": 7011,
      "▁Banuw": 7012,
      "▁Pemerintah": 7013,
      "▁ngerungoke": 7014,
      "▁mangsah": 7015,
      "▁tipis": 7016,
      "▁slamet": 7017,
      "▁Dumong": 7018,
      "▁viral": 7019,
      "▁Medayin,": 7020,
      "▁korupsi": 7021,
      "▁ukuman": 7022,
      "▁Menyawak": 7023,
      "▁Larasati": 7024,
      "▁lho.": 7025,
      "▁kongsi": 7026,
      "▁kemerdekaan": 7027,
      "▁Cahyo": 7028,
      "▁istirahat": 7029,
      "▁sakdurunge": 7030,
      "▁Akhire,": 7031,
      "▁Rinto": 7032,
      "▁Aspand": 7033,
      "▁Kasrukum": 7034,
      "-ram": 7035,
      "20": 7036,
      "ai.": 7037,
      "cn": 7038,
      "lot": 7039,
      "oi": 7040,
      "▁imb": 7041,
      "▁enggo": 7042,
      "▁sungk": 7043,
      "▁sukur": 7044,
      "▁kemp": 7045,
      "angin": 7046,
      "arane.": 7047,
      "▁po": 7048,
      "▁pint": 7049,
      "▁puri": 7050,
      "▁no": 7051,
      "ala.": 7052,
      "▁taw": 7053,
      "▁tri": 7054,
      "▁tangan.": 7055,
      "▁web": 7056,
      "engan.": 7057,
      "▁ngak": 7058,
      "▁ngumbah": 7059,
      "adosi": 7060,
      "▁guw": 7061,
      "etara": 7062,
      "api.": 7063,
      "apa.": 7064,
      "▁diomb": 7065,
      "▁ruj": 7066,
      "▁rengg": 7067,
      "▁jiwa": 7068,
      "▁jobo": 7069,
      "▁Kudu": 7070,
      "▁Kathah": 7071,
      "▁lanang.": 7072,
      "▁anom": 7073,
      "▁cl": 7074,
      "▁Met": 7075,
      "▁Baj": 7076,
      "egen": 7077,
      "ebak": 7078,
      "nom": 7079,
      "▁uyah": 7080,
      "▁Duk": 7081,
      "▁siapno": 7082,
      "▁peristi": 7083,
      "▁permainan": 7084,
      "oma": 7085,
      "▁ternak": 7086,
      "▁Wed": 7087,
      "▁Wid": 7088,
      "▁teko.": 7089,
      "▁hari": 7090,
      "▁Les": 7091,
      "ib,": 7092,
      "anja": 7093,
      "ontong": 7094,
      "▁mert": 7095,
      "▁ngelestar": 7096,
      "▁asil": 7097,
      "▁prad": 7098,
      "▁ditakoni": 7099,
      "ecehan": 7100,
      "▁maringi": 7101,
      "inggil": 7102,
      "anyata": 7103,
      "yaning": 7104,
      "tri,": 7105,
      "▁gelas": 7106,
      "▁sepira": 7107,
      "▁balung": 7108,
      "▁wart": 7109,
      "▁wedok.": 7110,
      "▁apa-": 7111,
      "umba": 7112,
      "▁kasuw": 7113,
      "▁penting,": 7114,
      "▁ceritane": 7115,
      "▁dicipt": 7116,
      "▁dipunp": 7117,
      "▁salebet": 7118,
      "eksi,": 7119,
      "▁sedaya": 7120,
      "▁gerak": 7121,
      "▁sumedya": 7122,
      "▁bebareng": 7123,
      "▁ulan": 7124,
      "▁bareng,": 7125,
      "▁kagungan": 7126,
      "▁kaget.": 7127,
      "▁eling": 7128,
      "ustam": 7129,
      "▁Saiki,": 7130,
      "▁pendap": 7131,
      "▁mirah": 7132,
      "▁kuda": 7133,
      "▁laut.": 7134,
      "▁tutup": 7135,
      "▁Druna": 7136,
      "▁mengs": 7137,
      "▁umum.": 7138,
      "▁kejadian": 7139,
      "▁binekta": 7140,
      "▁post": 7141,
      "▁cinta": 7142,
      "▁kesehatan.": 7143,
      "▁lelemb": 7144,
      "▁penginapan": 7145,
      "▁Darund": 7146,
      "▁getun": 7147,
      "▁jember": 7148,
      "▁kajant": 7149,
      "▁nyepake": 7150,
      "▁dosen": 7151,
      "▁cokl": 7152,
      "▁Surayeng": 7153,
      "▁Sebenere": 7154,
      "▁wicanten,": 7155,
      "▁Engkok": 7156,
      "▁rembug": 7157,
      "▁pasthi": 7158,
      "▁Kedasih": 7159,
      "▁Kudus": 7160,
      "▁ngungun": 7161,
      "▁tulisane": 7162,
      "▁apik-apik": 7163,
      "▁keprungu": 7164,
      "▁dhisik.": 7165,
      "▁hingsun": 7166,
      "▁kekuatan": 7167,
      "▁Atmo": 7168,
      "▁perhatian": 7169,
      "▁kapurih": 7170,
      "Saiki": 7171,
      "▁manthuk-manth": 7172,
      "▁situasi": 7173,
      "▁indonesia": 7174,
      "▁Sindur": 7175,
      "'.": 7176,
      "UNG": 7177,
      "dah": 7178,
      "ham": 7179,
      "jing,": 7180,
      "kw": 7181,
      "mint": 7182,
      "▁ip": 7183,
      "ank": 7184,
      "anane": 7185,
      "▁sos": 7186,
      "ingga": 7187,
      "aka.": 7188,
      "▁dika": 7189,
      "▁depan": 7190,
      "▁mujud": 7191,
      "▁muwus,": 7192,
      "▁bangs": 7193,
      "▁tonton": 7194,
      "▁tunggal": 7195,
      "oke,": 7196,
      "ithik": 7197,
      "onggo": 7198,
      "▁Sus": 7199,
      "utk": 7200,
      "agem": 7201,
      "▁raw": 7202,
      "▁jura": 7203,
      "▁jumbul": 7204,
      "▁Kec": 7205,
      "▁Kaki": 7206,
      "▁KKN": 7207,
      "▁anitih": 7208,
      "olak": 7209,
      "▁Ment": 7210,
      "▁Mungg": 7211,
      "▁Bei": 7212,
      "iyamb": 7213,
      "iyapake": 7214,
      "im.": 7215,
      "▁dadi.": 7216,
      "▁nyeg": 7217,
      "▁nyata": 7218,
      "▁nyandhak": 7219,
      "▁utek": 7220,
      "▁sekul": 7221,
      "oyang": 7222,
      "awai": 7223,
      "▁Gendh": 7224,
      "▁bakso": 7225,
      "▁mbantu": 7226,
      "▁alasan": 7227,
      "▁kalangan": 7228,
      "▁kaluwarga": 7229,
      "▁merj": 7230,
      "▁kela": 7231,
      "▁atine.": 7232,
      "▁ditya": 7233,
      "▁kenemen": 7234,
      "▁samod": 7235,
      "▁kulia": 7236,
      "▁kuliner": 7237,
      "▁siniw": 7238,
      "▁mrih": 7239,
      "▁sisan,": 7240,
      "▁taun,": 7241,
      "▁ta?\"": 7242,
      "▁kraton": 7243,
      "▁panganane": 7244,
      "▁ibad": 7245,
      "▁Ek": 7246,
      "▁Eyang": 7247,
      "▁pelem": 7248,
      "▁34.": 7249,
      "▁Sakjane": 7250,
      "▁abang.": 7251,
      "▁tumenggung": 7252,
      "▁Kamera": 7253,
      "▁rame.": 7254,
      "▁ngadakno": 7255,
      "▁pertani": 7256,
      "▁\"Kawula": 7257,
      "▁kathah,": 7258,
      "ethok": 7259,
      "aksana": 7260,
      "▁emos": 7261,
      "▁bahaya": 7262,
      "▁suasana": 7263,
      "▁dunyo.": 7264,
      "▁Kalimant": 7265,
      "▁sayekti": 7266,
      "▁bumi,": 7267,
      "▁esuk": 7268,
      "▁Ibrah": 7269,
      "▁tokoh-tokoh": 7270,
      "▁kuth": 7271,
      "▁tempat": 7272,
      "▁nutupi": 7273,
      "▁kerjane": 7274,
      "▁kerja.": 7275,
      "▁194": 7276,
      "▁Islam,": 7277,
      "▁Samya": 7278,
      "▁pusaka": 7279,
      "▁tabungan": 7280,
      "izza": 7281,
      "▁bungah.": 7282,
      "epasaken": 7283,
      "▁cacah": 7284,
      "▁Dadine": 7285,
      "▁Contoh": 7286,
      "ividu": 7287,
      "▁ditambahi": 7288,
      "▁Jepang.": 7289,
      "▁kipas": 7290,
      "▁bedo-bedo.": 7291,
      "▁pucuk": 7292,
      "▁mlayu.": 7293,
      "▁Bogor.": 7294,
      "▁normal": 7295,
      "▁motif": 7296,
      "▁plesir": 7297,
      "▁Prof": 7298,
      "▁dikembangno": 7299,
      "▁Kalijaga": 7300,
      "▁Darundiya": 7301,
      "A,": 7302,
      "DH": 7303,
      "Dum": 7304,
      "aerah": 7305,
      "liyane": 7306,
      "nan": 7307,
      "nis": 7308,
      "uane": 7309,
      "wa,": 7310,
      "wise": 7311,
      "yi,": 7312,
      "▁sent": 7313,
      "▁sate": 7314,
      "▁kod": 7315,
      "arb": 7316,
      "▁mugi": 7317,
      "▁pake": 7318,
      "ikal": 7319,
      "er-": 7320,
      "eret": 7321,
      "all": 7322,
      "alih,": 7323,
      "▁lalu": 7324,
      "▁ngendh": 7325,
      "unira": 7326,
      "urug": 7327,
      "apai": 7328,
      "apati,": 7329,
      "itu": 7330,
      "itar": 7331,
      "▁Sastra": 7332,
      "▁Satria": 7333,
      "▁diol": 7334,
      "▁diisi": 7335,
      "agama": 7336,
      "▁ringin": 7337,
      "▁juw": 7338,
      "▁Kes": 7339,
      "▁Kej": 7340,
      "▁Kutha": 7341,
      "▁lantai": 7342,
      "ilas": 7343,
      "▁AC": 7344,
      "▁Adi": 7345,
      "abu": 7346,
      "▁Nak": 7347,
      "▁Bint": 7348,
      "▁awor": 7349,
      "▁karyaw": 7350,
      "▁Dolan": 7351,
      "otan": 7352,
      "▁Ia": 7353,
      "▁It": 7354,
      "▁Ireng": 7355,
      "antun": 7356,
      "▁nyerah": 7357,
      "▁terang": 7358,
      "▁Jeneng": 7359,
      "▁Jawi": 7360,
      "alah,": 7361,
      "▁Rudi": 7362,
      "▁Rustam": 7363,
      "▁aman.": 7364,
      "▁Waj": 7365,
      "▁ngeregani": 7366,
      "▁arti": 7367,
      "iba": 7368,
      "▁saitik": 7369,
      "edheg": 7370,
      "ejahter": 7371,
      "ack": 7372,
      "▁pengaw": 7373,
      "▁dipati,": 7374,
      "▁digaw": 7375,
      "▁ngeleb": 7376,
      "intah": 7377,
      "▁Hanan": 7378,
      "▁angand": 7379,
      "▁angin.": 7380,
      "▁kepenak": 7381,
      "▁adus": 7382,
      "▁adate": 7383,
      "▁kulup": 7384,
      "▁onok.": 7385,
      "▁sinuhun": 7386,
      "▁sinyal": 7387,
      "▁Urip": 7388,
      "▁padha.": 7389,
      "▁ajeng": 7390,
      "▁kebeb": 7391,
      "▁gelah": 7392,
      "yarsa": 7393,
      "unda": 7394,
      "▁serangan": 7395,
      "▁ngunj": 7396,
      "▁gedhong": 7397,
      "▁kawit": 7398,
      "ukaan": 7399,
      "▁abdi": 7400,
      "▁senam": 7401,
      "▁Kama,": 7402,
      "▁kota.": 7403,
      "▁ngadek": 7404,
      "▁misuwur": 7405,
      "▁antar": 7406,
      "▁raka,": 7407,
      "▁minat": 7408,
      "▁wektu.": 7409,
      "adyaning": 7410,
      "▁winuwus": 7411,
      "▁anyar,": 7412,
      "onde": 7413,
      "▁tibo": 7414,
      "▁suarane": 7415,
      "▁konsumsi": 7416,
      "▁kompet": 7417,
      "▁komput": 7418,
      "▁buku.": 7419,
      "▁penyakit.": 7420,
      "▁ndhuwur": 7421,
      "▁mutusake": 7422,
      "▁macem-macem,": 7423,
      "▁dimul": 7424,
      "▁ngilangi": 7425,
      "▁ngilangake": 7426,
      "▁gage": 7427,
      "▁maksimal": 7428,
      "▁lombok": 7429,
      "▁glepung": 7430,
      "▁dodolane": 7431,
      "▁untung": 7432,
      "▁kuping": 7433,
      "askah": 7434,
      "▁pribadi,": 7435,
      "▁ngasta": 7436,
      "▁badmint": 7437,
      "▁simbahku": 7438,
      "▁pokok": 7439,
      "▁demok": 7440,
      "▁jejer": 7441,
      "▁ngerungokno": 7442,
      "▁restor": 7443,
      "▁tubuh": 7444,
      "▁Bulik": 7445,
      "Bocah-bocah": 7446,
      "▁ekstrem": 7447,
      "▁inspir": 7448,
      "▁koncoku,": 7449,
      "▁tonggone": 7450,
      "manfaat": 7451,
      "▁beasiswa": 7452,
      "▁diopeni": 7453,
      "▁Tuban": 7454,
      "▁keturunan": 7455,
      "▁Majalengk": 7456,
      "▁kebudayaan": 7457,
      "▁perjuangane": 7458,
      "AB": 7459,
      "ENG": 7460,
      "ONG": 7461,
      "di.": 7462,
      "hu": 7463,
      "jak": 7464,
      "ané": 7465,
      "▁sut": 7466,
      "▁kw": 7467,
      "arung": 7468,
      "▁mew": 7469,
      "▁moj": 7470,
      "▁miwiti": 7471,
      "▁pati,": 7472,
      "▁nep": 7473,
      "▁nont": 7474,
      "eres": 7475,
      "ahah": 7476,
      "aling": 7477,
      "alin": 7478,
      "▁tant": 7479,
      "▁tunt": 7480,
      "aten,": 7481,
      "▁le": 7482,
      "▁lungg": 7483,
      "▁wurung": 7484,
      "▁walang": 7485,
      "awab": 7486,
      "▁gej": 7487,
      "elaran": 7488,
      "ungah": 7489,
      "ungan,": 7490,
      "usi.": 7491,
      "agam": 7492,
      "uwarg": 7493,
      "ulik": 7494,
      "▁job": 7495,
      "▁jujur": 7496,
      "▁Kew": 7497,
      "ihe": 7498,
      "ilir": 7499,
      "▁Pa": 7500,
      "▁Pres": 7501,
      "▁ananging": 7502,
      "▁dhele": 7503,
      "▁cekel": 7504,
      "▁Bus": 7505,
      "▁Braw": 7506,
      "▁yud": 7507,
      "▁kardi": 7508,
      "▁Tra": 7509,
      "▁Tuhan": 7510,
      "ayi": 7511,
      "ayak": 7512,
      "ayanan": 7513,
      "i.S": 7514,
      "iyat": 7515,
      "osa": 7516,
      "▁sakeh": 7517,
      "▁saksi": 7518,
      "antar": 7519,
      "andang": 7520,
      "▁nyamb": 7521,
      "▁nyawa": 7522,
      "▁nyebabake": 7523,
      "enengane": 7524,
      "▁Reb": 7525,
      "▁ama": 7526,
      "▁gaweane": 7527,
      "▁teka.": 7528,
      "▁Lukman": 7529,
      "▁sac": 7530,
      "▁mbuh": 7531,
      "▁mbentuk": 7532,
      "▁alus.": 7533,
      "▁dipel": 7534,
      "▁fav": 7535,
      "▁nggih,": 7536,
      "ubarang": 7537,
      "▁keliling": 7538,
      "▁masarak": 7539,
      "▁ngeling": 7540,
      "▁ngelindungi": 7541,
      "▁Canth": 7542,
      "ecerak": 7543,
      "▁Singap": 7544,
      "▁Uk": 7545,
      "▁dilarang": 7546,
      "▁ajar": 7547,
      "▁urip,": 7548,
      "-perk": 7549,
      "engkel": 7550,
      "▁parah": 7551,
      "▁panganan,": 7552,
      "ak.\"": 7553,
      "▁sabin": 7554,
      "akake.": 7555,
      "▁sejatine": 7556,
      "▁sumiw": 7557,
      "▁manteri,": 7558,
      "▁40": 7559,
      "▁paksi": 7560,
      "▁jalaran": 7561,
      "ustha": 7562,
      "▁Surya": 7563,
      "▁mirsani": 7564,
      "▁unjukan": 7565,
      "▁adhem": 7566,
      "▁\"Kowe": 7567,
      "▁Asline": 7568,
      "▁Jakasar": 7569,
      "▁modele": 7570,
      "▁Menawa": 7571,
      "▁mungguh": 7572,
      "▁lagu-lagu": 7573,
      "▁surya": 7574,
      "▁sitik.": 7575,
      "arget": 7576,
      "▁individu": 7577,
      "▁nomor": 7578,
      "▁prosedur": 7579,
      "▁Salya": 7580,
      "▁nyeluk": 7581,
      "-liyane.": 7582,
      "▁pacar": 7583,
      "▁Bahman": 7584,
      "raksi": 7585,
      "▁pekerja": 7586,
      "▁Contone": 7587,
      "▁bangunane": 7588,
      "▁Parman": 7589,
      "▁kualitase": 7590,
      "▁kipa": 7591,
      "▁nyaman.": 7592,
      "▁cedek": 7593,
      "▁nyanyi": 7594,
      "-hal": 7595,
      "▁gupuh": 7596,
      "▁cetha": 7597,
      "▁wernone": 7598,
      "▁skrip": 7599,
      "▁didadekno": 7600,
      "▁pelanggan": 7601,
      "▁Witri": 7602,
      "▁Bentuke": 7603,
      "▁menurutku": 7604,
      "ografi": 7605,
      "▁koncoku.": 7606,
      "▁tombol": 7607,
      "▁gaib": 7608,
      "▁Suryadi": 7609,
      "▁kreatif": 7610,
      "▁Yudhisthira": 7611,
      "▁rempah": 7612,
      "▁Wasis": 7613,
      "▁Kuneng": 7614,
      "▁Kresna,": 7615,
      "▁ngguyu.": 7616,
      "▁wisatawan": 7617,
      "▁sawatawis": 7618,
      "▁Gusti,": 7619,
      "▁keyakinan": 7620,
      "▁Mutadaraw": 7621,
      "▁Malioboro": 7622,
      "▁favor": 7623,
      "Bu": 7624,
      "OS": 7625,
      "UD": 7626,
      "UL": 7627,
      "hat": 7628,
      "hrib": 7629,
      "teng": 7630,
      "yit": 7631,
      "▁ung": 7632,
      "▁sata": 7633,
      "▁solah": 7634,
      "▁mami": 7635,
      "▁mangun": 7636,
      "▁pij": 7637,
      "▁bulan": 7638,
      "ahno": 7639,
      "▁tampil": 7640,
      "asub": 7641,
      "asitas": 7642,
      "▁singa": 7643,
      "▁singk": 7644,
      "▁ngang": 7645,
      "▁ngemb": 7646,
      "▁ngic": 7647,
      "inis": 7648,
      "raja": 7649,
      "uno": 7650,
      "uring": 7651,
      "uron": 7652,
      "onga": 7653,
      "▁Sami": 7654,
      "▁rawan": 7655,
      "ulu,": 7656,
      "▁juj": 7657,
      "▁Kot": 7658,
      "▁Kidul": 7659,
      "epatan": 7660,
      "▁Pes": 7661,
      "▁anti": 7662,
      "▁isin.": 7663,
      "▁Ml": 7664,
      "▁yekti": 7665,
      "▁karyane": 7666,
      "▁Tul": 7667,
      "▁awakmu.": 7668,
      "▁awakmu,": 7669,
      "ost": 7670,
      "antuk": 7671,
      "▁peri": 7672,
      "▁perang,": 7673,
      "entasi": 7674,
      "▁tern": 7675,
      "▁Jenis": 7676,
      "▁api": 7677,
      "▁Widh": 7678,
      "▁\"Dh": 7679,
      "▁ngerampung": 7680,
      "▁Go": 7681,
      "▁Lindh": 7682,
      "▁proy": 7683,
      "▁saut": 7684,
      "acut": 7685,
      "▁dipeng": 7686,
      "▁ngelak": 7687,
      "▁ngelanggar": 7688,
      "▁asu": 7689,
      "▁katr": 7690,
      "▁Hakim": 7691,
      "▁ketoke": 7692,
      "▁ditemp": 7693,
      "▁kepel": 7694,
      "▁kula,": 7695,
      "▁dewean": 7696,
      "▁sarapan": 7697,
      "▁kanth": 7698,
      "▁Awit": 7699,
      "▁malebet": 7700,
      "umbang": 7701,
      "▁Aldi": 7702,
      "▁pelayan": 7703,
      "▁pelecehan": 7704,
      "▁semana": 7705,
      "▁meter": 7706,
      "▁ilen": 7707,
      "▁Ingsun": 7708,
      "▁petuk": 7709,
      "▁ayu,": 7710,
      "▁sedulur": 7711,
      "▁paduka,": 7712,
      "▁jenege": 7713,
      "▁turun": 7714,
      "▁pakenira": 7715,
      "▁sikap": 7716,
      "odho": 7717,
      "▁jalu": 7718,
      "▁sebagian": 7719,
      "▁kabekta": 7720,
      "▁unsur": 7721,
      "▁hal-hal": 7722,
      "uangno": 7723,
      "▁kunci": 7724,
      "▁sajak": 7725,
      "oduksi": 7726,
      "▁emas": 7727,
      "onanku": 7728,
      "istem": 7729,
      "▁bahan-bahan": 7730,
      "▁pirang-pir": 7731,
      "▁ijo.": 7732,
      "▁wanod": 7733,
      "▁mutusno": 7734,
      "▁pawon.": 7735,
      "▁rame-ram": 7736,
      "▁Penj": 7737,
      "▁Pitu,": 7738,
      "▁Pitrang": 7739,
      "▁leluhur": 7740,
      "▁Omahe": 7741,
      "▁ngecek": 7742,
      "▁Keris": 7743,
      "hef": 7744,
      "▁bae,": 7745,
      "▁Aceh": 7746,
      "▁sore.": 7747,
      "▁Tarian": 7748,
      "▁podo,": 7749,
      "▁kuwatir": 7750,
      "▁cemilan": 7751,
      "▁Pertama,": 7752,
      "▁bedo-bedo": 7753,
      "▁mabur": 7754,
      "▁Madukara": 7755,
      "▁Aji,": 7756,
      "▁cairan": 7757,
      "▁sinau.": 7758,
      "▁uninga": 7759,
      "▁kiriman": 7760,
      "▁sapanunggale.": 7761,
      "▁mubeng": 7762,
      "▁diskusi": 7763,
      "▁dewe-dewe": 7764,
      "▁Kacariyos,": 7765,
      "▁merdek": 7766,
      "▁Purwakandh": 7767,
      "▁Marsudi": 7768,
      "▁Setyaki": 7769,
      "▁nyedhaki": 7770,
      "▁Samasraw": 7771,
      "▁jumlahe": 7772,
      "▁penduduk": 7773,
      "▁Rekyana": 7774,
      "ING": 7775,
      "ben": 7776,
      "cl": 7777,
      "jog": 7778,
      "ke,": 7779,
      "log": 7780,
      "ma.": 7781,
      "pati,": 7782,
      "rang,": 7783,
      "tan": 7784,
      "▁ula": 7785,
      "▁ira,": 7786,
      "▁angkat": 7787,
      "anan.": 7788,
      "▁sanj": 7789,
      "▁sanak": 7790,
      "▁syukur": 7791,
      "▁kahan": 7792,
      "akara": 7793,
      "ens": 7794,
      "▁munt": 7795,
      "▁pik": 7796,
      "▁pil": 7797,
      "▁por": 7798,
      "▁pub": 7799,
      "▁poj": 7800,
      "ah-": 7801,
      "▁tir": 7802,
      "▁luang": 7803,
      "inane": 7804,
      "urno": 7805,
      "urna": 7806,
      "▁geb": 7807,
      "estiv": 7808,
      "apane": 7809,
      "itra": 7810,
      "ongan,": 7811,
      "utane": 7812,
      "▁diap": 7813,
      "▁dianggo": 7814,
      "▁jadi": 7815,
      "umi.": 7816,
      "▁Kant": 7817,
      "▁KRL": 7818,
      "▁Kobat": 7819,
      "epon": 7820,
      "▁Ah": 7821,
      "▁dhel": 7822,
      "▁ingsun,": 7823,
      "amblok": 7824,
      "orter": 7825,
      "▁Mac": 7826,
      "▁nangis.": 7827,
      "ampang": 7828,
      "ipek": 7829,
      "▁Tangg": 7830,
      "dhisi": 7831,
      "iyan,": 7832,
      "uhan.": 7833,
      "ose": 7834,
      "oses": 7835,
      "▁sakedh": 7836,
      "▁sid": 7837,
      "▁sido": 7838,
      "▁maune": 7839,
      "▁perd": 7840,
      "▁ambekta": 7841,
      "oman": 7842,
      "endel": 7843,
      "oda": 7844,
      "▁pratan": 7845,
      "id,": 7846,
      "▁13": 7847,
      "▁pengunjung": 7848,
      "▁Yata": 7849,
      "▁dipas": 7850,
      "▁dipangan.": 7851,
      "▁kern": 7852,
      "▁kerajaan": 7853,
      "▁kaleng": 7854,
      "▁kali.": 7855,
      "▁nggen": 7856,
      "ubruk": 7857,
      "▁ngelanc": 7858,
      "▁disingkat": 7859,
      "▁keter": 7860,
      "▁ditand": 7861,
      "▁ditandur": 7862,
      "▁Cer": 7863,
      "▁Cina": 7864,
      "▁ada": 7865,
      "▁njaba": 7866,
      "-ken": 7867,
      "▁agung,": 7868,
      "▁pemikir": 7869,
      "▁pemilihan": 7870,
      "-pun": 7871,
      "▁panggon-p": 7872,
      "▁parentah": 7873,
      "estari": 7874,
      "estarian": 7875,
      "unth": 7876,
      "▁sepi.": 7877,
      "▁semang": 7878,
      "▁Aklas": 7879,
      "igeg": 7880,
      "▁vari": 7881,
      "▁Fit": 7882,
      "▁pitul": 7883,
      "▁macet": 7884,
      "▁petok": 7885,
      "▁seda": 7886,
      "▁padang": 7887,
      "▁manten": 7888,
      "▁kotak": 7889,
      "▁ngomong,": 7890,
      "▁dalu,": 7891,
      "▁gedang": 7892,
      "▁resik,": 7893,
      "▁diweneh": 7894,
      "▁diri.": 7895,
      "▁narendra,": 7896,
      "▁gumuruh": 7897,
      "▁sebab": 7898,
      "▁kecut": 7899,
      "▁pandang": 7900,
      "▁ireng,": 7901,
      "▁terken": 7902,
      "▁bahasa": 7903,
      "▁suwi": 7904,
      "▁Ngay": 7905,
      "▁tanding": 7906,
      "▁kori": 7907,
      "▁elek,": 7908,
      "▁idu": 7909,
      "▁ijo,": 7910,
      "▁kitha,": 7911,
      "▁Ibune": 7912,
      "▁rega": 7913,
      "-neg": 7914,
      "▁putraning": 7915,
      "▁wajar": 7916,
      "▁nyelamet": 7917,
      "▁legi.": 7918,
      "▁kondisine": 7919,
      "otivasi": 7920,
      "▁celath": 7921,
      "▁kajaba": 7922,
      "▁\"Ya": 7923,
      "▁lurus": 7924,
      "▁Timur.": 7925,
      "▁ditemokake": 7926,
      "▁dulurku": 7927,
      "▁rasukan": 7928,
      "▁pokoke": 7929,
      "▁nyab": 7930,
      "▁tumbuhan": 7931,
      "▁cetho": 7932,
      "▁gada,": 7933,
      "▁Pakdhé": 7934,
      "▁simbol": 7935,
      "▁Jamal": 7936,
      "▁Sampeyan": 7937,
      "▁Abimanyu": 7938,
      "▁Bogor": 7939,
      "▁liberalisme": 7940,
      "▁pasanggrah": 7941,
      "▁prihatin": 7942,
      "▁raosipun": 7943,
      "▁bola-b": 7944,
      "▁\"lya": 7945,
      "▁Tiongkok": 7946,
      "▁Al-Qur": 7947,
      "▁kesenian": 7948,
      "▁review": 7949,
      "▁cita-c": 7950,
      "▁Univ": 7951,
      "▁peristiwa": 7952,
      "▁Brawijaya": 7953,
      "-ne": 7954,
      ".S": 7955,
      "Empun": 7956,
      "bala": 7957,
      "leng": 7958,
      "nologi": 7959,
      "rung": 7960,
      "rana": 7961,
      "rat,": 7962,
      "sit": 7963,
      "tis": 7964,
      "uu": 7965,
      "we": 7966,
      "▁é": 7967,
      "▁simp": 7968,
      "▁sine,": 7969,
      "▁sinten": 7970,
      "arma": 7971,
      "▁dung": 7972,
      "▁male": 7973,
      "▁nir": 7974,
      "▁nana": 7975,
      "▁bor": 7976,
      "alel": 7977,
      "▁tedh": 7978,
      "▁tembang": 7979,
      "▁target": 7980,
      "▁lara,": 7981,
      "onal,": 7982,
      "▁nges": 7983,
      "▁ngumb": 7984,
      "▁ngiro": 7985,
      "adik": 7986,
      "▁oya": 7987,
      "apah": 7988,
      "▁Srik": 7989,
      "ewene": 7990,
      "▁ran": 7991,
      "▁rew": 7992,
      "▁reb": 7993,
      "▁ringk": 7994,
      "uwung": 7995,
      "ulasi": 7996,
      "▁jahe": 7997,
      "▁jaringan": 7998,
      "▁Kay": 7999,
      "▁cag": 8000,
      "▁cedh": 8001,
      "▁Mang": 8002,
      "▁Mag": 8003,
      "▁Many": 8004,
      "▁Bagian": 8005,
      "▁nangis,": 8006,
      "▁awet.": 8007,
      "▁ywa": 8008,
      "ipat": 8009,
      "▁karun": 8010,
      "▁Tiyang": 8011,
      "uhan,": 8012,
      "▁uap": 8013,
      "▁Dadi,": 8014,
      "▁sakmen": 8015,
      "e.B": 8016,
      "a...": 8017,
      "▁I.": 8018,
      "▁Il": 8019,
      "an.S": 8020,
      "anto": 8021,
      "▁nyad": 8022,
      "▁pernik": 8023,
      "entr": 8024,
      "▁terakhir,": 8025,
      "▁Jowo": 8026,
      "▁Jatm": 8027,
      "▁nduw": 8028,
      "▁Yusu": 8029,
      "▁form": 8030,
      "▁nggone": 8031,
      "▁merk": 8032,
      "▁ragi": 8033,
      "ah.\"": 8034,
      "▁kelawan": 8035,
      "▁berg": 8036,
      "▁aturi": 8037,
      "ug-": 8038,
      "▁penasaran": 8039,
      "▁kenapa": 8040,
      "▁pundh": 8041,
      "inggu.": 8042,
      "▁sinar": 8043,
      "▁panik.": 8044,
      "anye": 8045,
      "▁ajur": 8046,
      "▁gelut": 8047,
      "▁warni": 8048,
      "▁Em": 8049,
      ".\"K": 8050,
      "▁uwise": 8051,
      "▁pelajar": 8052,
      "▁tuwa,": 8053,
      "▁ilmi": 8054,
      "▁Ananging": 8055,
      "▁pinar": 8056,
      "▁null": 8057,
      "▁endog": 8058,
      "▁dicerit": 8059,
      "eksa,": 8060,
      "▁kaos": 8061,
      "▁setaun": 8062,
      "▁koth": 8063,
      "▁turu,": 8064,
      "▁de'e.": 8065,
      "▁kagem": 8066,
      "▁antri": 8067,
      "▁tenan.": 8068,
      "▁munya": 8069,
      "▁ngliwati": 8070,
      "-gara": 8071,
      "▁meksa": 8072,
      "▁andika": 8073,
      "▁pengguna": 8074,
      "▁Supaya": 8075,
      "▁kadhaton": 8076,
      "▁papr": 8077,
      "▁rahadyan": 8078,
      "▁laptop.": 8079,
      "▁patih,": 8080,
      "▁ngiling": 8081,
      "▁maju.": 8082,
      "▁Peny": 8083,
      "▁kesehatane": 8084,
      "▁kandel": 8085,
      "▁mili": 8086,
      "▁kebutuhane": 8087,
      "▁nikmati": 8088,
      "▁karsaning": 8089,
      "▁sanadyan": 8090,
      "▁srengeng": 8091,
      "▁sedhih": 8092,
      "▁gawene": 8093,
      "▁Bali.": 8094,
      "▁SMA.": 8095,
      "▁cacahe": 8096,
      "▁darurat.": 8097,
      "erluan": 8098,
      "▁ngawasi": 8099,
      "▁Parangt": 8100,
      "▁berhasil": 8101,
      "▁Budi.": 8102,
      "▁nunggu": 8103,
      "▁Mesin": 8104,
      "▁Anton": 8105,
      "▁juara": 8106,
      "▁bareng-bareng.": 8107,
      "▁Sangkuni:": 8108,
      "▁Suks": 8109,
      "▁rampung.": 8110,
      "▁gusti,": 8111,
      "▁daerah.": 8112,
      "▁dasare": 8113,
      "▁nolak": 8114,
      "▁Jedhi,": 8115,
      "▁kimia": 8116,
      "▁Babagan": 8117,
      "▁minggah": 8118,
      "▁instan": 8119,
      "▁rante": 8120,
      "▁pathet": 8121,
      "▁momen": 8122,
      "▁Gathutk": 8123,
      "▁nutrisi": 8124,
      "▁Yusuf": 8125,
      "TA": 8126,
      "h.": 8127,
      "ie": 8128,
      "ju": 8129,
      "jan": 8130,
      "jen": 8131,
      "lu": 8132,
      "oe": 8133,
      "rim": 8134,
      "▁q": 8135,
      "▁satu": 8136,
      "▁sateng": 8137,
      "▁sima": 8138,
      "▁suhu": 8139,
      "angipun": 8140,
      "akar": 8141,
      "argo": 8142,
      "▁mong": 8143,
      "▁mog": 8144,
      "▁manira": 8145,
      "ike.": 8146,
      "▁nit": 8147,
      "▁namb": 8148,
      "▁niki": 8149,
      "▁naf": 8150,
      "▁nunten": 8151,
      "▁bod": 8152,
      "▁bupati,": 8153,
      "ahipun": 8154,
      "▁taj": 8155,
      "▁lega": 8156,
      "eken": 8157,
      "ekna": 8158,
      "asm": 8159,
      "▁wiy": 8160,
      "▁waya": 8161,
      "▁wungu": 8162,
      "▁ngasi": 8163,
      "▁ngimpi": 8164,
      "ada.": 8165,
      "urd": 8166,
      "urat": 8167,
      "▁gaman": 8168,
      "▁gender": 8169,
      "eling,": 8170,
      "ungku": 8171,
      "aping": 8172,
      "apat,": 8173,
      "▁Sah": 8174,
      "▁Siji": 8175,
      "▁Sekti,": 8176,
      "▁digo": 8177,
      "▁dioleh": 8178,
      "uwin": 8179,
      "ulah": 8180,
      "ulan,": 8181,
      "▁jati": 8182,
      "▁Kon": 8183,
      "▁Kewan": 8184,
      "ihi": 8185,
      "iram": 8186,
      "ilan,": 8187,
      "illah": 8188,
      "▁Pon": 8189,
      "▁Patah": 8190,
      "edan": 8191
    },
    "merges": [
      [
        "n",
        "g"
      ],
      [
        "a",
        "n"
      ],
      [
        "▁",
        "s"
      ],
      [
        "▁",
        "k"
      ],
      [
        "a",
        "ng"
      ],
      [
        "i",
        "ng"
      ],
      [
        "a",
        "k"
      ],
      [
        "a",
        "r"
      ],
      [
        "▁",
        "d"
      ],
      [
        "e",
        "n"
      ],
      [
        "▁",
        "m"
      ],
      [
        "▁",
        "p"
      ],
      [
        "i",
        "k"
      ],
      [
        "▁",
        "n"
      ],
      [
        "▁",
        "b"
      ],
      [
        "e",
        "r"
      ],
      [
        "a",
        "h"
      ],
      [
        "a",
        "l"
      ],
      [
        "a",
        "m"
      ],
      [
        "▁",
        "t"
      ],
      [
        "a",
        "t"
      ],
      [
        "▁",
        "l"
      ],
      [
        "e",
        "k"
      ],
      [
        "a",
        "s"
      ],
      [
        "i",
        "s"
      ],
      [
        "▁",
        "w"
      ],
      [
        "▁s",
        "ing"
      ],
      [
        "o",
        "n"
      ],
      [
        "e",
        "ng"
      ],
      [
        "▁",
        "ng"
      ],
      [
        "a",
        "w"
      ],
      [
        "i",
        "n"
      ],
      [
        "r",
        "a"
      ],
      [
        "u",
        "n"
      ],
      [
        "a",
        "d"
      ],
      [
        "u",
        "r"
      ],
      [
        "▁",
        "ik"
      ],
      [
        "▁",
        "g"
      ],
      [
        "e",
        "l"
      ],
      [
        "u",
        "ng"
      ],
      [
        "▁",
        "o"
      ],
      [
        "▁k",
        "u"
      ],
      [
        "an",
        "e"
      ],
      [
        "o",
        "k"
      ],
      [
        "e",
        "s"
      ],
      [
        "e",
        "m"
      ],
      [
        "e",
        "t"
      ],
      [
        "a",
        "p"
      ],
      [
        "i",
        "t"
      ],
      [
        "y",
        "a"
      ],
      [
        "o",
        "ng"
      ],
      [
        "▁",
        "S"
      ],
      [
        "u",
        "k"
      ],
      [
        "u",
        "t"
      ],
      [
        "u",
        "s"
      ],
      [
        "▁d",
        "i"
      ],
      [
        "a",
        "g"
      ],
      [
        "▁ik",
        "u"
      ],
      [
        "e",
        "h"
      ],
      [
        "e",
        "w"
      ],
      [
        "▁",
        "r"
      ],
      [
        "u",
        "w"
      ],
      [
        "u",
        "l"
      ],
      [
        "ang",
        "g"
      ],
      [
        "▁",
        "j"
      ],
      [
        "u",
        "m"
      ],
      [
        "▁o",
        "ra"
      ],
      [
        "▁",
        "K"
      ],
      [
        "e",
        "p"
      ],
      [
        "i",
        "h"
      ],
      [
        "▁l",
        "an"
      ],
      [
        "i",
        "r"
      ],
      [
        "i",
        "l"
      ],
      [
        "▁",
        "P"
      ],
      [
        "e",
        "d"
      ],
      [
        "▁",
        "A"
      ],
      [
        "▁",
        "an"
      ],
      [
        "g",
        "a"
      ],
      [
        "▁",
        "ak"
      ],
      [
        "o",
        "l"
      ],
      [
        "a",
        "b"
      ],
      [
        "▁d",
        "h"
      ],
      [
        "i",
        ","
      ],
      [
        "▁",
        "ing"
      ],
      [
        "am",
        "b"
      ],
      [
        "▁",
        "c"
      ],
      [
        "o",
        "r"
      ],
      [
        "▁",
        "N"
      ],
      [
        "▁",
        "is"
      ],
      [
        "▁",
        "M"
      ],
      [
        "ar",
        "a"
      ],
      [
        "▁ik",
        "i"
      ],
      [
        "▁w",
        "ong"
      ],
      [
        "▁",
        "B"
      ],
      [
        "▁n",
        "ang"
      ],
      [
        "▁",
        "aw"
      ],
      [
        "a",
        ","
      ],
      [
        "ad",
        "i"
      ],
      [
        "ew",
        "e"
      ],
      [
        "a",
        "j"
      ],
      [
        "am",
        "p"
      ],
      [
        "▁",
        "y"
      ],
      [
        "i",
        "p"
      ],
      [
        "▁k",
        "ar"
      ],
      [
        "t",
        "i"
      ],
      [
        "▁",
        "T"
      ],
      [
        "ak",
        "e"
      ],
      [
        "e",
        "g"
      ],
      [
        "d",
        "h"
      ],
      [
        "on",
        "o"
      ],
      [
        "a",
        "y"
      ],
      [
        "i",
        "."
      ],
      [
        "e",
        "b"
      ],
      [
        "angg",
        "o"
      ],
      [
        "i",
        "y"
      ],
      [
        "n",
        "o"
      ],
      [
        "▁aw",
        "ak"
      ],
      [
        "u",
        "h"
      ],
      [
        "▁",
        "u"
      ],
      [
        "▁",
        "D"
      ],
      [
        "▁dh",
        "ewe"
      ],
      [
        "o",
        "s"
      ],
      [
        "▁s",
        "ak"
      ],
      [
        "i",
        "m"
      ],
      [
        "aw",
        "e"
      ],
      [
        "▁ku",
        "i"
      ],
      [
        "o",
        "t"
      ],
      [
        "e",
        "."
      ],
      [
        "▁d",
        "adi"
      ],
      [
        "a",
        "."
      ],
      [
        "▁",
        "amb"
      ],
      [
        "▁",
        "I"
      ],
      [
        "▁s",
        "i"
      ],
      [
        "an",
        "."
      ],
      [
        "ang",
        "k"
      ],
      [
        "a",
        "ya"
      ],
      [
        "an",
        "t"
      ],
      [
        "▁m",
        "a"
      ],
      [
        "▁kar",
        "o"
      ],
      [
        "u",
        "p"
      ],
      [
        "an",
        "d"
      ],
      [
        "▁n",
        "y"
      ],
      [
        "▁p",
        "er"
      ],
      [
        "en",
        "t"
      ],
      [
        "▁amb",
        "ek"
      ],
      [
        "o",
        "m"
      ],
      [
        "in",
        "e"
      ],
      [
        "▁ak",
        "u"
      ],
      [
        "▁an",
        "a"
      ],
      [
        "▁k",
        "anggo"
      ],
      [
        "d",
        "u"
      ],
      [
        "▁is",
        "o"
      ],
      [
        "▁u",
        "ga"
      ],
      [
        "▁",
        "ut"
      ],
      [
        "ang",
        "an"
      ],
      [
        "▁t",
        "er"
      ],
      [
        "▁",
        "J"
      ],
      [
        "uw",
        "e"
      ],
      [
        "▁ak",
        "eh"
      ],
      [
        "al",
        "ah"
      ],
      [
        "en",
        "eng"
      ],
      [
        "▁b",
        "is"
      ],
      [
        "▁",
        "R"
      ],
      [
        "▁n",
        "ing"
      ],
      [
        "k",
        "u"
      ],
      [
        "▁k",
        "ang"
      ],
      [
        "o",
        "w"
      ],
      [
        "en",
        "e"
      ],
      [
        "▁n",
        "eng"
      ],
      [
        "▁p",
        "as"
      ],
      [
        "▁",
        "ono"
      ],
      [
        "ip",
        "un"
      ],
      [
        "▁",
        "am"
      ],
      [
        "▁",
        "ap"
      ],
      [
        "an",
        ","
      ],
      [
        "▁w",
        "is"
      ],
      [
        "ar",
        "ang"
      ],
      [
        "▁bis",
        "a"
      ],
      [
        "▁g",
        "awe"
      ],
      [
        "en",
        "d"
      ],
      [
        "▁ku",
        "w"
      ],
      [
        "▁",
        "W"
      ],
      [
        "▁t",
        "ek"
      ],
      [
        "▁",
        "h"
      ],
      [
        "▁ku",
        "du"
      ],
      [
        "ar",
        "ga"
      ],
      [
        "▁s",
        "ek"
      ],
      [
        "as",
        "i"
      ],
      [
        "em",
        "b"
      ],
      [
        "▁",
        "ya"
      ],
      [
        "o",
        "y"
      ],
      [
        "or",
        "o"
      ],
      [
        "▁y",
        "en"
      ],
      [
        "u",
        ","
      ],
      [
        "o",
        "d"
      ],
      [
        "▁b",
        "en"
      ],
      [
        "ad",
        "h"
      ],
      [
        "▁m",
        "en"
      ],
      [
        "▁",
        "\""
      ],
      [
        "▁y",
        "o"
      ],
      [
        "j",
        "i"
      ],
      [
        "▁ng",
        "er"
      ],
      [
        "aw",
        "a"
      ],
      [
        "e",
        ","
      ],
      [
        "at",
        "i"
      ],
      [
        "an",
        "c"
      ],
      [
        "u",
        "."
      ],
      [
        "u",
        "d"
      ],
      [
        "▁",
        "G"
      ],
      [
        "▁",
        "L"
      ],
      [
        "▁",
        "ar"
      ],
      [
        "▁p",
        "r"
      ],
      [
        "▁n",
        "ag"
      ],
      [
        "i",
        "b"
      ],
      [
        "▁n",
        "d"
      ],
      [
        "ik",
        "u"
      ],
      [
        "an",
        "a"
      ],
      [
        "an",
        "j"
      ],
      [
        "ang",
        "s"
      ],
      [
        "o",
        "g"
      ],
      [
        "▁s",
        "a"
      ],
      [
        "ed",
        "h"
      ],
      [
        "▁s",
        "amp"
      ],
      [
        "▁b",
        "ak"
      ],
      [
        "ow",
        "o"
      ],
      [
        "▁w",
        "es"
      ],
      [
        "▁kuw",
        "i"
      ],
      [
        "o",
        "c"
      ],
      [
        "i",
        "d"
      ],
      [
        "p",
        "o"
      ],
      [
        "al",
        "e"
      ],
      [
        "on",
        "t"
      ],
      [
        "ar",
        "i"
      ],
      [
        "ang",
        "et"
      ],
      [
        "▁ma",
        "eng"
      ],
      [
        "an",
        "i"
      ],
      [
        "ik",
        "i"
      ],
      [
        "▁m",
        "b"
      ],
      [
        "r",
        "i"
      ],
      [
        "e",
        "j"
      ],
      [
        "ab",
        "eh"
      ],
      [
        "k",
        "ang"
      ],
      [
        "a",
        "c"
      ],
      [
        "▁",
        "1"
      ],
      [
        "o",
        "h"
      ],
      [
        "at",
        "a"
      ],
      [
        "on",
        "e"
      ],
      [
        "▁",
        "al"
      ],
      [
        "t",
        "a"
      ],
      [
        "▁p",
        "eng"
      ],
      [
        "o",
        "b"
      ],
      [
        "ap",
        "i"
      ],
      [
        "▁",
        "Y"
      ],
      [
        "▁m",
        "es"
      ],
      [
        "▁di",
        "p"
      ],
      [
        "as",
        "a"
      ],
      [
        "▁k",
        "er"
      ],
      [
        "▁am",
        "arga"
      ],
      [
        "g",
        "o"
      ],
      [
        "ek",
        "e"
      ],
      [
        "▁k",
        "on"
      ],
      [
        "▁k",
        "al"
      ],
      [
        "ik",
        "a"
      ],
      [
        "▁b",
        "anget"
      ],
      [
        "▁ut",
        "owo"
      ],
      [
        "▁ing",
        "kang"
      ],
      [
        "▁l",
        "iy"
      ],
      [
        "▁o",
        "m"
      ],
      [
        "▁",
        "f"
      ],
      [
        "▁bak",
        "al"
      ],
      [
        "▁m",
        "ung"
      ],
      [
        "▁ng",
        "g"
      ],
      [
        "a",
        "u"
      ],
      [
        "▁k",
        "oy"
      ],
      [
        "i",
        "w"
      ],
      [
        "u",
        "b"
      ],
      [
        "▁m",
        "er"
      ],
      [
        "▁",
        "ra"
      ],
      [
        "ah",
        "."
      ],
      [
        "ah",
        "e"
      ],
      [
        "▁di",
        "g"
      ],
      [
        "n",
        "a"
      ],
      [
        "▁g",
        "ak"
      ],
      [
        "▁k",
        "abeh"
      ],
      [
        "ag",
        "i"
      ],
      [
        "ak",
        "on"
      ],
      [
        "▁k",
        "el"
      ],
      [
        "▁b",
        "er"
      ],
      [
        "▁ya",
        "iku"
      ],
      [
        "▁",
        "at"
      ],
      [
        "▁ter",
        "us"
      ],
      [
        "▁m",
        "as"
      ],
      [
        "o",
        "."
      ],
      [
        "as",
        "ane"
      ],
      [
        "en",
        "i"
      ],
      [
        "a",
        "i"
      ],
      [
        "▁ng",
        "el"
      ],
      [
        "▁",
        "as"
      ],
      [
        "u",
        "g"
      ],
      [
        "▁k",
        "at"
      ],
      [
        "i",
        "j"
      ],
      [
        "am",
        "a"
      ],
      [
        "▁sak",
        "a"
      ],
      [
        "a",
        "e"
      ],
      [
        "in",
        "t"
      ],
      [
        "▁d",
        "is"
      ],
      [
        "▁l",
        "uw"
      ],
      [
        "▁t",
        "an"
      ],
      [
        "▁p",
        "ra"
      ],
      [
        "▁tek",
        "o"
      ],
      [
        "▁si",
        "ji"
      ],
      [
        "ar",
        "an"
      ],
      [
        "▁",
        "H"
      ],
      [
        "▁p",
        "en"
      ],
      [
        "▁o",
        "l"
      ],
      [
        "m",
        "u"
      ],
      [
        "▁",
        "2"
      ],
      [
        "▁p",
        "al"
      ],
      [
        "▁d",
        "uwe"
      ],
      [
        "▁",
        "ang"
      ],
      [
        "u",
        "j"
      ],
      [
        "▁d",
        "an"
      ],
      [
        "un",
        "e"
      ],
      [
        "▁k",
        "et"
      ],
      [
        "▁",
        "on"
      ],
      [
        "▁d",
        "it"
      ],
      [
        "▁",
        "C"
      ],
      [
        "i",
        "a"
      ],
      [
        "ane",
        "h"
      ],
      [
        "▁s",
        "alah"
      ],
      [
        "el",
        "ok"
      ],
      [
        "ah",
        ","
      ],
      [
        "▁k",
        "en"
      ],
      [
        "▁s",
        "eneng"
      ],
      [
        "▁",
        "O"
      ],
      [
        "▁ap",
        "ik"
      ],
      [
        "▁p",
        "ol"
      ],
      [
        "▁s",
        "o"
      ],
      [
        "▁k",
        "ep"
      ],
      [
        "am",
        "an"
      ],
      [
        "b",
        "u"
      ],
      [
        "▁luw",
        "ih"
      ],
      [
        "anj",
        "ur"
      ],
      [
        "ane",
        "."
      ],
      [
        "e",
        "c"
      ],
      [
        "▁is",
        "ok"
      ],
      [
        "ang",
        "ing"
      ],
      [
        "▁b",
        "i"
      ],
      [
        "em",
        "p"
      ],
      [
        "s",
        "i"
      ],
      [
        "at",
        "an"
      ],
      [
        "ah",
        "an"
      ],
      [
        "▁m",
        "ar"
      ],
      [
        "▁sa",
        "iki"
      ],
      [
        "▁s",
        "am"
      ],
      [
        "-",
        "b"
      ],
      [
        "ur",
        "ung"
      ],
      [
        "▁k",
        "aya"
      ],
      [
        "▁nang",
        "ing"
      ],
      [
        "uk",
        "u"
      ],
      [
        "▁",
        "ad"
      ],
      [
        "an",
        "dh"
      ],
      [
        "oc",
        "ah"
      ],
      [
        "i",
        "ra"
      ],
      [
        "▁pal",
        "ing"
      ],
      [
        "▁o",
        "po"
      ],
      [
        "n",
        "d"
      ],
      [
        "▁ku",
        "l"
      ],
      [
        "s",
        "a"
      ],
      [
        "▁ng",
        "anggo"
      ],
      [
        "▁p",
        "angg"
      ],
      [
        "ew",
        "eke"
      ],
      [
        "▁s",
        "ang"
      ],
      [
        "▁an",
        "c"
      ],
      [
        "▁m",
        "aneh"
      ],
      [
        "▁",
        "ur"
      ],
      [
        "▁m",
        "arang"
      ],
      [
        "▁p",
        "ara"
      ],
      [
        "o",
        "p"
      ],
      [
        "▁",
        "en"
      ],
      [
        "▁A",
        "ku"
      ],
      [
        "▁p",
        "un"
      ],
      [
        "h",
        "i"
      ],
      [
        "▁on",
        "ok"
      ],
      [
        "▁n",
        "j"
      ],
      [
        "▁n",
        "ek"
      ],
      [
        "ang",
        "."
      ],
      [
        "▁N",
        "anging"
      ],
      [
        "▁koy",
        "ok"
      ],
      [
        "ing",
        "g"
      ],
      [
        "k",
        "e"
      ],
      [
        "-",
        "w"
      ],
      [
        "▁S",
        "ing"
      ],
      [
        "im",
        "b"
      ],
      [
        "-",
        "k"
      ],
      [
        "ak",
        "no"
      ],
      [
        "al",
        "i"
      ],
      [
        "▁k",
        "es"
      ],
      [
        "akon",
        "i"
      ],
      [
        "▁so",
        "ale"
      ],
      [
        "▁s",
        "in"
      ],
      [
        "▁m",
        "an"
      ],
      [
        "▁m",
        "l"
      ],
      [
        "▁anc",
        "ene"
      ],
      [
        "▁",
        "U"
      ],
      [
        "▁j",
        "eneng"
      ],
      [
        "ang",
        ","
      ],
      [
        "▁p",
        "ut"
      ],
      [
        "▁d",
        "in"
      ],
      [
        "▁ut",
        "awa"
      ],
      [
        "▁mes",
        "ti"
      ],
      [
        "▁kon",
        "c"
      ],
      [
        "▁d",
        "ewe"
      ],
      [
        "aw",
        "an"
      ],
      [
        "-",
        "m"
      ],
      [
        "▁p",
        "an"
      ],
      [
        "▁di",
        "l"
      ],
      [
        "amb",
        "ah"
      ],
      [
        "eng",
        "g"
      ],
      [
        "o",
        ","
      ],
      [
        "ap",
        "a"
      ],
      [
        "▁nger",
        "ti"
      ],
      [
        "▁n",
        "eg"
      ],
      [
        "h",
        "ir"
      ],
      [
        "▁I",
        "nd"
      ],
      [
        "▁l",
        "agi"
      ],
      [
        "al",
        "an"
      ],
      [
        "ung",
        "g"
      ],
      [
        "ur",
        "an"
      ],
      [
        "in",
        "d"
      ],
      [
        "an",
        "y"
      ],
      [
        "▁s",
        "ar"
      ],
      [
        "▁k",
        "ad"
      ],
      [
        "▁",
        "ag"
      ],
      [
        "▁m",
        "r"
      ],
      [
        "▁t",
        "ak"
      ],
      [
        "ol",
        "an"
      ],
      [
        "▁t",
        "api"
      ],
      [
        "um",
        "p"
      ],
      [
        "▁d",
        "urung"
      ],
      [
        "▁p",
        "em"
      ],
      [
        "▁p",
        "adh"
      ],
      [
        "▁T",
        "er"
      ],
      [
        "▁per",
        "k"
      ],
      [
        "▁s",
        "is"
      ],
      [
        "▁t",
        "et"
      ],
      [
        "y",
        "an"
      ],
      [
        "▁d",
        "ik"
      ],
      [
        "▁",
        "aj"
      ],
      [
        "on",
        "es"
      ],
      [
        "▁m",
        "ul"
      ],
      [
        "▁ur",
        "ip"
      ],
      [
        "-",
        "p"
      ],
      [
        "▁sek",
        "o"
      ],
      [
        "▁k",
        "ant"
      ],
      [
        "▁pangg",
        "on"
      ],
      [
        "eng",
        "k"
      ],
      [
        "ak",
        "u"
      ],
      [
        "▁k",
        "eb"
      ],
      [
        "▁A",
        "w"
      ],
      [
        "ont",
        "en"
      ],
      [
        "t",
        "r"
      ],
      [
        "ik",
        "."
      ],
      [
        "▁N",
        "ah"
      ],
      [
        "▁g",
        "el"
      ],
      [
        "▁om",
        "ah"
      ],
      [
        "▁Y",
        "en"
      ],
      [
        ".",
        "."
      ],
      [
        "it",
        "a"
      ],
      [
        "▁Ind",
        "ones"
      ],
      [
        "▁mer",
        "go"
      ],
      [
        "▁",
        "um"
      ],
      [
        "▁P",
        "as"
      ],
      [
        "▁b",
        "anjur"
      ],
      [
        "▁d",
        "ad"
      ],
      [
        "▁N",
        "g"
      ],
      [
        "▁liy",
        "ane"
      ],
      [
        "▁b",
        "ar"
      ],
      [
        "j",
        "a"
      ],
      [
        "▁m",
        "at"
      ],
      [
        "▁t",
        "a"
      ],
      [
        "an",
        "ti"
      ],
      [
        "ik",
        "ir"
      ],
      [
        "▁k",
        "ono"
      ],
      [
        "is",
        "i"
      ],
      [
        "ad",
        "en"
      ],
      [
        "▁m",
        "al"
      ],
      [
        "▁w",
        "us"
      ],
      [
        "aj",
        "eng"
      ],
      [
        "▁k",
        "ap"
      ],
      [
        "ara",
        "i"
      ],
      [
        "▁padh",
        "a"
      ],
      [
        "▁p",
        "ar"
      ],
      [
        "y",
        "ar"
      ],
      [
        "es",
        "t"
      ],
      [
        "u",
        "c"
      ],
      [
        "un",
        "t"
      ],
      [
        "▁s",
        "ep"
      ],
      [
        "ent",
        "uk"
      ],
      [
        "▁samp",
        "un"
      ],
      [
        "▁b",
        "al"
      ],
      [
        "▁s",
        "up"
      ],
      [
        "▁d",
        "en"
      ],
      [
        "▁w",
        "ar"
      ],
      [
        "▁si",
        "j"
      ],
      [
        "▁t",
        "ok"
      ],
      [
        "ak",
        "en"
      ],
      [
        "▁k",
        "r"
      ],
      [
        "▁ol",
        "eh"
      ],
      [
        "il",
        "ih"
      ],
      [
        "▁b",
        "ab"
      ],
      [
        "at",
        "ih"
      ],
      [
        "▁b",
        "arang"
      ],
      [
        "▁m",
        "el"
      ],
      [
        "▁",
        "e"
      ],
      [
        "▁m",
        "angk"
      ],
      [
        "os",
        "o"
      ],
      [
        "ak",
        "a"
      ],
      [
        "▁M",
        "b"
      ],
      [
        "angs",
        "ung"
      ],
      [
        "▁jeneng",
        "e"
      ],
      [
        "▁p",
        "angan"
      ],
      [
        "▁w",
        "ed"
      ],
      [
        "▁s",
        "aw"
      ],
      [
        "at",
        "."
      ],
      [
        "▁dig",
        "awe"
      ],
      [
        "un",
        "d"
      ],
      [
        "ung",
        "an"
      ],
      [
        "ar",
        "ane"
      ],
      [
        "▁g",
        "amp"
      ],
      [
        "▁tet",
        "ep"
      ],
      [
        "ak",
        "."
      ],
      [
        "▁ap",
        "a"
      ],
      [
        "▁is",
        "ih"
      ],
      [
        "▁",
        "ib"
      ],
      [
        "▁ku",
        "i,"
      ],
      [
        "▁awak",
        "mu"
      ],
      [
        "y",
        "ang"
      ],
      [
        "▁l",
        "angsung"
      ],
      [
        "▁ar",
        "ep"
      ],
      [
        "um",
        "b"
      ],
      [
        "▁b",
        "ocah"
      ],
      [
        "▁w",
        "ae"
      ],
      [
        "▁di",
        "b"
      ],
      [
        "▁di",
        "d"
      ],
      [
        "ol",
        "ek"
      ],
      [
        "▁ng",
        "ono"
      ],
      [
        "us",
        "ah"
      ],
      [
        "▁",
        "E"
      ],
      [
        "▁sek",
        "ol"
      ],
      [
        "-w",
        "ong"
      ],
      [
        "at",
[...]
